<unk>	0.0
<s>	0.0
</s>	0.0
।	-3.2605879306793213
,	-3.406041383743286
▁এবং	-4.6488871574401855
ের	-4.661951065063477
-	-4.758416175842285
র	-4.9143476486206055
.	-4.921899318695068
▁ও	-4.933165550231934
▁করে	-4.9452691078186035
:	-4.969675540924072
▁(	-5.025979042053223
▁করা	-5.070526123046875
)	-5.076189041137695
▁এই	-5.192494869232178
▁না	-5.24047327041626
▁যে	-5.267496585845947
▁জন্য	-5.275973320007324
▁হয়	-5.388241767883301
▁"	-5.399092674255371
ে	-5.41632604598999
?	-5.442539215087891
▁থেকে	-5.476792812347412
▁তিনি	-5.5401177406311035
কে	-5.552501201629639
▁তার	-5.598073482513428
▁করতে	-5.673795223236084
▁একটি	-5.709622383117676
▁আমি	-5.7858500480651855
▁আর	-5.8123459815979
"	-5.840936660766602
ই	-5.8438286781311035
▁করেন	-5.868032932281494
▁-	-5.884396553039551
▁তাদের	-5.8951191902160645
▁করার	-5.896581172943115
▁আমাদের	-5.901669025421143
▁এর	-5.927596569061279
▁এক	-5.970909595489502
▁আমরা	-5.989225387573242
▁ছিল	-6.012640476226807
ও	-6.022582054138184
▁বা	-6.048896789550781
▁হবে	-6.151925086975098
▁তা	-6.165605545043945
▁মধ্যে	-6.169666290283203
▁সালে	-6.172031402587891
▁তারা	-6.197840690612793
▁এ	-6.198261737823486
▁কিন্তু	-6.2000532150268555
▁কি	-6.231977462768555
▁কোন	-6.233320713043213
▁আমার	-6.242451190948486
;	-6.300100326538086
▁একজন	-6.311539173126221
▁যা	-6.321305274963379
▁হয়েছে	-6.361745834350586
▁হয়ে	-6.37765645980835
▁সেই	-6.382945537567139
▁তাঁর	-6.400452136993408
▁সাথে	-6.401790142059326
!	-6.426488876342773
▁কিছু	-6.427977085113525
'	-6.429320335388184
▁সঙ্গে	-6.431061267852783
▁সে	-6.451103687286377
▁একটা	-6.471188068389893
▁নিয়ে	-6.477322101593018
টি	-6.489900588989258
▁পারে	-6.508235454559326
▁সময়	-6.5114521980285645
▁হিসেবে	-6.540679454803467
তে	-6.547150135040283
▁এটা	-6.549310684204102
▁কাজ	-6.591371059417725
▁যায়	-6.592850208282471
▁'	-6.623416423797607
ন	-6.6484599113464355
▁।	-6.662540435791016
▁বলে	-6.6696696281433105
▁আছে	-6.681087970733643
▁আপনি	-6.681190013885498
▁যখন	-6.682379722595215
▁	-6.68474817276001
▁রয়েছে	-6.689062118530273
▁কথা	-6.719967365264893
▁সালের	-6.724097728729248
দের	-6.7317657470703125
▁১	-6.735659599304199
▁অনেক	-6.739575386047363
▁প্রতি	-6.752189636230469
▁মনে	-6.754537105560303
য়	-6.781846046447754
▁হয়েছিল	-6.782026767730713
▁পর	-6.802393436431885
স	-6.802765369415283
▁যদি	-6.803879737854004
▁করেছিলেন	-6.825484752655029
▁২	-6.831795692443848
▁প্রথম	-6.848309516906738
▁হতে	-6.848923683166504
▁কাছে	-6.849684715270996
রা	-6.850987434387207
▁হল	-6.870875835418701
▁তুমি	-6.875202178955078
▁নয়	-6.876282691955566
▁এটি	-6.886473655700684
▁শুরু	-6.886868476867676
১	-6.894106864929199
।"	-6.894660949707031
▁দিয়ে	-6.9016432762146
▁দ্বারা	-6.915172576904297
▁ব্যবহার	-6.917279243469238
▁থাকে	-6.920171737670898
▁ছিলেন	-6.924751281738281
...	-6.927592754364014
▁বছর	-6.9348602294921875
▁করেছে	-6.939387798309326
▁ঈশ্বরের	-6.9479804039001465
▁হচ্ছে	-6.958942413330078
ক	-6.9634270668029785
▁আপনার	-6.963840961456299
▁যিহোবার	-6.974506855010986
▁কী	-6.975523471832275
▁তখন	-7.012145042419434
টা	-7.0123467445373535
া	-7.013205528259277
▁করুন	-7.016111373901367
▁এমন	-7.054205894470215
▁তাকে	-7.060842514038086
ি	-7.071176528930664
▁মাধ্যমে	-7.089338779449463
▁৩	-7.101495265960693
▁কোনো	-7.102508544921875
▁তাই	-7.1213202476501465
▁সাহায্য	-7.1339111328125
▁করেছেন	-7.140217304229736
▁বেশি	-7.141846656799316
▁করি	-7.145726203918457
▁পর্যন্ত	-7.148006916046143
▁নতুন	-7.151837348937988
▁অথবা	-7.158489227294922
▁[	-7.165350914001465
▁বিভিন্ন	-7.173916816711426
▁কারণ	-7.17671012878418
▁তোমার	-7.178249359130859
]	-7.184402942657471
▁আরও	-7.199330806732178
▁দেওয়া	-7.201633453369141
▁সম্বন্ধে	-7.203235626220703
▁উপর	-7.208573341369629
ী	-7.215248107910156
▁বিষয়ে	-7.2197723388671875
▁যারা	-7.231037139892578
এর	-7.248162269592285
▁এখন	-7.256881237030029
▁কেন	-7.267858028411865
▁৪	-7.272902011871338
▁দেখা	-7.292931079864502
▁জন	-7.296430587768555
▁আমাকে	-7.3042378425598145
▁যিহোবা	-7.316125392913818
▁নাম	-7.321805477142334
▁বাইবেল	-7.334097862243652
▁৫	-7.335901737213135
▁করেছিল	-7.342482566833496
▁নেই	-7.344191551208496
গুলো	-7.350521564483643
▁পারি	-7.354437828063965
▁করবে	-7.356127738952637
▁তবে	-7.359368324279785
▁হন	-7.361278533935547
▁অন্যান্য	-7.362329959869385
▁দিকে	-7.365209102630615
▁প্রায়	-7.3712921142578125
▁দেয়	-7.3786444664001465
▁মতো	-7.379074573516846
তা	-7.385948657989502
▁লাভ	-7.387368679046631
▁প্রধান	-7.390015602111816
▁৬	-7.396020889282227
▁শেষ	-7.398657321929932
▁সব	-7.414224624633789
২	-7.419442176818848
▁ক্ষেত্রে	-7.422278881072998
▁শিক্ষা	-7.422289848327637
▁তৈরি	-7.431349754333496
ভাবে	-7.43721342086792
▁অংশ	-7.443726539611816
▁হলে	-7.452010631561279
▁আগে	-7.461307048797607
▁উত্তর	-7.463160514831543
▁ঠিক	-7.467108249664307
এ	-7.467947959899902
▁পরে	-7.470752716064453
▁বলা	-7.481640815734863
▁কীভাবে	-7.493454933166504
▁অন্য	-7.498299598693848
▁এখানে	-7.500632286071777
▁প্রদান	-7.501471996307373
▁পারেন	-7.505265235900879
▁১০	-7.514955997467041
▁বিষয়	-7.516696929931641
▁তাহলে	-7.518050670623779
ল	-7.530704498291016
▁প্রকাশ	-7.531497478485107
▁ওপর	-7.532386779785156
▁ব্যক্তি	-7.5344557762146
/	-7.537001609802246
▁দিন	-7.542490005493164
না	-7.545960426330566
▁কারণে	-7.546894550323486
▁বড়	-7.555116176605225
▁হওয়ার	-7.55810022354126
▁খুব	-7.561845779418945
▁দিতে	-7.569280624389648
▁করছে	-7.569642543792725
▁ধরে	-7.570761203765869
ম	-7.571547031402588
▁যেমন	-7.57334566116333
▁সময়ে	-7.573416709899902
▁...	-7.587957859039307
▁জীবন	-7.593320846557617
),	-7.5942816734313965
▁বিশেষ	-7.5986762046813965
▁ধরনের	-7.599056243896484
▁বিশ্বাস	-7.599543571472168
▁সমস্ত	-7.599639415740967
▁ঈশ্বর	-7.606932163238525
▁যার	-7.608819484710693
▁যেতে	-7.610297203063965
▁ফলে	-7.618183135986328
▁১৫	-7.621456623077393
▁হিসাবে	-7.6299638748168945
▁জাতীয়	-7.631433486938477
▁কেউ	-7.63517427444458
গুলি	-7.636185646057129
▁যেখানে	-7.639964580535889
%	-7.64309549331665
▁সরকার	-7.643280506134033
▁পাওয়া	-7.64610481262207
▁গ্রহণ	-7.650527477264404
▁নামে	-7.652170181274414
৩	-7.657765865325928
▁বাংলাদেশ	-7.664011001586914
▁সকল	-7.6656494140625
▁১২	-7.69196081161499
৫	-7.694328308105469
▁উচিত	-7.707091331481934
▁৭	-7.733298301696777
▁সেখানে	-7.739859104156494
▁যেন	-7.740490913391113
▁চেষ্টা	-7.741283893585205
▁মত	-7.742011070251465
▁একই	-7.76140022277832
▁হয়তো	-7.761967182159424
▁অর্থ	-7.763223648071289
▁ব্যবস্থা	-7.76818323135376
▁বিরুদ্ধে	-7.768624305725098
▁কে	-7.777338027954102
▁ভারতের	-7.783944129943848
▁প্রয়োজন	-7.785046577453613
▁অ	-7.786173343658447
▁হওয়া	-7.787393569946289
▁সবচেয়ে	-7.796077728271484
▁আইন	-7.802235126495361
▁গুরুত্বপূর্ণ	-7.803560733795166
▁কর	-7.806776523590088
▁মানুষ	-7.81180477142334
▁যিনি	-7.814689636230469
৪	-7.820489406585693
▁১৭	-7.820740222930908
▁তথ্য	-7.824246406555176
▁ছবি	-7.832973957061768
▁৮	-7.835102558135986
▁বলেন	-7.840143203735352
▁লোক	-7.850149154663086
▁বলতে	-7.850922584533691
ত	-7.8523054122924805
▁তো	-7.852716445922852
▁১১	-7.867034912109375
▁সেটা	-7.870452404022217
▁কম	-7.872934818267822
ো	-7.873371601104736
জ	-7.8808159828186035
▁মা	-7.88640022277832
▁বলেছিলেন	-7.889303684234619
▁চলে	-7.891746520996094
▁যদিও	-7.898124694824219
ার	-7.89968204498291
▁দেন	-7.905523777008057
▁২০	-7.909064769744873
▁১৩	-7.910741329193115
ব	-7.916762828826904
▁সম্পর্কে	-7.918693542480469
▁যাবে	-7.921814441680908
নি	-7.9227728843688965
▁৯	-7.9305033683776855
▁দুই	-7.930709362030029
▁সদস্য	-7.932537078857422
▁১৪	-7.93373441696167
▁বিশ্ববিদ্যালয়	-7.93393611907959
▁বেশ	-7.93446159362793
▁দেখতে	-7.939596176147461
▁দল	-7.940406799316406
▁১৮	-7.941676616668701
▁করবেন	-7.942265510559082
▁নিজের	-7.943650722503662
▁১৬	-7.946146011352539
▁সুযোগ	-7.947262287139893
▁প্রচার	-7.950409412384033
▁সাধারণ	-7.952052593231201
▁দ্বিতীয়	-7.9547505378723145
▁ভাল	-7.955795764923096
▁অবস্থিত	-7.955848693847656
▁ছাড়া	-7.960935115814209
বি	-7.962589263916016
▁আল	-7.965733528137207
▁মানুষের	-7.97000789642334
▁গেছে	-7.972038745880127
▁পূর্ব	-7.97728967666626
▁পালন	-7.980261325836182
▁দক্ষিণ	-7.980335712432861
িত	-7.980645179748535
ঃ	-7.982043266296387
▁দেশের	-7.982444763183594
▁চেয়ে	-7.993432998657227
▁সেবা	-8.000589370727539
▁যিশু	-8.006030082702637
▁চিন্তা	-8.00704574584961
▁পরিচিত	-8.012184143066406
▁চলচ্চিত্র	-8.015090942382812
▁বাংলাদেশের	-8.015205383300781
▁পড়ে	-8.015613555908203
▁আবার	-8.016826629638672
৬	-8.017777442932129
▁শুধু	-8.018651962280273
▁দেওয়ার	-8.019789695739746
৮	-8.021478652954102
▁লোকেদের	-8.026819229125977
▁থাকা	-8.027138710021973
▁পরিবর্তন	-8.02863883972168
▁আন্তর্জাতিক	-8.02944564819336
▁ভাষায়	-8.030121803283691
৯	-8.031270980834961
▁দায়িত্ব	-8.034805297851562
▁নি	-8.037897109985352
▁উল্লেখ	-8.046547889709473
▁হার	-8.048685073852539
▁প্রকাশিত	-8.04975414276123
▁বন্ধ	-8.050902366638184
▁সত্য	-8.055928230285645
শ	-8.057317733764648
১৫	-8.057395935058594
▁যাতে	-8.065217018127441
▁বি	-8.065649032592773
▁তুলে	-8.068987846374512
৭	-8.072999954223633
▁কাজে	-8.074711799621582
▁ফিরে	-8.075183868408203
কা	-8.078031539916992
▁তোমাকে	-8.079652786254883
▁হলো	-8.079829216003418
▁ছোট	-8.08123779296875
▁যোগ	-8.08181095123291
▁গড়ে	-8.089624404907227
▁মে	-8.096433639526367
▁ভালো	-8.097380638122559
▁ই	-8.10018539428711
▁বাবা	-8.101911544799805
▁সাল	-8.10432243347168
▁ভারতীয়	-8.104991912841797
ীয়	-8.11107063293457
▁অব	-8.11350154876709
▁কর্তৃক	-8.117671012878418
▁কাছ	-8.118000030517578
কারী	-8.11963176727295
▁স্থানীয়	-8.123397827148438
▁পুরস্কার	-8.12983226776123
▁বছরের	-8.136495590209961
▁সংখ্যা	-8.136573791503906
গুলোর	-8.138848304748535
▁সৃষ্টি	-8.153983116149902
▁আলোচনা	-8.15818977355957
১০	-8.163066864013672
▁রাজনৈতিক	-8.16494083404541
▁রাখা	-8.16648006439209
▁আশা	-8.16688346862793
▁বুঝতে	-8.1671724319458
▁এমনকি	-8.168910026550293
সহ	-8.175653457641602
▁অনুযায়ী	-8.176124572753906
▁আরো	-8.177145957946777
▁নিজেদের	-8.178485870361328
▁দলের	-8.179285049438477
▁আপনাকে	-8.18270206451416
▁বাক্য	-8.186697959899902
▁হতো	-8.187787055969238
▁রাজ্যের	-8.192116737365723
▁বর্তমানে	-8.193456649780273
▁মারা	-8.194090843200684
্	-8.195395469665527
▁আসে	-8.195504188537598
▁থাকতে	-8.196907043457031
▁উদাহরণ	-8.197469711303711
▁ব্যাপারে	-8.19963550567627
▁ভাই	-8.20048713684082
▁বের	-8.20263385772705
▁যাচ্ছে	-8.205610275268555
ট	-8.20610523223877
▁তালিকা	-8.208788871765137
▁জেলা	-8.21046257019043
▁ঘোষণা	-8.212995529174805
▁গান	-8.213170051574707
▁টি	-8.217988014221191
▁ভাষা	-8.222373962402344
▁চাই	-8.223350524902344
সি	-8.22894287109375
▁সরকারের	-8.229111671447754
▁স্থান	-8.230834007263184
▁রাজা	-8.231770515441895
▁মাঝে	-8.234354972839355
▁বাংলা	-8.236152648925781
▁ক্ষমতা	-8.236233711242676
▁দিয়েছিলেন	-8.23687744140625
▁কেবল	-8.238678932189941
▁উচ্চ	-8.243638038635254
▁প্রার্থনা	-8.243670463562012
▁হাজার	-8.244258880615234
▁ঢাকা	-8.244747161865234
০০০	-8.245696067810059
গুলির	-8.246580123901367
▁পায়	-8.246891975402832
▁পরিবারের	-8.24925708770752
▁নারী	-8.249979019165039
▁নিতে	-8.250158309936523
▁সিদ্ধান্ত	-8.252823829650879
▁শহর	-8.253034591674805
১৭	-8.2543363571167
খ	-8.254725456237793
▁খুবই	-8.254977226257324
▁অধ্যয়ন	-8.257235527038574
▁যুদ্ধ	-8.257502555847168
▁যান	-8.258145332336426
▁শহরের	-8.25843334197998
মা	-8.260296821594238
▁মূল	-8.260772705078125
▁করো	-8.26097297668457
▁লক্ষ	-8.263758659362793
▁বৃদ্ধি	-8.268575668334961
▁তাদেরকে	-8.268880844116211
১৪	-8.273487091064453
▁দেখে	-8.27640151977539
▁প্রদর্শন	-8.277088165283203
▁২৪	-8.283820152282715
▁অফ	-8.284480094909668
প	-8.285052299499512
▁নিশ্চিত	-8.287622451782227
▁মার্কিন	-8.289496421813965
▁সম্ভব	-8.291650772094727
▁বিবেচনা	-8.293395042419434
▁এরপর	-8.296346664428711
▁পারবে	-8.297819137573242
▁বাইবেলের	-8.299029350280762
▁জেলার	-8.299508094787598
▁জন্ম	-8.300118446350098
▁অধিকার	-8.301621437072754
▁চান	-8.302477836608887
১২	-8.30538272857666
▁১৯	-8.305498123168945
▁অর্জন	-8.306093215942383
▁কলেজ	-8.307456970214844
টির	-8.307499885559082
▁সমস্যা	-8.308852195739746
১৬	-8.311246871948242
১৮	-8.31187915802002
১১	-8.315051078796387
▁লেখা	-8.316431999206543
▁মাসে	-8.316884994506836
▁তিন	-8.31773567199707
▁পরীক্ষা	-8.319327354431152
▁পুরুষ	-8.32107925415039
▁তাঁকে	-8.321403503417969
▁যীশু	-8.323206901550293
▁মহিলা	-8.325325965881348
১৩	-8.326742172241211
▁ঘটনা	-8.332322120666504
▁প্রেরিত	-8.333467483520508
▁অন্তর্ভুক্ত	-8.334335327148438
ং	-8.334734916687012
▁পরিবার	-8.33654499053955
▁দেশে	-8.33762264251709
▁দু	-8.338069915771484
▁যাওয়ার	-8.338208198547363
▁অনুসারে	-8.340495109558105
▁কেন্দ্র	-8.340866088867188
▁গিয়ে	-8.34174919128418
▁জীবনের	-8.344743728637695
▁অবস্থান	-8.349050521850586
গ	-8.349278450012207
▁কাজের	-8.350570678710938
লি	-8.350785255432129
▁দেয়া	-8.3514404296875
▁কয়েক	-8.357841491699219
▁প্রাচীন	-8.359906196594238
িং	-8.365954399108887
▁নির্বাচিত	-8.36634349822998
▁লোকেরা	-8.368447303771973
▁বার	-8.370291709899902
▁শক্তি	-8.370631217956543
▁ব্যাখ্যা	-8.371047973632812
▁দুটি	-8.371277809143066
▁খান	-8.37128734588623
▁পথ	-8.374053001403809
▁জন্যে	-8.375629425048828
▁কখনও	-8.377594947814941
▁পরিচালিত	-8.383267402648926
▁সারা	-8.384384155273438
▁ধর্মীয়	-8.38937759399414
▁উদ্দেশ্য	-8.389514923095703
তার	-8.389998435974121
▁ভুল	-8.39013957977295
▁প্রতিষ্ঠান	-8.392986297607422
▁দেখুন	-8.39393424987793
▁টাকা	-8.394330024719238
ড	-8.394416809082031
▁দরকার	-8.395611763000488
▁থাকবে	-8.3965425491333
▁চিত্র	-8.398090362548828
▁থাকার	-8.398699760437012
লা	-8.399474143981934
▁করত	-8.401948928833008
্য	-8.40234088897705
▁সামাজিক	-8.40243148803711
▁রাজ্য	-8.402520179748535
▁পরবর্তী	-8.402852058410645
▁পক্ষে	-8.402904510498047
▁যাওয়া	-8.403406143188477
%,	-8.408568382263184
▁বাস	-8.411064147949219
▁২১	-8.411223411560059
▁সম্পর্ক	-8.412611961364746
▁হয়নি	-8.413243293762207
▁মাত্র	-8.413921356201172
▁পৌল	-8.414806365966797
▁খুঁজে	-8.415756225585938
▁নির্মাণ	-8.416814804077148
▁করছেন	-8.417645454406738
জি	-8.420753479003906
▁২২	-8.420958518981934
▁ভাবে	-8.422194480895996
▁বিদ্যালয়	-8.423296928405762
।"-	-8.424229621887207
▁মৃত্যু	-8.424722671508789
▁দেশ	-8.424880981445312
▁অবশ্যই	-8.428512573242188
▁বার্তা	-8.431180953979492
▁রক্ষা	-8.43277645111084
▁২৫	-8.433815002441406
▁সরকারি	-8.435185432434082
▁সামনে	-8.43601131439209
পুর	-8.436936378479004
▁অনুষ্ঠিত	-8.437326431274414
▁জানি	-8.438129425048828
▁হ্যাঁ	-8.444652557373047
▁মার্চ	-8.447251319885254
▁ভারত	-8.449098587036133
▁প্রভাব	-8.451020240783691
▁?	-8.451228141784668
▁পদ	-8.451231002807617
▁ইতিহাস	-8.453466415405273
▁সি	-8.454171180725098
▁পৃষ্ঠার	-8.455129623413086
▁সময়ের	-8.455463409423828
▁৩০	-8.457733154296875
িয়া	-8.458560943603516
▁সহ	-8.459141731262207
▁পরিচালনা	-8.459187507629395
▁তোমাদের	-8.459821701049805
বা	-8.460724830627441
▁লক্ষ্য	-8.462626457214355
▁উল্লেখযোগ্য	-8.462902069091797
▁মধ্য	-8.463558197021484
▁সমর্থন	-8.46554183959961
▁প্রেম	-8.469131469726562
▁আসলে	-8.469605445861816
▁এতে	-8.471512794494629
▁বর্ণনা	-8.474099159240723
▁করতেন	-8.476724624633789
▁শিল্প	-8.481535911560059
▁শব্দ	-8.483552932739258
▁কখনো	-8.483784675598145
আমি	-8.485136032104492
▁আধ্যাত্মিক	-8.485716819763184
▁বর্তমান	-8.490251541137695
▁অন্যদের	-8.496743202209473
▁কঠিন	-8.497697830200195
▁ভয়	-8.49903392791748
▁স্থাপন	-8.501786231994629
▁বই	-8.503742218017578
▁তোমরা	-8.504460334777832
▁নির্বাচন	-8.506505012512207
▁ঐ	-8.506820678710938
▁কিভাবে	-8.508509635925293
▁ব্যবহৃত	-8.508564949035645
▁ক্রিকেট	-8.509194374084473
▁স্কুল	-8.510004997253418
▁উপ	-8.512038230895996
বার	-8.514291763305664
▁নামক	-8.515463829040527
▁ব্যক্তিগত	-8.519143104553223
▁ডি	-8.519461631774902
▁পরামর্শ	-8.519674301147461
▁গঠিত	-8.520103454589844
▁থাকেন	-8.520258903503418
িক	-8.520474433898926
▁সা	-8.520963668823242
▁পান	-8.522235870361328
▁হাতে	-8.523222923278809
▁মিনিট	-8.523468971252441
▁ব্যক্তিদের	-8.525373458862305
▁২৩	-8.525493621826172
▁নেওয়া	-8.526145935058594
▁অভিনয়	-8.529227256774902
▁নিজেকে	-8.529924392700195
▁পুলিশ	-8.530925750732422
▁ব্যক্তির	-8.532110214233398
১৯	-8.535042762756348
▁ছেড়ে	-8.536476135253906
▁দিয়েছে	-8.536887168884277
▁প্রশ্ন	-8.536951065063477
▁রাখতে	-8.538881301879883
▁আজ	-8.541666984558105
▁হাত	-8.542182922363281
ফ	-8.545273780822754
▁প্রাথমিক	-8.5452880859375
▁ঘটে	-8.550148010253906
▁ভিডিও	-8.550373077392578
▁পবিত্র	-8.550568580627441
▁আমাদেরকে	-8.550573348999023
▁ধারণা	-8.553376197814941
▁জানতে	-8.554431915283203
▁ভাগ	-8.557886123657227
▁প্রমাণ	-8.557954788208008
▁এলাকায়	-8.558637619018555
▁ডিসেম্বর	-8.55876636505127
▁ব্রিটিশ	-8.559907913208008
▁ধর্ম	-8.56071662902832
▁পরিণত	-8.561135292053223
▁সঠিক	-8.564215660095215
▁দিক	-8.564599990844727
▁ভূমিকা	-8.565216064453125
▁করছি	-8.568626403808594
সা	-8.5721435546875
হ	-8.573546409606934
▁সাধারণত	-8.573859214782715
▁সেগুলো	-8.574372291564941
▁বিভাগ	-8.575328826904297
▁সম্ভবত	-8.57639217376709
▁তারপর	-8.576842308044434
▁যোহন	-8.577676773071289
▁মান	-8.578500747680664
বে	-8.579329490661621
▁ফল	-8.579625129699707
▁এসব	-8.58067512512207
▁মুসলিম	-8.58160400390625
▁দ্য	-8.584151268005371
▁পরিকল্পনা	-8.586374282836914
▁ব্যর্থ	-8.589966773986816
▁এসে	-8.591155052185059
▁কোথায়	-8.593615531921387
▁সু	-8.593637466430664
দ	-8.597290992736816
▁পূর্বে	-8.59764289855957
▁এত	-8.59858512878418
▁#	-8.602289199829102
▁যাদের	-8.605616569519043
▁উপজেলা	-8.60686206817627
রি	-8.608076095581055
▁অবস্থা	-8.60969352722168
▁এপ্রিল	-8.60972785949707
▁উত্তম	-8.611656188964844
▁সংবাদ	-8.612276077270508
▁জানা	-8.612709999084473
▁সবাই	-8.61296272277832
▁উক্ত	-8.614150047302246
▁এলাকা	-8.614663124084473
▁মি	-8.615687370300293
▁দ্রুত	-8.617326736450195
▁গত	-8.618428230285645
▁বাইরে	-8.619222640991211
▁অন্যতম	-8.619585037231445
▁বরং	-8.62075138092041
ু	-8.620882034301758
▁সংক্রান্ত	-8.62365436553955
▁চালু	-8.62525749206543
▁যোগাযোগ	-8.631464958190918
▁২০১১	-8.633695602416992
▁উপস্থিত	-8.636330604553223
ভ	-8.637740135192871
▁এখনও	-8.639444351196289
▁জুন	-8.639750480651855
▁উপরে	-8.64177417755127
ডি	-8.642775535583496
▁যিশুর	-8.643593788146973
▁ভিত্তি	-8.644172668457031
▁পাকিস্তান	-8.644237518310547
▁.	-8.645285606384277
▁সত্ত্বেও	-8.645599365234375
কার	-8.647591590881348
▁উন্নয়ন	-8.648202896118164
▁জনসংখ্যা	-8.648420333862305
▁খারাপ	-8.648649215698242
▁একটু	-8.648734092712402
▁আনন্দ	-8.649883270263672
▁শুধুমাত্র	-8.651917457580566
▁বিচার	-8.652273178100586
▁মাস	-8.65279483795166
▁নির্দিষ্ট	-8.65531063079834
▁তারিখে	-8.659211158752441
২০	-8.659295082092285
▁সামরিক	-8.659649848937988
▁জ্ঞান	-8.660781860351562
▁পূর্ণ	-8.663518905639648
ছে	-8.667781829833984
▁অধীনে	-8.669960021972656
▁মৃত্যুর	-8.671225547790527
▁যুক্ত	-8.671233177185059
▁পেতে	-8.67212963104248
▁যেহেতু	-8.67282772064209
▁রেখে	-8.673904418945312
▁দাবি	-8.674104690551758
▁কয়েকটি	-8.674551010131836
▁বিশ্ব	-8.674837112426758
▁স্ত্রী	-8.67553997039795
▁ফাইল	-8.675966262817383
▁হয়েছিলেন	-8.677689552307129
▁অপেক্ষা	-8.679119110107422
▁শহরে	-8.679320335388184
▁আ	-8.679556846618652
সমূহ	-8.680910110473633
▁@	-8.681041717529297
▁ওই	-8.682220458984375
দা	-8.684602737426758
▁প্রবেশ	-8.685797691345215
কি	-8.686245918273926
▁দান	-8.687389373779297
▁একমাত্র	-8.687612533569336
▁পানি	-8.687889099121094
▁গবেষণা	-8.690098762512207
▁আসা	-8.690352439880371
▁নদী	-8.692272186279297
▁করেছি	-8.694865226745605
▁আইনের	-8.69568920135498
▁পুনরায়	-8.695806503295898
▁কিমি	-8.696415901184082
▁গঠন	-8.696931838989258
▁করলে	-8.6986665725708
▁জুলাই	-8.701560974121094
▁করব	-8.702167510986328
▁পিতর	-8.704273223876953
▁উৎস	-8.705360412597656
▁জীবনে	-8.706099510192871
▁মন্তব্য	-8.706130981445312
▁পরিমাণ	-8.706192970275879
▁এছাড়াও	-8.706462860107422
▁পা	-8.707220077514648
▁বিষয়টা	-8.710355758666992
▁প্রতিষ্ঠিত	-8.711841583251953
▁পৃথিবীর	-8.713985443115234
▁এসেছে	-8.717824935913086
▁চায়	-8.718384742736816
▁মোট	-8.719120979309082
▁বন্ধু	-8.720049858093262
▁ধ্বংস	-8.720746994018555
▁বিশ্বের	-8.72217845916748
▁অক্টোবর	-8.726094245910645
এস	-8.726229667663574
▁মনোযোগ	-8.727348327636719
▁কিংবা	-8.730924606323242
মি	-8.732512474060059
চ	-8.733192443847656
▁রাখার	-8.733990669250488
পি	-8.735081672668457
▁পদে	-8.736504554748535
▁হত্যা	-8.737333297729492
▁হত্তয়া	-8.738161087036133
▁পি	-8.738216400146484
▁গিয়েছিল	-8.738595008850098
▁নিউ	-8.74177360534668
▁স	-8.74470329284668
▁সম্পূর্ণ	-8.747114181518555
মথি	-8.748746871948242
▁মানে	-8.749984741210938
▁ইত্যাদি	-8.750687599182129
▁হলেন	-8.751601219177246
▁বিবরণ	-8.752995491027832
▁জল	-8.754077911376953
▁রিপোর্ট	-8.756366729736328
▁মথি	-8.757957458496094
▁দিনের	-8.759868621826172
▁শাসন	-8.760229110717773
▁কৃষি	-8.760847091674805
▁ধন্যবাদ	-8.764893531799316
▁বাধ্য	-8.764936447143555
▁শিক্ষার	-8.765013694763184
▁২৮	-8.765213012695312
▁স্যার	-8.766251564025879
▁স্বাধীনতা	-8.767879486083984
▁২০০১	-8.768147468566895
লে	-8.771862983703613
▁শক্তিশালী	-8.773100852966309
য়া	-8.774344444274902
▁নেয়	-8.775503158569336
▁বাংলাদেশে	-8.777655601501465
▁কেমন	-8.779451370239258
▁গ্রাম	-8.779570579528809
▁ফেলে	-8.779706954956055
▁এম	-8.77979850769043
▁চার	-8.78116512298584
▁পৃথিবীতে	-8.781707763671875
▁নিয়ন্ত্রণ	-8.782251358032227
▁ব্লগ	-8.783967018127441
▁আগস্ট	-8.785356521606445
▁ধরা	-8.786012649536133
মূলক	-8.787367820739746
▁খাদ্য	-8.788084030151367
▁শিশু	-8.788637161254883
▁বহু	-8.789573669433594
▁ভিন্ন	-8.789689064025879
আ	-8.792112350463867
কৃত	-8.79253101348877
▁নির্দেশ	-8.794221878051758
▁শান্তি	-8.794682502746582
▁অত্যন্ত	-8.796358108520508
▁নভেম্বর	-8.798258781433105
▁কিছুই	-8.79944896697998
▁ইচ্ছা	-8.800036430358887
▁নেওয়ার	-8.800471305847168
▁মণ্ডলীর	-8.801231384277344
▁সংস্থা	-8.80160903930664
▁সেপ্টেম্বর	-8.801616668701172
▁!	-8.802142143249512
২৪	-8.802449226379395
▁হত	-8.803099632263184
▁বিষয়টি	-8.803262710571289
▁২০১৪	-8.80363941192627
▁পরিচালক	-8.804413795471191
▁আধুনিক	-8.805500984191895
▁আই	-8.806487083435059
▁অবস্থায়	-8.806559562683105
২১	-8.807220458984375
▁একে	-8.807647705078125
সে	-8.807967185974121
▁মন	-8.808052062988281
২২	-8.808548927307129
▁বিয়ে	-8.808730125427246
▁খেলা	-8.80881118774414
▁পুরো	-8.809621810913086
▁হোক	-8.81010913848877
▁থেকেই	-8.810592651367188
▁মুক্ত	-8.813385009765625
গণ	-8.814225196838379
▁জনসংখ্যার	-8.815719604492188
▁বজায়	-8.816399574279785
▁এভাবে	-8.81775951385498
▁জানুয়ারি	-8.818690299987793
▁কিনা	-8.821172714233398
▁সম্মান	-8.822639465332031
▁পরিবর্তে	-8.823718070983887
২৩	-8.825098037719727
▁পদ্ধতি	-8.826173782348633
▁সবসময়	-8.82742691040039
▁আলাদা	-8.828362464904785
মান	-8.828999519348145
▁উদ্দেশ্যে	-8.830299377441406
▁অর্থনৈতিক	-8.830835342407227
▁স্থানে	-8.831562995910645
এম	-8.832206726074219
▁জায়গায়	-8.832231521606445
টার	-8.832525253295898
▁নির্মিত	-8.833837509155273
▁২০১২	-8.834038734436035
উ	-8.836238861083984
▁রাষ্ট্রপতি	-8.838665962219238
▁পশ্চিম	-8.841207504272461
▁হইতে	-8.843037605285645
▁দিয়েছেন	-8.843608856201172
▁বলেছেন	-8.844671249389648
▁মূল্য	-8.845231056213379
▁এল	-8.84608268737793
▁২০১৩	-8.847599983215332
▁পাওয়ার	-8.848828315734863
▁দিয়েছিল	-8.848852157592773
▁প্রস্তুত	-8.8496732711792
্স	-8.85270881652832
▁সক্রিয়	-8.854997634887695
স্	-8.856898307800293
▁প্রশিক্ষণ	-8.859932899475098
▁লেখক	-8.860275268554688
▁স্বাস্থ্য	-8.860383033752441
নো	-8.861610412597656
▁নামের	-8.86258602142334
▁জনপ্রিয়	-8.862765312194824
▁:	-8.863663673400879
▁পাঠ	-8.864638328552246
▁অনুমতি	-8.864760398864746
▁নিযুক্ত	-8.864762306213379
▁পিতা	-8.865370750427246
▁খাবার	-8.865432739257812
▁নিকট	-8.86605167388916
▁২৬	-8.866554260253906
▁ঘরে	-8.868267059326172
▁০	-8.868732452392578
▁পাকিস্তানের	-8.869406700134277
▁সংরক্ষণ	-8.871352195739746
▁পছন্দ	-8.871723175048828
▁আচরণ	-8.875755310058594
▁যেটা	-8.876566886901855
▁পারবেন	-8.877396583557129
▁প্রথমে	-8.879387855529785
▁তিনটি	-8.880522727966309
▁ছাত্র	-8.881064414978027
▁প্রায়ই	-8.881449699401855
▁পাঁচ	-8.881546020507812
অ	-8.881767272949219
▁জড়িত	-8.881999969482422
▁ছেলে	-8.88359546661377
▁আক্রমণ	-8.883977890014648
▁জি	-8.884113311767578
▁এগিয়ে	-8.884258270263672
▁জিজ্ঞেস	-8.885215759277344
▁মেনে	-8.885693550109863
▁বাড়ি	-8.886622428894043
▁প্রাপ্ত	-8.886698722839355
▁পরিচর্যা	-8.887661933898926
▁ইউনিয়ন	-8.890483856201172
গুলোকে	-8.89124584197998
▁অনুসরণ	-8.891502380371094
ণ	-8.891879081726074
▁মুক্তি	-8.892292022705078
▁অঞ্চলে	-8.892600059509277
▁আসতে	-8.892603874206543
▁কত	-8.893468856811523
▁উভয়	-8.894429206848145
▁প্রচেষ্টা	-8.894699096679688
▁পড়া	-8.895780563354492
হীন	-8.89584732055664
লো	-8.897807121276855
▁অর্থাৎ	-8.898228645324707
▁অভিযোগ	-8.899014472961426
গুলোতে	-8.89925765991211
▁২০১০	-8.899576187133789
▁নিরাপত্তা	-8.900237083435059
▁দিনে	-8.900466918945312
▁সহজ	-8.902182579040527
▁ক	-8.902416229248047
▁উপায়	-8.902483940124512
▁২৭	-8.902918815612793
▁মনোভাব	-8.903363227844238
▁সত্যিই	-8.903989791870117
▁প্রতিষ্ঠা	-8.904874801635742
য়ে	-8.909621238708496
▁চিহ্নিত	-8.912392616271973
▁প্রশংসা	-8.912498474121094
▁ইন	-8.914241790771484
▁মিথ্যা	-8.915741920471191
▁ছড়িয়ে	-8.915786743164062
▁প্রয়োজনীয়	-8.916297912597656
▁তৃতীয়	-8.917573928833008
জন	-8.918896675109863
▁২৯	-8.919468879699707
▁পার	-8.92189884185791
▁নির্ভর	-8.922446250915527
▁নীতি	-8.923516273498535
▁বাংলার	-8.923556327819824
▁ব্যাপক	-8.923796653747559
জা	-8.925321578979492
▁অঞ্চল	-8.925630569458008
▁আদেশ	-8.925954818725586
▁কার্যক্রম	-8.926669120788574
▁ব্লগার	-8.927606582641602
▁দাও	-8.928799629211426
▁উপলব্ধি	-8.92884349822998
▁সম্পন্ন	-8.929590225219727
▁সর্বোচ্চ	-8.930619239807129
▁করিন্থীয়	-8.931001663208008
▁যথেষ্ট	-8.931200981140137
▁সেরা	-8.931495666503906
▁প্রয়োগ	-8.935816764831543
ঁ	-8.936849594116211
▁জয়	-8.937928199768066
পূর্ণ	-8.938875198364258
▁যায়নি	-8.94136905670166
▁ওঠে	-8.941754341125488
াল	-8.944845199584961
▁মানব	-8.945296287536621
▁মসজিদ	-8.947035789489746
▁বয়স	-8.947376251220703
▁জায়গা	-8.947525978088379
ভি	-8.948782920837402
▁যাও	-8.949085235595703
▁প্রকৃত	-8.949498176574707
কো	-8.949501037597656
▁অধীন	-8.95328140258789
আর	-8.954083442687988
২৮	-8.95422077178955
▁নির্ধারণ	-8.955414772033691
▁ব্যাংক	-8.955951690673828
▁৫০	-8.955962181091309
▁হিন্দু	-8.956648826599121
▁গেল	-8.958816528320312
▁পৃষ্ঠা	-8.961666107177734
▁স্বীকার	-8.963920593261719
▁নাগরিক	-8.963943481445312
▁মাসের	-8.964073181152344
▁বেশী	-8.965160369873047
▁হয়ত	-8.965346336364746
দ্য	-8.966272354125977
▁পরিস্থিতি	-8.967497825622559
▁প্রচুর	-8.969343185424805
▁ফেব্রুয়ারি	-8.9697265625
▁ইসলাম	-8.969854354858398
▁অ্যান্ড	-8.970254898071289
▁মিটার	-8.971363067626953
▁যেগুলো	-8.973740577697754
▁সুন্দর	-8.974823951721191
▁বেঁচে	-8.976014137268066
▁যাই	-8.976204872131348
▁লিখেছিলেন	-8.976463317871094
▁প্র	-8.977094650268555
▁নির্ধারিত	-8.97739028930664
▁বিজ্ঞান	-8.977640151977539
২৫	-8.978151321411133
▁নেন	-8.978734016418457
▁আছেন	-8.980021476745605
▁সন্তান	-8.980640411376953
▁মন্দির	-8.9807710647583
▁মিলিয়ন	-8.982073783874512
▁হই	-8.982279777526855
▁সংগ্রহ	-8.982401847839355
▁২০১৬	-8.982769966125488
▁দীর্ঘ	-8.983953475952148
▁আজকে	-8.984240531921387
▁বলার	-8.986030578613281
▁পদক্ষেপ	-8.986684799194336
▁অংশগ্রহণ	-8.98682975769043
▁হলেও	-8.986990928649902
▁মূলত	-8.989527702331543
তম	-8.991399765014648
▁একবার	-8.991501808166504
▁যিহোবাকে	-8.992879867553711
▁পথে	-8.992881774902344
▁৪০	-8.99308967590332
▁পুত্র	-8.9947509765625
▁২০১৫	-8.99559497833252
▁অল্প	-8.996639251708984
থ	-8.99722671508789
▁উপযুক্ত	-8.997316360473633
তি	-8.997491836547852
▁দেখায়	-8.99775218963623
▁আপনাদের	-8.998807907104492
▁যৌন	-8.999009132385254
▁প্রত্যেক	-8.999247550964355
▁আসার	-9.000770568847656
তো	-9.001701354980469
▁অতিরিক্ত	-9.003323554992676
▁অধিকাংশ	-9.005874633789062
▁দূরে	-9.00767707824707
▁আপন	-9.007890701293945
▁তাতে	-9.00808048248291
▁গাড়ি	-9.009242057800293
▁শ্রেষ্ঠ	-9.010614395141602
▁কর্মকর্তা	-9.013895988464355
▁২০০৯	-9.013948440551758
▁ধীরে	-9.014822959899902
▁খ্রিস্টান	-9.016451835632324
▁আরব	-9.01708984375
▁রাষ্ট্র	-9.018426895141602
▁অঞ্চলের	-9.019004821777344
▁এগুলো	-9.021893501281738
▁বিমান	-9.02478313446045
▁এদের	-9.025405883789062
▁তারিখ	-9.02957534790039
▁রাখে	-9.031121253967285
▁পরিচয়	-9.031307220458984
▁মেয়ে	-9.033303260803223
▁বিভাগের	-9.033617973327637
▁গভীর	-9.03548812866211
▁রাজধানী	-9.035857200622559
▁অভিজ্ঞতা	-9.037562370300293
▁এখনো	-9.037885665893555
▁মুখ	-9.03803539276123
পা	-9.039144515991211
▁এলাকার	-9.040306091308594
জন্ম	-9.04295825958252
▁অনুবাদ	-9.044249534606934
▁গল্প	-9.046409606933594
▁বিখ্যাত	-9.046825408935547
▁আঘাত	-9.049236297607422
▁বিশাল	-9.049898147583008
▁২০০৮	-9.050419807434082
▁প্রতিক্রিয়া	-9.052105903625488
▁অধিক	-9.053093910217285
▁চুক্তি	-9.0545015335083
▁এইরকম	-9.055069923400879
৩০	-9.055219650268555
▁পাপ	-9.055696487426758
রূপে	-9.055883407592773
▁বিশ্বস্ত	-9.055935859680176
▁কেন্দ্রীয়	-9.056743621826172
েরা	-9.058183670043945
▁কাল	-9.059048652648926
▁নদীর	-9.060654640197754
▁অপরাধ	-9.060811996459961
বো	-9.060934066772461
▁কোটি	-9.061799049377441
▁বিষয়গুলো	-9.062080383300781
▁যীশুর	-9.063179016113281
▁স্পষ্ট	-9.064542770385742
▁কলকাতা	-9.06467342376709
▁সাহিত্য	-9.065299034118652
▁বসে	-9.065397262573242
▁যত	-9.065642356872559
ান	-9.065840721130371
▁লা	-9.066178321838379
০	-9.066183090209961
▁পর্যায়ে	-9.06731128692627
%।	-9.068519592285156
▁বেছে	-9.068609237670898
▁উপভোগ	-9.069194793701172
▁যুক্তরাষ্ট্রের	-9.07118034362793
▁শিক্ষক	-9.071484565734863
▁করেছিলাম	-9.071800231933594
▁দয়া	-9.072636604309082
▁অনুমোদন	-9.072776794433594
▁অনেকে	-9.073725700378418
▁এস	-9.075181007385254
▁সরাসরি	-9.075437545776367
▁অবশ্য	-9.07609748840332
▁ফোন	-9.076115608215332
▁উঠে	-9.07642650604248
▁নিজ	-9.076690673828125
▁স্বাধীন	-9.07811450958252
ছ	-9.07866096496582
গত	-9.078941345214844
▁আত্মা	-9.079276084899902
▁বৈশিষ্ট্য	-9.079390525817871
▁পাশাপাশি	-9.081246376037598
▁তাঁদের	-9.081478118896484
▁উ	-9.081493377685547
▁নিচে	-9.08160400390625
▁ইব্রীয়	-9.0816068649292
▁দাস	-9.081607818603516
▁প্রস্তাব	-9.081770896911621
▁সেইসঙ্গে	-9.081778526306152
▁দূর	-9.082215309143066
▁হইবে	-9.08257007598877
▁রক্ত	-9.082952499389648
▁পরের	-9.083065032958984
▁হবেন	-9.083619117736816
▁২০১৭	-9.08431625366211
▁পাই	-9.084512710571289
ড়া	-9.08557415008545
▁ক্ষমা	-9.087397575378418
▁ছিলো	-9.088058471679688
▁২০১৮	-9.089396476745605
দি	-9.089473724365234
▁প্রতিটি	-9.089508056640625
▁বল	-9.090317726135254
▁শাখা	-9.090375900268555
▁পত্রিকা	-9.09121322631836
▁হবার	-9.091726303100586
▁নিজস্ব	-9.092550277709961
▁গীতসংহিতা	-9.093559265136719
▁বাহিনী	-9.094157218933105
▁ভাষার	-9.095332145690918
▁আসছে	-9.100394248962402
▁প্রকল্প	-9.101001739501953
▁শিকার	-9.10124397277832
▁খোলা	-9.10268497467041
▁জোর	-9.103608131408691
▁সুবিধা	-9.10435676574707
,"	-9.1049165725708
▁সুসমাচার	-9.105562210083008
▁২০০৭	-9.106815338134766
▁দুটো	-9.109283447265625
▁বলি	-9.109307289123535
▁মুখোমুখি	-9.110883712768555
▁শতকের	-9.111442565917969
গা	-9.111528396606445
▁অতি	-9.111989974975586
▁সক্ষম	-9.11330795288086
▁সাংস্কৃতিক	-9.113597869873047
▁প্রভাবিত	-9.116134643554688
▁দি	-9.118618965148926
▁জগতের	-9.11866283416748
করণ	-9.119433403015137
▁নেতা	-9.120296478271484
▁আলী	-9.120670318603516
▁যুদ্ধের	-9.120991706848145
ছি	-9.121689796447754
মে	-9.121859550476074
▁খুশি	-9.122562408447266
▁পরিষ্কার	-9.122651100158691
▁পেয়ে	-9.123197555541992
▁ফুটবল	-9.12407398223877
▁দেবে	-9.124858856201172
▁জাতি	-9.125271797180176
▁বাধা	-9.125378608703613
গুলিতে	-9.125554084777832
▁সত্যি	-9.126317977905273
▁সম্পর্কিত	-9.129633903503418
▁যেভাবে	-9.130528450012207
▁একেবারে	-9.130669593811035
কর	-9.1307373046875
২৬	-9.13086986541748
▁পোস্ট	-9.132497787475586
▁নিয়োগ	-9.13300895690918
▁দেখানো	-9.133893966674805
▁চাপ	-9.135047912597656
▁তবুও	-9.136798858642578
▁সহায়তা	-9.137764930725098
▁সফল	-9.139596939086914
▁নাকি	-9.140440940856934
▁আসেন	-9.141366958618164
▁ইংরেজি	-9.141505241394043
▁গ্রামে	-9.141702651977539
নের	-9.1433744430542
▁বাজার	-9.144474029541016
▁উৎপাদন	-9.144489288330078
▁নাই	-9.144943237304688
▁উদাহরণস্বরূপ	-9.145818710327148
▁৩১	-9.145986557006836
▁ফেলা	-9.146586418151855
▁অনু	-9.147101402282715
▁সংযুক্ত	-9.148180961608887
▁স্বামী	-9.148956298828125
▁বয়সে	-9.149489402770996
▁ব্যবসা	-9.149611473083496
▁কর্তৃপক্ষ	-9.150184631347656
▁ঘটনার	-9.151947021484375
▁আসবে	-9.152481079101562
▁ইন্টারনেট	-9.153635025024414
▁চালিয়ে	-9.155057907104492
▁আন্দোলন	-9.157059669494629
▁নিয়মিত	-9.157084465026855
▁বোন	-9.157135009765625
▁শাহ	-9.157309532165527
▁মতে	-9.157442092895508
▁ক্লাব	-9.159627914428711
▁জন্মগ্রহণ	-9.159677505493164
▁বিভাগে	-9.159905433654785
▁সাক্ষিদের	-9.161065101623535
▁ব্যক্তিকে	-9.161372184753418
▁জে	-9.16171646118164
য়ের	-9.161948204040527
▁চিকিৎসা	-9.163435935974121
▁কোম্পানি	-9.164263725280762
▁রকম	-9.16533374786377
▁জানে	-9.168038368225098
যুক্ত	-9.170257568359375
(	-9.170658111572266
▁ধারা	-9.171171188354492
▁কু	-9.171319961547852
▁সরবরাহ	-9.171673774719238
▁রচনা	-9.17221450805664
▁আপনারা	-9.1725492477417
?"	-9.174290657043457
▁ভোট	-9.174817085266113
▁শতাংশ	-9.17579460144043
▁খেলার	-9.176041603088379
▁ইউ	-9.176758766174316
▁ব্যবহারের	-9.177840232849121
▁ভবিষ্যদ্বাণী	-9.178178787231445
▁আগের	-9.17836856842041
▁জেনারেল	-9.178701400756836
▁অনুরোধ	-9.178889274597168
▁জানেন	-9.18079948425293
▁হে	-9.180992126464844
▁বস্তু	-9.183249473571777
▁ফোল্ডার	-9.183311462402344
▁দৃঢ়	-9.184046745300293
▁নিয়ম	-9.184643745422363
▁যেটি	-9.185397148132324
▁সম্পদ	-9.185685157775879
▁বিদ্যমান	-9.187657356262207
▁সন্তানদের	-9.191311836242676
গো	-9.191643714904785
▁পরিবেশ	-9.19385814666748
▁শত	-9.194884300231934
▁বিপক্ষে	-9.195167541503906
▁এটাই	-9.195701599121094
▁পড়তে	-9.195786476135254
▁আমেরিকা	-9.196366310119629
হা	-9.196687698364258
টিকে	-9.197112083435059
ম্যান	-9.197165489196777
▁সেটার	-9.19875717163086
▁ভোগ	-9.199231147766113
▁খবর	-9.200000762939453
▁বোধ	-9.200465202331543
▁বাড়িতে	-9.200700759887695
▁চমৎকার	-9.202674865722656
▁কা	-9.202733993530273
▁অনুষ্ঠান	-9.202747344970703
কাল	-9.203590393066406
▁তে	-9.204605102539062
▁রায়	-9.204739570617676
▁জুড়ে	-9.205652236938477
▁চা	-9.205878257751465
▁প্রেসিডেন্ট	-9.20655632019043
▁মাথা	-9.206757545471191
▁সমাজ	-9.2068452835083
▁সঙ্গীত	-9.207963943481445
▁১০০	-9.208072662353516
▁মন্দ	-9.208283424377441
▁কমিশন	-9.208863258361816
▁বর্গ	-9.209284782409668
▁দশ	-9.209317207336426
▁পরাজিত	-9.209970474243164
▁বাতিল	-9.211299896240234
▁ডলার	-9.211324691772461
▁তৈরী	-9.211997032165527
▁ঐতিহাসিক	-9.213041305541992
▁স্মরণ	-9.213691711425781
▁মূল্যবান	-9.214592933654785
▁সন্দেহ	-9.215509414672852
▁ত্যাগ	-9.216561317443848
▁হ্যা	-9.217215538024902
▁বছরে	-9.218703269958496
▁ব্যবস্থার	-9.219483375549316
▁বিরোধী	-9.220084190368652
▁থাকি	-9.220120429992676
▁রোমীয়	-9.220754623413086
রো	-9.221077919006348
▁ভি	-9.223955154418945
▁আনা	-9.224184036254883
▁সংগঠন	-9.225032806396484
▁রে	-9.225310325622559
▁আসুন	-9.22716236114502
▁ভারতে	-9.227228164672852
▁ক্ষুদ্র	-9.227439880371094
▁কর্ম	-9.228341102600098
▁ড	-9.228931427001953
২৯	-9.229805946350098
▁শতাব্দীর	-9.230144500732422
▁করিয়ে	-9.231974601745605
▁দেব	-9.232444763183594
▁বিবাহ	-9.233165740966797
▁কমিটি	-9.233410835266113
▁ব্যাপার	-9.233755111694336
▁চোখ	-9.235002517700195
▁শেষে	-9.235886573791504
▁ছিলাম	-9.23597526550293
▁মিল	-9.23685073852539
ড়	-9.237794876098633
▁কিলোমিটার	-9.237849235534668
নে	-9.23913288116455
▁লিখেছেন	-9.240877151489258
▁রোগ	-9.241365432739258
▁থাকলে	-9.241686820983887
▁লীগ	-9.241768836975098
▁*	-9.242114067077637
▁বোঝা	-9.242246627807617
শে	-9.243149757385254
▁পরবর্তীতে	-9.243852615356445
▁জানায়	-9.244275093078613
▁চলচ্চিত্রে	-9.24512004852295
▁প্রাকৃতিক	-9.245153427124023
▁সংসদ	-9.246891021728516
▁জিনিস	-9.247167587280273
▁বিষয়ক	-9.247236251831055
▁বিদ্যুৎ	-9.247259140014648
▁পণ্য	-9.247319221496582
▁তোলা	-9.248115539550781
▁যুক্তি	-9.249932289123535
▁টেলিভিশন	-9.250032424926758
▁করিতে	-9.250801086425781
▁কল	-9.251482009887695
▁করিয়া	-9.251580238342285
▁ভ্রমণ	-9.251822471618652
▁দেত্তয়া	-9.252039909362793
▁২০০৬	-9.252144813537598
▁চলতে	-9.252650260925293
▁যাত্রা	-9.253064155578613
▁তীমথিয়	-9.25390338897705
▁ব্যয়	-9.254083633422852
▁স্কুলে	-9.254141807556152
▁আশীর্বাদ	-9.254216194152832
ির	-9.254319190979004
▁আমন্ত্রণ	-9.254631996154785
▁নির্বাচনে	-9.254773139953613
▁গেলে	-9.254899024963379
▁ভূমি	-9.25517463684082
▁মুছে	-9.255219459533691
▁সাক্ষরতা	-9.25627326965332
জে	-9.256722450256348
▁রেকর্ড	-9.259073257446289
এই	-9.259117126464844
▁নির্দেশনা	-9.259146690368652
▁অধ্যাপক	-9.260110855102539
▁প্রচলিত	-9.26067066192627
২৭	-9.260843276977539
▁অনুভব	-9.26206111907959
▁উৎসাহিত	-9.262116432189941
▁ব্যবহারকারী	-9.262571334838867
▁শয়তান	-9.263365745544434
▁পিছনে	-9.264287948608398
▁সভা	-9.264449119567871
ইংরেজি	-9.268378257751465
▁প্রতিবেদন	-9.269405364990234
▁যোগ্য	-9.269433975219727
আমার	-9.271626472473145
▁স্থায়ী	-9.27193832397461
▁এছাড়া	-9.272199630737305
▁হা	-9.273159980773926
▁রি	-9.273458480834961
▁গুরুত্ব	-9.273786544799805
▁রহমান	-9.27585220336914
▁সাংবাদিক	-9.276808738708496
▁তুলনা	-9.277639389038086
▁উন্নত	-9.279315948486328
৩১	-9.279814720153809
▁গিয়েছে	-9.280577659606934
কু	-9.281854629516602
▁গড়	-9.285618782043457
▁অনুসন্ধান	-9.285680770874023
▁পেয়েছে	-9.285966873168945
▁আগ্রহ	-9.286065101623535
দার	-9.286307334899902
▁বিধান	-9.286885261535645
▁লড়াই	-9.287317276000977
▁হারিয়ে	-9.287569999694824
▁অ্যা	-9.287635803222656
▁শেখ	-9.287735939025879
°	-9.293219566345215
▁নিজে	-9.295366287231445
▁কিছুটা	-9.295443534851074
▁ফলাফল	-9.295777320861816
▁জানান	-9.297675132751465
▁ডিগ্রি	-9.2982759475708
▁দেখি	-9.298370361328125
▁আমেরিকান	-9.298837661743164
মার	-9.299505233764648
▁রূপ	-9.300657272338867
▁সম্প্রতি	-9.303814888000488
▁ক্ষতি	-9.304646492004395
▁জাহাজ	-9.304754257202148
▁সতর্ক	-9.304898262023926
▁মুখে	-9.305135726928711
▁নং	-9.306228637695312
▁অনুগ্রহ	-9.306716918945312
▁উন্নতি	-9.30736255645752
▁সংযোগ	-9.308296203613281
▁দখল	-9.308504104614258
▁বেশিরভাগ	-9.308837890625
▁সংস্করণ	-9.309361457824707
ভা	-9.31075668334961
ুল	-9.310986518859863
▁দেখান	-9.311284065246582
▁বয়সী	-9.311527252197266
▁খ্রিস্টীয়	-9.313443183898926
▁বিভক্ত	-9.313867568969727
▁লাল	-9.314136505126953
▁প্রতীক	-9.31557846069336
▁কথাগুলো	-9.315595626831055
▁এশিয়া	-9.317212104797363
▁সংশ্লিষ্ট	-9.317819595336914
▁ভিত্তিতে	-9.31787109375
রে	-9.318769454956055
▁বেড়ে	-9.318838119506836
▁সমাধান	-9.320958137512207
▁অনুপ্রাণিত	-9.321159362792969
▁লূক	-9.322334289550781
▁দশকে	-9.32288646697998
▁ছাড়াও	-9.32314682006836
ময়	-9.323420524597168
ইন	-9.32496166229248
প্র	-9.3254976272583
▁যুদ্ধে	-9.325872421264648
যোগ্য	-9.325965881347656
▁কম্পিউটার	-9.328182220458984
▁প্রধানমন্ত্রী	-9.330328941345215
▁লি	-9.331146240234375
▁বিশিষ্ট	-9.332255363464355
▁গুলি	-9.333149909973145
▁হয়েছেন	-9.333427429199219
▁ন্যায়	-9.333710670471191
▁উৎসাহ	-9.334207534790039
▁আয়	-9.334362030029297
▁অভিনেত্রী	-9.334527015686035
▁হও	-9.33476448059082
▁একক	-9.335079193115234
▁কষ্ট	-9.335148811340332
▁দেখার	-9.335550308227539
▁মনোনীত	-9.337052345275879
▁আগেই	-9.337176322937012
▁সম্পাদক	-9.337626457214355
▁লোকের	-9.337924003601074
▁বাকি	-9.338008880615234
▁বে	-9.339556694030762
▁রাতে	-9.339997291564941
▁পাবে	-9.34000301361084
▁খেলোয়াড়	-9.341032981872559
সন	-9.341673851013184
ওয়া	-9.3422269821167
▁প্রেরণ	-9.342301368713379
▁যোগদান	-9.34233570098877
▁বসবাস	-9.342938423156738
▁এন	-9.344676971435547
▁আছি	-9.344752311706543
▁তাঁরা	-9.34530258178711
▁কাউকে	-9.346334457397461
▁পোশাক	-9.346797943115234
▁কঠোর	-9.347003936767578
▁লক্ষ্যে	-9.347216606140137
▁ঘর	-9.349416732788086
▁চাকরি	-9.35151195526123
▁নানা	-9.351799964904785
▁পৃথক	-9.351911544799805
▁দেবেন	-9.352139472961426
▁অনুভূতি	-9.353326797485352
▁প্রতিরোধ	-9.3535795211792
▁রাজ	-9.353904724121094
▁মানবাধিকার	-9.354707717895508
▁ধারণ	-9.359701156616211
▁দে	-9.360976219177246
▁রাস্তা	-9.361474990844727
▁উপায়ে	-9.361727714538574
▁স্টেশন	-9.363215446472168
▁সংস্কৃতি	-9.363694190979004
▁বিক্রি	-9.363726615905762
▁যত্ন	-9.364550590515137
▁চট্টগ্রাম	-9.365179061889648
▁বোর্ড	-9.3652925491333
▁বিষয়ের	-9.365802764892578
▁যিশাইয়	-9.366984367370605
▁প্রযুক্তি	-9.367151260375977
▁কার্যকর	-9.3673734664917
▁ঈশ্বরকে	-9.367744445800781
▁শাস্তি	-9.368453979492188
▁উপাদান	-9.368577003479004
▁দেখাতে	-9.36933708190918
▁ত	-9.369359016418457
▁সমালোচনা	-9.36965560913086
▁ছয়	-9.370457649230957
▁নারীদের	-9.370779037475586
▁সমস্যার	-9.371631622314453
▁খুলে	-9.371772766113281
▁প্রতিবাদ	-9.371807098388672
▁নষ্ট	-9.37303638458252
▁পারব	-9.376452445983887
▁শুনতে	-9.376781463623047
▁তুই	-9.377289772033691
টিতে	-9.378179550170898
▁হাই	-9.378756523132324
▁উপাত্ত	-9.378957748413086
▁প্রহরীদুর্গ	-9.380206108093262
▁পরিসংখ্যান	-9.380480766296387
▁অভিষিক্ত	-9.381781578063965
▁ম	-9.38257122039795
▁সরিয়ে	-9.382761001586914
▁৩২	-9.383527755737305
▁আয়োজন	-9.384016036987305
▁অভাব	-9.384066581726074
বাদ	-9.384522438049316
▁যেকোনো	-9.38477897644043
▁পড়ার	-9.38561725616455
▁মৌলিক	-9.385940551757812
▁বদলে	-9.3860445022583
▁টুইট	-9.38614273071289
▁খেলায়	-9.386211395263672
$	-9.386813163757324
▁আবেদন	-9.387208938598633
▁ওহ	-9.38734245300293
▁হিতোপদেশ	-9.387839317321777
▁মার	-9.387862205505371
যে	-9.387975692749023
▁বাহিনীর	-9.387980461120605
▁সদস্যদের	-9.388596534729004
সমূহের	-9.389012336730957
▁সাম্প্রতিক	-9.389533996582031
▁পৃথিবী	-9.390057563781738
▁জনগণের	-9.390396118164062
▁প্রতিজ্ঞা	-9.39056396484375
▁সবার	-9.391534805297852
▁থাক	-9.392158508300781
▁কেননা	-9.392229080200195
▁পারিবারিক	-9.39287281036377
▁তুলতে	-9.392925262451172
▁গ্রুপ	-9.39295482635498
▁বন	-9.393132209777832
▁অন্যদিকে	-9.393362998962402
যোহন	-9.393503189086914
▁সদর	-9.39366340637207
ছিল	-9.394143104553223
▁ব্যক্তিরা	-9.394329071044922
▁সাত	-9.395530700683594
▁সামান্য	-9.395618438720703
▁এটাকে	-9.395660400390625
▁৩৩	-9.395707130432129
▁উপাসনা	-9.395893096923828
▁আস্থা	-9.397345542907715
▁কালো	-9.397754669189453
▁ল্যাংডন	-9.398788452148438
▁মানুষকে	-9.399099349975586
▁তাঁহার	-9.399211883544922
▁ইঙ্গিত	-9.39992618560791
▁মহা	-9.400129318237305
▁মো	-9.401229858398438
য়ার	-9.401613235473633
▁প্রক্রিয়া	-9.40220832824707
▁প্রতিদিন	-9.403631210327148
▁হৃদয়	-9.405431747436523
▁আর্থিক	-9.407061576843262
▁তাহা	-9.407652854919434
▁চরিত্রে	-9.40805435180664
▁বিল	-9.408431053161621
সার	-9.409366607666016
▁নিহত	-9.409392356872559
▁সম্প্রদায়ের	-9.410264015197754
▁গিয়েছিলেন	-9.410544395446777
▁কার	-9.410555839538574
▁বক্তৃতা	-9.411153793334961
▁তোলার	-9.411249160766602
▁নেয়া	-9.411355972290039
▁অভিনেতা	-9.4116792678833
▁জাতির	-9.41174030303955
আই	-9.413414001464844
▁১৯৭১	-9.414392471313477
▁দৃষ্টি	-9.41557788848877
▁অস্ত্র	-9.4171142578125
▁উপকার	-9.418651580810547
▁বলছে	-9.418770790100098
▁প্রতিনিধিত্ব	-9.418844223022461
▁গ	-9.419227600097656
▁এসেছিল	-9.420257568359375
▁চলচ্চিত্রের	-9.42090892791748
▁কল্পনা	-9.42227840423584
▁প	-9.422406196594238
▁মিডিয়া	-9.42300796508789
▁চোখে	-9.423110008239746
▁আদালত	-9.423583984375
▁র	-9.424836158752441
▁তেল	-9.425811767578125
▁এরকম	-9.426898002624512
▁নিষিদ্ধ	-9.426941871643066
▁তুলনায়	-9.427583694458008
▁পুরোপুরি	-9.427667617797852
▁৩৫	-9.427672386169434
▁পরিপূর্ণ	-9.427693367004395
▁অধ্যায়	-9.427826881408691
▁মার্ক	-9.427851676940918
▁গ্লোবাল	-9.4290189743042
▁মু	-9.42966079711914
▁পরিচর্যায়	-9.430211067199707
▁থানা	-9.431673049926758
▁আহমেদ	-9.431900978088379
▁আরেকটি	-9.432297706604004
▁চিহ্ন	-9.4332857131958
মো	-9.434383392333984
▁পাশে	-9.43542194366455
▁বিষয়বস্তু	-9.439351081848145
▁বহন	-9.439470291137695
▁খরচ	-9.439702987670898
▁লাইন	-9.43991756439209
▁টু	-9.439984321594238
সের	-9.440263748168945
▁ওয়েবসাইট	-9.440770149230957
▁সৌদি	-9.440885543823242
▁কাছাকাছি	-9.442218780517578
▁জগতে	-9.442367553710938
▁আদমশুমারি	-9.442554473876953
▁বিস্তৃত	-9.442829132080078
▁৬০	-9.443070411682129
ভার	-9.443373680114746
▁কারন	-9.444096565246582
▁মোহাম্মদ	-9.445225715637207
▁প্রিয়	-9.445282936096191
▁মালিক	-9.445734977722168
▁দৃষ্টিভঙ্গি	-9.44588565826416
▁কর্মী	-9.44649887084961
▁আদর্শ	-9.446563720703125
▁সিস্টেম	-9.446701049804688
▁সমান	-9.44740104675293
।'	-9.447685241699219
▁উদ্ধার	-9.449006080627441
▁খ্রিস্টাব্দে	-9.449317932128906
সু	-9.449346542358398
▁বাদ	-9.450907707214355
৩৪	-9.451117515563965
▁কো	-9.451196670532227
▁ভিতরে	-9.451977729797363
▁সংখ্যক	-9.452187538146973
▁সরকারী	-9.452410697937012
▁বৌদ্ধ	-9.452620506286621
▁এমনকী	-9.453420639038086
▁আগ্রহী	-9.453529357910156
▁করেনি	-9.453816413879395
▁ভুলে	-9.45411205291748
▁গুণ	-9.456071853637695
▁গণ্য	-9.456594467163086
▁কয়েকজন	-9.457369804382324
▁উদ্যোগ	-9.457382202148438
▁বলছি	-9.459128379821777
▁সমাজের	-9.459430694580078
▁স্বাভাবিক	-9.460272789001465
▁যুক্তরাষ্ট্র	-9.4608793258667
▁বলল	-9.46094036102295
▁আয়তন	-9.460968971252441
▁মাছ	-9.461570739746094
৩৩	-9.461722373962402
▁হিসাব	-9.462095260620117
▁দ্যা	-9.462600708007812
▁সপ্তাহ	-9.463397979736328
৩২	-9.464414596557617
▁ভবন	-9.465497970581055
▁বাংলায়	-9.466391563415527
▁কারো	-9.466952323913574
ত্ব	-9.467639923095703
▁অবদান	-9.46771240234375
স্ট	-9.468042373657227
▁দাঁড়িয়ে	-9.468629837036133
▁বইয়ের	-9.468714714050293
▁নকশা	-9.469009399414062
▁বিশ্ববিদ্যালয়ে	-9.469861030578613
▁সমগ্র	-9.470640182495117
পূর্ব	-9.471226692199707
▁রং	-9.472539901733398
এন	-9.473421096801758
▁সাক্ষ্য	-9.475759506225586
▁যুবক	-9.476699829101562
▁জগৎ	-9.476822853088379
▁শীঘ্রই	-9.477097511291504
▁২০০০	-9.477628707885742
▁পার্থক্য	-9.478069305419922
▁চৌধুরী	-9.478078842163086
▁২০০৫	-9.479880332946777
▁দুঃখিত	-9.480759620666504
▁বাপ্তিস্ম	-9.481542587280273
▁শ্রমিক	-9.48159408569336
▁%	-9.481684684753418
▁চূড়ান্ত	-9.482343673706055
▁আমেরিকার	-9.482939720153809
▁প্রাণ	-9.483256340026855
করা	-9.483498573303223
▁কোড	-9.485137939453125
▁যাহা	-9.486705780029297
▁ফর	-9.486845016479492
▁অনুকরণ	-9.487581253051758
▁পাতা	-9.488964080810547
▁তাহার	-9.48935604095459
স্থ	-9.489957809448242
▁আফ্রিকা	-9.49001693725586
▁তোলে	-9.490471839904785
▁লে	-9.49104118347168
▁পত্রিকার	-9.49121379852295
▁হ্রাস	-9.495217323303223
▁নগর	-9.495375633239746
▁সকলের	-9.495959281921387
টে	-9.496760368347168
▁অস্বীকার	-9.497003555297852
▁অংশে	-9.498400688171387
▁টুইটার	-9.498600006103516
▁কবি	-9.498684883117676
▁আরেকটা	-9.49984359741211
▁সর্ব	-9.500036239624023
▁টেস্ট	-9.500415802001953
▁পাঠানো	-9.500574111938477
▁জমি	-9.500988960266113
▁ন	-9.502394676208496
▁অনলাইন	-9.502553939819336
▁প্রদেশের	-9.503219604492188
ীর	-9.503718376159668
▁বিজয়ী	-9.503820419311523
▁প্রাণী	-9.505221366882324
▁আরম্ভ	-9.506072998046875
বিশেষ	-9.507378578186035
▁প্রবন্ধ	-9.507637023925781
▁ইনস্টিটিউট	-9.507774353027344
৫০	-9.5079927444458
▁লম্বা	-9.508124351501465
▁লাইসেন্স	-9.508759498596191
▁মাধ্যম	-9.509110450744629
▁ল	-9.509119033813477
▁আক্রান্ত	-9.509622573852539
▁পড়ুন	-9.510579109191895
▁পে	-9.512638092041016
▁প্রকাশনা	-9.513612747192383
▁হোসেন	-9.513893127441406
▁প্রদানের	-9.514298439025879
েই	-9.514890670776367
▁অফিস	-9.515656471252441
ঈশ্বরের	-9.517007827758789
▁সাহায্যে	-9.517812728881836
▁গ্রন্থ	-9.51816463470459
▁সেগুলোর	-9.518657684326172
▁চেয়ারম্যান	-9.518875122070312
▁পক্ষ	-9.519083023071289
▁ভবিষ্যৎ	-9.51955795288086
▁প্রশাসনিক	-9.52031421661377
কালে	-9.521124839782715
▁বলেছে	-9.521405220031738
▁ডে	-9.521637916564941
▁ওয়েব	-9.522054672241211
▁প্রাক্তন	-9.523558616638184
৪০	-9.525252342224121
▁পরিষদ	-9.52531623840332
▁করতাম	-9.526061058044434
▁স্বীকৃতি	-9.526835441589355
▁আনন্দিত	-9.527329444885254
▁স্ব	-9.527433395385742
▁যাকে	-9.528043746948242
▁গৃহ	-9.529056549072266
▁জীবনযাপন	-9.529407501220703
▁উৎসব	-9.529621124267578
▁পিতার	-9.530590057373047
▁আলো	-9.530725479125977
▁কতই	-9.531539916992188
▁মণ্ডলীতে	-9.533211708068848
▁কংগ্রেসের	-9.53448486328125
প্রেরিত	-9.53471851348877
▁চাইতে	-9.535504341125488
▁সীমানা	-9.535572052001953
▁আত্মার	-9.536429405212402
▁দুর্বল	-9.538067817687988
▁উপজেলার	-9.538664817810059
▁ফেলতে	-9.538966178894043
▁মহান	-9.539032936096191
▁উত্তরে	-9.541305541992188
▁বিশেষভাবে	-9.542278289794922
▁জার্মান	-9.542536735534668
▁ঘৃণা	-9.543883323669434
পে	-9.5446195602417
▁দশকের	-9.54528522491455
▁এবার	-9.545599937438965
ুর	-9.545608520507812
ভিত্তিক	-9.546056747436523
▁রান	-9.546591758728027
▁বাণিজ্যিক	-9.547224998474121
লার	-9.547310829162598
প্রতি	-9.548068046569824
গীতসংহিতা	-9.548803329467773
মু	-9.54929256439209
▁শিখতে	-9.550393104553223
▁সবকিছু	-9.550396919250488
▁ধর্মের	-9.550803184509277
▁এন্ড	-9.551438331604004
▁করল	-9.5515718460083
▁সম্পাদন	-9.551993370056152
▁ঋণ	-9.552204132080078
▁করবো	-9.554096221923828
▁একাধিক	-9.55496883392334
▁বাংলাদেশী	-9.556436538696289
▁মন্ত্রী	-9.556583404541016
যা	-9.556686401367188
▁হ	-9.557231903076172
▁মানসিক	-9.557601928710938
▁চীনা	-9.557639122009277
▁ইউরোপীয়	-9.55816650390625
▁অবশেষে	-9.558305740356445
▁চারটি	-9.5584135055542
িয়ান	-9.5598783493042
▁দলে	-9.559966087341309
▁উপহার	-9.561491966247559
▁ভূ	-9.56289291381836
ফা	-9.56303882598877
▁ব	-9.563159942626953
▁একইভাবে	-9.563432693481445
▁মাধ্যমিক	-9.563438415527344
▁মাইল	-9.563953399658203
▁প্রতিনিধি	-9.564361572265625
▁ঠিকানা	-9.565659523010254
▁গো	-9.566641807556152
ষ	-9.56689167022705
▁যেসব	-9.56757640838623
▁লিখিত	-9.567582130432129
▁কোম্পানির	-9.567761421203613
চি	-9.568877220153809
৩৫	-9.569263458251953
▁আবিষ্কার	-9.569478034973145
ধারা	-9.569519996643066
▁যন্ত্র	-9.570150375366211
▁রাস্তায়	-9.570674896240234
▁ক্রমাগত	-9.570918083190918
শি	-9.570940017700195
▁পার্টি	-9.57094669342041
▁সাবেক	-9.571258544921875
▁চীনের	-9.571502685546875
▁স্বর্গীয়	-9.572881698608398
▁প্রত্যাখ্যান	-9.574243545532227
▁সভাপতি	-9.574776649475098
▁আকর্ষণ	-9.575045585632324
▁ব্যবস্থাপনা	-9.575465202331543
▁নিয়েছে	-9.575996398925781
▁বাণিজ্য	-9.576716423034668
▁৩৭	-9.576820373535156
৪৪	-9.577166557312012
▁করেননি	-9.577272415161133
▁রাখেন	-9.578272819519043
▁স্বাধীনতার	-9.57861614227295
▁আন্দোলনের	-9.578617095947266
লেন	-9.579562187194824
গঞ্জ	-9.5797758102417
▁স্বাক্ষর	-9.581009864807129
▁২০০৪	-9.581110954284668
▁নিরাপদ	-9.581453323364258
▁সার্ভিস	-9.581962585449219
▁সহ্য	-9.583284378051758
▁ডাক	-9.583407402038574
▁খ্রীষ্টীয়	-9.583595275878906
▁এড়িয়ে	-9.58413314819336
▁নেতৃত্ব	-9.58466625213623
▁নিয়েছিলেন	-9.584970474243164
শন	-9.585484504699707
▁মুক্তির	-9.585622787475586
▁শুনে	-9.586006164550781
▁পরিচিতি	-9.586276054382324
লাম	-9.586997985839844
▁শিশুদের	-9.587116241455078
▁রেল	-9.587162017822266
▁ফুল	-9.587797164916992
▁কাপ	-9.58782958984375
▁পরিস্থিতির	-9.58785629272461
▁রেলওয়ে	-9.588644981384277
টো	-9.589784622192383
▁রা	-9.589890480041504
এক	-9.5923490524292
▁আশ্রয়	-9.592371940612793
▁চলছে	-9.592509269714355
▁অর্থনীতি	-9.592531204223633
▁আজকের	-9.594305038452148
▁দেয়ার	-9.594935417175293
▁সচেতন	-9.595565795898438
▁নিকটবর্তী	-9.595934867858887
▁করছিল	-9.595993041992188
▁৩৪	-9.596303939819336
▁সভায়	-9.596311569213867
▁সপ্তাহের	-9.596436500549316
▁জর্জ	-9.597214698791504
:-	-9.597251892089844
▁ঘন্টা	-9.597411155700684
▁চাহিদা	-9.598084449768066
▁নেটওয়ার্ক	-9.59835433959961
▁গুরুতর	-9.598657608032227
▁চীন	-9.598661422729492
▁আফ্রিকার	-9.598947525024414
▁জানানো	-9.59898853302002
▁কৌশল	-9.599249839782715
▁ত্রুটি	-9.600093841552734
▁প্রদত্ত	-9.600275039672852
▁অবাক	-9.600346565246582
▁ভর্তি	-9.6006498336792
▁সাড়া	-9.600935935974121
▁নন	-9.601070404052734
▁আসন	-9.601454734802246
ঘ	-9.60159683227539
▁আহ্বান	-9.60256576538086
▁সুখী	-9.602569580078125
▁সংক্ষিপ্ত	-9.60290813446045
এল	-9.603184700012207
▁প্রভৃতি	-9.603549003601074
▁বলেছিল	-9.603589057922363
▁সাদা	-9.603653907775879
নার	-9.603774070739746
ায়	-9.605184555053711
▁কাহিনী	-9.60522747039795
▁কারা	-9.605320930480957
▁প্রতিযোগিতা	-9.606045722961426
▁উৎসর্গ	-9.606401443481445
▁দায়ূদ	-9.606603622436523
▁ঢাকার	-9.607843399047852
▁বয়স্ক	-9.608940124511719
▁যাচ্ছি	-9.609331130981445
▁গ্রেফতার	-9.610383033752441
▁বিক্ষোভ	-9.610411643981934
▁ওটা	-9.610591888427734
▁ছবিটি	-9.610867500305176
▁এক্স	-9.612339973449707
▁মোকাবিলা	-9.612446784973145
▁সম	-9.612540245056152
▁দৃশ্য	-9.612605094909668
▁টা	-9.612678527832031
▁তরুণ	-9.614062309265137
▁একদিন	-9.614150047302246
▁নীল	-9.614228248596191
▁বিরাট	-9.614473342895508
▁লাগে	-9.614851951599121
▁সুরক্ষা	-9.615547180175781
▁সূত্র	-9.615669250488281
▁সম্ভাবনা	-9.616543769836426
৩৭	-9.61668586730957
▁অন	-9.617372512817383
▁ধরণের	-9.617372512817383
▁দেশটির	-9.617762565612793
▁খ	-9.617952346801758
▁প্রতিষ্ঠানের	-9.618087768554688
▁নমুনা	-9.618826866149902
▁মুদ্রা	-9.62024211883545
▁মামলা	-9.620750427246094
▁উঠতে	-9.620833396911621
▁প্রশাসন	-9.62347412109375
৪৫	-9.623797416687012
▁মোবাইল	-9.624894142150879
▁চলা	-9.625252723693848
বল	-9.62630844116211
▁বলুন	-9.626558303833008
▁নিন	-9.626993179321289
▁পাল	-9.627582550048828
▁জমা	-9.628844261169434
▁যেত	-9.629300117492676
পত্র	-9.629396438598633
▁ভেতরে	-9.629743576049805
▁কোনও	-9.632322311401367
▁কমিটির	-9.6340970993042
▁সিটি	-9.634129524230957
▁সেটি	-9.634724617004395
▁গাছ	-9.635279655456543
▁পড়েছে	-9.635345458984375
▁কখন	-9.635758399963379
▁শা	-9.63603687286377
▁ঘটেছে	-9.636274337768555
▁ভেবে	-9.6377534866333
▁যাকোব	-9.637855529785156
▁প্রদেশ	-9.6382474899292
ৎ	-9.638655662536621
▁রাম	-9.639492988586426
ছিলেন	-9.639875411987305
▁অনেকেই	-9.640359878540039
▁হক	-9.640625
▁তত্ত্ব	-9.640890121459961
▁দেখিয়ে	-9.641234397888184
▁চরম	-9.64222526550293
▁ফরাসি	-9.64435863494873
হে	-9.644891738891602
▁মৃত	-9.645090103149414
▁সপ্তাহে	-9.646408081054688
▁জানার	-9.646683692932129
আমরা	-9.647387504577637
▁সম্প্রদায়	-9.647640228271484
জার	-9.649179458618164
▁ইন্ডিয়া	-9.650854110717773
▁কেবলমাত্র	-9.651124000549316
▁৪৫	-9.652017593383789
▁ফেসবুক	-9.652565956115723
▁শিষ্য	-9.653343200683594
▁স্বপ্ন	-9.65388011932373
▁ফুট	-9.654109001159668
প্রাপ্ত	-9.65411376953125
▁মিস	-9.65619945526123
▁টিভি	-9.656295776367188
▁দক্ষিণে	-9.656543731689453
▁নামকরণ	-9.657501220703125
▁চরিত্র	-9.657612800598145
▁কখনোই	-9.658171653747559
▁শর্ত	-9.658305168151855
▁নাগরিকদের	-9.658485412597656
িন	-9.658689498901367
▁গণ	-9.659371376037598
▁দেখানোর	-9.659452438354492
▁মেরে	-9.659496307373047
▁বিশ্বব্যাপী	-9.659690856933594
▁ফিরিয়ে	-9.66012191772461
▁ন্যাশনাল	-9.660141944885254
▁বার্ষিক	-9.660188674926758
▁আট	-9.660196304321289
▁পরিবর্তিত	-9.660497665405273
গুলিকে	-9.66061019897461
▁মেইল	-9.66240119934082
িয়ে	-9.663542747497559
▁আসল	-9.664047241210938
▁চিঠি	-9.664313316345215
▁দিচ্ছে	-9.664521217346191
▁সীমা	-9.664609909057617
▁সোভিয়েত	-9.664694786071777
ডা	-9.664705276489258
▁শাসক	-9.6652250289917
লূক	-9.66543197631836
▁নিশ্চয়ই	-9.665721893310547
▁অনুরূপ	-9.665814399719238
▁করিবে	-9.666316986083984
▁ক্ষেত্র	-9.66639518737793
▁গ্রামের	-9.666691780090332
▁ভেঙে	-9.666748046875
▁আবদুল	-9.666899681091309
▁অতিক্রম	-9.667227745056152
▁অন্তর্গত	-9.66802978515625
▁সংরক্ষিত	-9.668054580688477
▁মায়ের	-9.669214248657227
▁তীব্র	-9.6692476272583
▁গ্যাস	-9.669816017150879
▁৫৯	-9.670083045959473
▁৪৮	-9.670793533325195
▁বোমা	-9.670809745788574
▁সংস্থার	-9.670961380004883
▁গীত	-9.671882629394531
▁ফি	-9.672086715698242
▁বিধি	-9.672225952148438
▁উৎপন্ন	-9.673063278198242
▁ইচ্ছুক	-9.673481941223145
▁প্রচণ্ড	-9.6737642288208
▁১৯৯০	-9.673842430114746
▁৭০	-9.673993110656738
ঙ	-9.674421310424805
▁স্নাতক	-9.67685604095459
▁অধ্যক্ষ	-9.677579879760742
▁বিদেশী	-9.67843246459961
▁বৃহত্তম	-9.678581237792969
ন্ড	-9.680167198181152
▁নে	-9.68106746673584
▁মতামত	-9.681116104125977
▁রেডিও	-9.681432723999023
▁বিশ্বাসের	-9.68218994140625
▁নির্বাচনের	-9.682428359985352
রূপ	-9.683897018432617
▁শারীরিক	-9.684368133544922
▁বিরোধিতা	-9.684520721435547
▁এটিকে	-9.684865951538086
▁সুতরাং	-9.684967994689941
▁ভাব	-9.686017036437988
রু	-9.687283515930176
▁এরা	-9.687342643737793
▁চাও	-9.687565803527832
▁সাক্ষি	-9.687827110290527
▁মডেল	-9.688560485839844
▁লেখার	-9.688573837280273
▁মধ্যেই	-9.68898868560791
▁ঐশিক	-9.690296173095703
▁রাষ্ট্রের	-9.690411567687988
▁সভার	-9.690966606140137
শা	-9.691338539123535
▁কয়েকটা	-9.691649436950684
▁বাস্তব	-9.691898345947266
▁সহযোগিতা	-9.692371368408203
▁পেছনে	-9.692825317382812
▁কতটা	-9.693583488464355
▁৯০	-9.694640159606934
▁বললেন	-9.694928169250488
▁খ্রিস্টের	-9.6953763961792
▁দায়ী	-9.695446968078613
৩৬	-9.69579029083252
▁সুলতান	-9.696617126464844
▁বাইবেলে	-9.696788787841797
▁জারি	-9.697347640991211
দিন	-9.697515487670898
▁শোনা	-9.697795867919922
▁মন্ত্রণালয়	-9.697872161865234
▁সম্মেলন	-9.69809627532959
ক্স	-9.69873332977295
রোমীয়	-9.699195861816406
তুমি	-9.69920539855957
▁গা	-9.700567245483398
০০	-9.701494216918945
▁তোর	-9.702086448669434
▁পরি	-9.702171325683594
▁পৌলের	-9.70293140411377
▁রচিত	-9.703514099121094
▁দুজন	-9.703950881958008
▁অর্পণ	-9.703977584838867
▁খ্রীষ্টের	-9.704002380371094
▁ঢাকায়	-9.704010009765625
দান	-9.704415321350098
▁পাস	-9.705193519592285
নী	-9.705742835998535
▁সাহস	-9.70669937133789
▁নম্বর	-9.706720352172852
আমাদের	-9.707050323486328
▁উঠেছে	-9.707328796386719
▁পাবলিক	-9.707481384277344
▁সংস্কার	-9.707784652709961
▁রাত	-9.7088623046875
▁এতটা	-9.709275245666504
▁পেয়েছিলেন	-9.710273742675781
▁জিজ্ঞাসা	-9.710285186767578
ইউ	-9.710375785827637
▁সর্বাধিক	-9.71081256866455
▁৩৮	-9.710909843444824
▁সান্ত্বনা	-9.711113929748535
টু	-9.711504936218262
▁গোল	-9.71158218383789
▁আঞ্চলিক	-9.71183967590332
▁পালিয়ে	-9.71238899230957
▁পারত	-9.712852478027344
▁ছবির	-9.713973045349121
▁শয়তানের	-9.714393615722656
▁ম্যাক	-9.714527130126953
▁শিরোনাম	-9.716033935546875
▁অস্তিত্ব	-9.716133117675781
▁তালিকায়	-9.71648120880127
▁তেমন	-9.7174072265625
▁দিই	-9.718033790588379
▁জরুরি	-9.718846321105957
▁বাবার	-9.71934986114502
▁ভয়েসেস	-9.719597816467285
িকা	-9.719996452331543
▁খ্রিস্টানদের	-9.720377922058105
▁লু	-9.721108436584473
▁বিচ্ছিন্ন	-9.721183776855469
▁বাছাই	-9.721546173095703
শীল	-9.723451614379883
▁মনোনয়ন	-9.724611282348633
▁জীবিত	-9.724868774414062
▁৩৬	-9.725017547607422
▁মুহাম্মদ	-9.725088119506836
▁দুঃখ	-9.725899696350098
▁উপস্থাপন	-9.72599983215332
▁১৯৯১	-9.726278305053711
▁সবাইকে	-9.72657585144043
▁১৯৯৬	-9.726780891418457
▁চতুর্থ	-9.727176666259766
▁শিল্পী	-9.727272033691406
▁হঠাৎ	-9.727300643920898
▁পানির	-9.72734260559082
▁আদি	-9.727502822875977
▁উন্মুক্ত	-9.729985237121582
▁হামলা	-9.729991912841797
▁অসাধারণ	-9.730081558227539
▁লোকদের	-9.730424880981445
▁দরজা	-9.730815887451172
▁পাবেন	-9.73086929321289
▁শতাব্দীতে	-9.731084823608398
▁দর্শন	-9.731183052062988
▁স্থির	-9.731486320495605
▁ওকে	-9.732026100158691
▁পারেনি	-9.733386039733887
▁বড়ো	-9.733723640441895
▁অর্থে	-9.734129905700684
লু	-9.734244346618652
▁সকলে	-9.73607349395752
▁২০০৩	-9.737276077270508
▁গ্রিক	-9.737480163574219
▁বিধানসভা	-9.737597465515137
▁ব্যস্ত	-9.73842716217041
▁বিয়ের	-9.73843765258789
▁শান্ত	-9.738505363464355
ছেন	-9.738688468933105
▁পরিষদের	-9.739206314086914
▁নেমে	-9.739863395690918
▁তাকিয়ে	-9.739986419677734
▁প্রকার	-9.740286827087402
▁পূরণ	-9.740906715393066
▁হাসপাতাল	-9.742109298706055
টাই	-9.74277114868164
▁সম্মুখীন	-9.743461608886719
▁শো	-9.744312286376953
▁বৃহৎ	-9.74445629119873
চা	-9.744967460632324
ফি	-9.745847702026367
▁দক্ষতা	-9.746176719665527
▁শুরুতে	-9.746455192565918
▁একা	-9.746546745300293
▁সাম্রাজ্যের	-9.746753692626953
▁উদ্দেশে	-9.746993064880371
হি	-9.74769401550293
▁বাক্যের	-9.748080253601074
▁জানো	-9.748434066772461
৩৯	-9.749207496643066
▁পত্র	-9.749473571777344
▁কোন্	-9.749567031860352
▁জয়ী	-9.750061988830566
▁নীচে	-9.750434875488281
▁যুক্তরাষ্ট্রে	-9.751006126403809
▁কোথাও	-9.751516342163086
▁উপদেশ	-9.75159740447998
▁নেতৃত্বে	-9.7523193359375
▁ডান	-9.75282096862793
▁ফা	-9.752854347229004
▁স্থাপিত	-9.753055572509766
▁গৃহীত	-9.753082275390625
৩৮	-9.753454208374023
▁মর্যাদা	-9.753592491149902
▁খ্রীষ্ট	-9.754019737243652
▁খুন	-9.75439167022705
▁মানবজাতির	-9.754937171936035
টন	-9.755626678466797
▁উপস্থিতি	-9.756078720092773
▁আদম	-9.756101608276367
▁ছোট্ট	-9.75635814666748
▁শাস্ত্র	-9.756539344787598
▁বিজয়	-9.756903648376465
▁সান	-9.757092475891113
▁মেলা	-9.75714111328125
▁বিস্তারিত	-9.757757186889648
▁শহীদ	-9.758288383483887
▁বিলুপ্ত	-9.758499145507812
▁জানাতে	-9.758554458618164
▁করছিলেন	-9.75927448272705
▁মাথায়	-9.75960636138916
বাদী	-9.760095596313477
▁মুসলমান	-9.76029109954834
ন্দ	-9.760313034057617
▁পু	-9.761295318603516
▁সমুদ্র	-9.762078285217285
▁গোপন	-9.762248039245605
▁হওয়ায়	-9.762960433959961
▁বেসরকারি	-9.763177871704102
▁নৈতিক	-9.76357364654541
▁পরিবর্তনের	-9.763875007629395
▁নিয়োজিত	-9.764531135559082
▁শেয়ার	-9.764887809753418
▁আহত	-9.765621185302734
▁প্রযোজ্য	-9.765902519226074
▁এইসব	-9.766090393066406
▁প্রতিযোগিতায়	-9.766765594482422
ইয়া	-9.76724624633789
▁উঁচু	-9.767610549926758
▁জীবনকে	-9.767955780029297
▁আল্লাহ	-9.768545150756836
▁ডিজিটাল	-9.769709587097168
▁পরবর্তীকালে	-9.770134925842285
▁দ্বীপ	-9.771024703979492
▁স্বরূপ	-9.771881103515625
▁কর্মজীবন	-9.772631645202637
▁প্রশ্নের	-9.77305793762207
▁প্রধানত	-9.773317337036133
▁সম্ভাব্য	-9.775047302246094
কালীন	-9.775318145751953
▁সম্পত্তি	-9.775946617126465
▁উল্লিখিত	-9.776151657104492
টাকে	-9.77615737915039
▁বাক্স	-9.77631664276123
▁হাট	-9.776388168334961
▁সেন্ট	-9.776534080505371
▁অফিসার	-9.776735305786133
▁সাক্ষাৎ	-9.777934074401855
▁জটিল	-9.778221130371094
▁২০০২	-9.779011726379395
য়ান	-9.779311180114746
▁সম্মেলনে	-9.779629707336426
▁আকার	-9.78016185760498
▁বাঙালি	-9.78021240234375
▁বিমানবন্দর	-9.780607223510742
▁কমিশনের	-9.781092643737793
▁পদক	-9.782031059265137
▁সাক্ষিরা	-9.78264331817627
_	-9.785205841064453
▁বাচ্চা	-9.7857027053833
▁কন্যা	-9.786208152770996
▁কাউন্সিল	-9.786592483520508
▁অগ্রগামী	-9.787248611450195
▁সোসাইটি	-9.78773021697998
▁হু	-9.788863182067871
▁সংঘটিত	-9.790298461914062
▁হি	-9.790326118469238
র্	-9.791492462158203
দু	-9.79223346710205
▁রবার্ট	-9.793212890625
▁অবসর	-9.793329238891602
▁অন্তত	-9.79340934753418
▁নিম্ন	-9.793489456176758
▁অভিষেক	-9.794116973876953
▁২০১৯	-9.794519424438477
▁ব্লগে	-9.795550346374512
▁সহজেই	-9.79568862915039
▁গতি	-9.796038627624512
▁ওরা	-9.796327590942383
▁দোষ	-9.797090530395508
▁জেলায়	-9.797258377075195
▁উল্লেখিত	-9.797505378723145
▁ধরন	-9.797785758972168
▁স্তর	-9.798516273498535
▁ধ্যান	-9.798913955688477
▁ইতিহাসের	-9.79896068572998
▁শ	-9.799775123596191
▁চ্যানেল	-9.800016403198242
▁প্রমাণিত	-9.800061225891113
▁সার	-9.800094604492188
▁হুমকি	-9.800193786621094
▁তাড়াতাড়ি	-9.80032730102539
▁ছবিতে	-9.80041217803955
চে	-9.80091667175293
▁যুগের	-9.802075386047363
▁সুখ	-9.80275821685791
▁অপর	-9.802766799926758
েন	-9.803200721740723
▁ব্যাপারটা	-9.80330753326416
িয়ার	-9.80357837677002
▁ইস্রায়েলের	-9.804088592529297
▁গভর্নর	-9.804308891296387
▁বন্দর	-9.80441951751709
▁দা	-9.80487060546875
▁অবস্থার	-9.805429458618164
▁১৯৯৯	-9.80555534362793
▁ক্যাথলিক	-9.805630683898926
▁ভালবাসা	-9.806796073913574
▁আওতায়	-9.807160377502441
▁রাষ্ট্রীয়	-9.807282447814941
▁সংশোধন	-9.807297706604004
▁ফসল	-9.807391166687012
▁গ্রহণের	-9.808416366577148
▁উচ্চতা	-9.80856704711914
▁গ্রেপ্তার	-9.8092041015625
▁পাথর	-9.809449195861816
▁অভিযান	-9.809911727905273
ুন	-9.810064315795898
▁অন্যেরা	-9.810226440429688
জনক	-9.810463905334473
▁তদন্ত	-9.81047248840332
▁বিপরীতে	-9.8104887008667
▁হোন	-9.81058120727539
▁মিলিত	-9.811190605163574
▁পশ্চিমে	-9.811311721801758
▁মাল	-9.812010765075684
▁সীমিত	-9.812369346618652
▁জো	-9.812413215637207
▁দেহ	-9.812434196472168
▁দাম	-9.812825202941895
▁দেখিয়েছিলেন	-9.81295394897461
▁ধারাবাহিক	-9.813218116760254
▁অঙ্গ	-9.813545227050781
হার	-9.814244270324707
▁জেনে	-9.814355850219727
▁পেয়েছি	-9.814980506896973
▁অভিহিত	-9.815299987792969
▁নির্বাহী	-9.815592765808105
!"	-9.81572437286377
▁বৃদ্ধির	-9.81667709350586
▁ইউরোপ	-9.816720962524414
▁আন	-9.817420959472656
▁পরিদর্শন	-9.818716049194336
ঙ্গ	-9.819955825805664
▁ভিত্তিক	-9.820178985595703
▁প্রকল্পের	-9.820483207702637
এফ	-9.821128845214844
লিন	-9.822151184082031
▁ধৈর্য	-9.822173118591309
▁কর্তৃপক্ষের	-9.82223892211914
▁লাখ	-9.822416305541992
▁বিতরণ	-9.822478294372559
▁লাগবে	-9.822643280029297
▁আম	-9.823928833007812
▁সর্বশেষ	-9.824195861816406
▁খ্রিস্ট	-9.82440185546875
▁করায়	-9.824953079223633
▁ইউনিয়নের	-9.825129508972168
▁পুলিশের	-9.825387001037598
▁চেয়েও	-9.825417518615723
▁কলেজে	-9.825492858886719
▁ছাত্রদের	-9.825800895690918
▁শব্দটি	-9.826303482055664
▁দেখ	-9.826310157775879
▁মৌসুমে	-9.827241897583008
তেই	-9.82728099822998
▁ইংরেজ	-9.827422142028809
▁চেয়েছিলেন	-9.827483177185059
▁দরিদ্র	-9.828119277954102
▁ডাক্তার	-9.828232765197754
▁ইরানের	-9.828349113464355
▁ঘটেছিল	-9.829429626464844
▁৮০	-9.83022689819336
▁প্রতিষ্ঠাতা	-9.831055641174316
▁রাজনীতিবিদ	-9.831066131591797
ইব্রীয়	-9.831208229064941
▁সম্রাট	-9.831388473510742
▁নাও	-9.831595420837402
▁দিবস	-9.831707000732422
▁নাটক	-9.83222484588623
▁একসঙ্গে	-9.832674980163574
▁শাসনের	-9.83353328704834
▁চন্দ্র	-9.83373737335205
▁বিকল্প	-9.833921432495117
▁ক্ষতিগ্রস্ত	-9.834498405456543
▁প্রকৃতপক্ষে	-9.835952758789062
বোধ	-9.835960388183594
▁পড়ি	-9.836788177490234
ঙ্ক	-9.837247848510742
▁চলেছে	-9.837345123291016
▁ছাড়াই	-9.837575912475586
▁সাফল্য	-9.837966918945312
স্ত	-9.838228225708008
▁নিচের	-9.838671684265137
▁শক্তির	-9.839658737182617
াস	-9.840020179748535
▁ধান	-9.840078353881836
নগর	-9.840203285217285
▁ইসলামী	-9.84028148651123
▁দুষ্ট	-9.84072494506836
▁অস্ট্রেলিয়া	-9.840740203857422
কল	-9.84225845336914
▁দাবী	-9.842761993408203
▁পরীক্ষার	-9.842887878417969
▁পশু	-9.84351921081543
▁১৯৭০	-9.8438720703125
"-	-9.843941688537598
▁পদের	-9.845099449157715
▁সংগীত	-9.845126152038574
▁করলেন	-9.845392227172852
▁গুপ্ত	-9.846664428710938
▁বিন	-9.846935272216797
▁কিন্ত	-9.847224235534668
▁ক্রীড়া	-9.84752368927002
ডো	-9.847701072692871
▁জান	-9.847759246826172
▁প্রেমের	-9.847884178161621
▁প্রজাতির	-9.848109245300293
▁আনন্দের	-9.848353385925293
▁মণ্ডলী	-9.848517417907715
▁পরিমাণে	-9.848526000976562
▁চলচ্চিত্রটি	-9.848562240600586
▁৪৭	-9.848625183105469
▁কমে	-9.848830223083496
ানো	-9.848962783813477
পার	-9.849620819091797
▁বিস্তার	-9.849859237670898
▁আহমদ	-9.849955558776855
▁ইতিহাসে	-9.85055160522461
▁তহবিল	-9.850861549377441
▁১৯৪৭	-9.850889205932617
▁সিদ্ধ	-9.851471900939941
▁এখান	-9.852583885192871
ন্স	-9.852655410766602
▁পুস্তক	-9.852688789367676
▁কাটা	-9.854522705078125
▁তৈরির	-9.854819297790527
▁বু	-9.855260848999023
▁ইয়র্ক	-9.85554027557373
▁ভার	-9.855998992919922
▁প্রোগ্রাম	-9.856240272521973
▁এসেছিলেন	-9.856402397155762
▁সিং	-9.857391357421875
▁জানিয়ে	-9.857444763183594
▁একাডেমি	-9.858142852783203
▁ওখানে	-9.858255386352539
▁টম	-9.858550071716309
▁আবারও	-9.858559608459473
▁গোষ্ঠী	-9.858749389648438
▁সাক্ষাৎকার	-9.85897445678711
▁পারো	-9.859075546264648
▁হো	-9.859086990356445
▁মাদ্রাসা	-9.859771728515625
▁পদ্ধতিতে	-9.859772682189941
▁নই	-9.860166549682617
▁অপারেশন	-9.860176086425781
▁রপ্তানি	-9.86059284210205
▁অসংখ্য	-9.860836029052734
▁বেশির	-9.861063957214355
▁স্কুলের	-9.861499786376953
▁প্রদর্শিত	-9.862133026123047
জু	-9.862737655639648
▁ওয়ার্ড	-9.863037109375
▁বইটি	-9.863567352294922
▁যুগ	-9.863685607910156
▁১৯৭২	-9.863710403442383
▁সহায়ক	-9.864710807800293
▁সংগঠিত	-9.864723205566406
▁গানের	-9.864897727966309
▁১৯৮০	-9.865135192871094
▁৪২	-9.865238189697266
▁আদিপুস্তক	-9.865275382995605
▁রো	-9.866103172302246
▁কাপড়	-9.866454124450684
▁আকারে	-9.867633819580078
▁মূর্তি	-9.86795425415039
▁বাড়ির	-9.868432998657227
▁প্রভু	-9.86854076385498
▁দেখেছি	-9.868712425231934
▁অভিযুক্ত	-9.868846893310547
▁অ্যাকাউন্ট	-9.869318008422852
য	-9.86991024017334
স্প্যানিশ	-9.870598793029785
▁ক্রিকেটার	-9.87091064453125
বু	-9.870988845825195
▁অনুষ্ঠানে	-9.871516227722168
▁ঘনত্ব	-9.872024536132812
▁লীগের	-9.872715950012207
▁চুরি	-9.872904777526855
▁জু	-9.872984886169434
▁নিন্দা	-9.873454093933105
▁ওয়ার্ল্ড	-9.873498916625977
▁নিজেই	-9.87409782409668
▁আত্ম	-9.87427043914795
▁১৯৯৮	-9.874900817871094
▁একত্রিত	-9.875143051147461
▁কবিতা	-9.875509262084961
▁বোঝায়	-9.876566886901855
▁শ্রম	-9.876949310302734
▁পরিবারে	-9.877479553222656
বান	-9.87767219543457
▁এটার	-9.87786865234375
▁দেখেন	-9.878159523010254
▁তাহাদের	-9.878164291381836
▁শেষের	-9.878835678100586
▁বৈজ্ঞানিক	-9.879239082336426
▁চলার	-9.880060195922852
▁সমাজে	-9.880583763122559
▁কারনে	-9.880724906921387
▁নারীর	-9.881827354431152
▁কাঠামো	-9.881912231445312
▁সরে	-9.883294105529785
▁থাকত	-9.88351058959961
▁ঘুরে	-9.8843412399292
▁মিলে	-9.88461685180664
▁এইধরনের	-9.884919166564941
▁সার্ভার	-9.885110855102539
▁সং	-9.885951042175293
▁পরিস্থিতিতে	-9.886333465576172
▁খাওয়া	-9.886542320251465
এইচ	-9.88657283782959
▁বিশ্বকাপ	-9.886842727661133
▁ব্যাপকভাবে	-9.887426376342773
▁একসাথে	-9.887653350830078
▁রুশ	-9.887691497802734
▁চলো	-9.887957572937012
মেন্ট	-9.88835334777832
▁মাংস	-9.888410568237305
▁কার্ড	-9.888460159301758
▁সূচনা	-9.889608383178711
গু	-9.88962173461914
▁আওয়ামী	-9.89004898071289
▁সংগঠনের	-9.890176773071289
▁ঝুঁকি	-9.890351295471191
▁বার্তার	-9.891636848449707
▁ঐতিহ্য	-9.892095565795898
▁অভ্যাস	-9.89262866973877
▁রেখেছে	-9.893019676208496
▁সিনেমা	-9.893064498901367
জো	-9.894183158874512
▁বলো	-9.894464492797852
রাজ	-9.89474868774414
▁ক্ষমতার	-9.894791603088379
▁পুরনো	-9.894829750061035
▁সড়ক	-9.894865989685059
▁এইচ	-9.895625114440918
▁ঘরের	-9.896217346191406
▁আকাঙ্ক্ষা	-9.896309852600098
▁করলাম	-9.89645767211914
▁আমদানি	-9.896644592285156
▁প্রতিষ্ঠার	-9.896829605102539
ত্ত	-9.897262573242188
▁পেরেছিলেন	-9.89806079864502
▁কুমার	-9.89826774597168
▁এনে	-9.899425506591797
▁প্রবন্ধে	-9.90037727355957
▁প্রকৌশল	-9.900643348693848
▁মনের	-9.900846481323242
▁হেই	-9.900959968566895
▁কেটে	-9.901043891906738
▁সেন্টার	-9.901544570922852
▁অসুস্থ	-9.902349472045898
▁কারখানা	-9.902413368225098
▁ব্লক	-9.90298080444336
চার	-9.903106689453125
েস	-9.903797149658203
স্টার	-9.90528392791748
▁খ্রীষ্টান	-9.905904769897461
▁অন্যায়	-9.906408309936523
▁বিবেচিত	-9.906440734863281
▁অনুচ্ছেদ	-9.906452178955078
▁পশ্চিমবঙ্গ	-9.906874656677246
▁বৈধ	-9.907089233398438
▁সুস্থ	-9.907571792602539
▁মহিলাদের	-9.907803535461426
▁ক্ষেত্রের	-9.90789794921875
▁বেরিয়ে	-9.908567428588867
▁জাপানের	-9.908706665039062
▁উদ্ভিদ	-9.910473823547363
▁সাবধান	-9.910759925842285
▁একমত	-9.911642074584961
▁সোনা	-9.91181755065918
▁দেখো	-9.912169456481934
▁জানতেন	-9.912242889404297
▁৩৯	-9.91238021850586
▁প্রজ্ঞা	-9.912864685058594
▁দিল	-9.912980079650879
▁আবু	-9.914424896240234
▁ধরতে	-9.91467571258545
▁পার্ক	-9.91499137878418
▁]	-9.915018081665039
▁অনুমান	-9.915251731872559
▁খেতে	-9.915367126464844
▁ঘনিষ্ঠ	-9.91567611694336
▁ভাববাদী	-9.915698051452637
▁৫১	-9.915826797485352
▁ইতিবাচক	-9.916111946105957
▁ইন্টারন্যাশনাল	-9.916135787963867
▁আচ্ছা	-9.917240142822266
▁উইকেট	-9.917428016662598
▁ঘন	-9.918087005615234
▁প্রজাতি	-9.918357849121094
▁অসম্ভব	-9.918803215026855
▁দৈনিক	-9.918827056884766
▁শিষ্যদের	-9.918831825256348
ঈশ্বর	-9.919342041015625
▁কপি	-9.919539451599121
ধ	-9.920112609863281
তোমরা	-9.920226097106934
▁প্রেস	-9.92031192779541
▁ব্যুরো	-9.920402526855469
▁শ্রেণীর	-9.920515060424805
▁যাবার	-9.920620918273926
▁৫২	-9.921210289001465
গণের	-9.921380043029785
▁চ	-9.921789169311523
▁পেয়েছিল	-9.922115325927734
▁অতএব	-9.92223072052002
কেও	-9.923233032226562
▁পিটার	-9.923333168029785
▁সকালে	-9.923341751098633
াম	-9.924939155578613
▁কলকাতার	-9.925188064575195
▁রাজস্ব	-9.925739288330078
▁বিদ্রোহ	-9.925772666931152
▁পৌঁছে	-9.926246643066406
▁খালি	-9.926462173461914
▁অব্যাহত	-9.927664756774902
বিদ্যা	-9.927857398986816
▁সো	-9.927946090698242
ষ্ট	-9.92872428894043
▁পাখি	-9.928946495056152
▁তখনই	-9.929510116577148
▁সহকারে	-9.929816246032715
▁লো	-9.93057918548584
▁সাইট	-9.931188583374023
▁পরিত্যাগ	-9.931300163269043
▁সমর্থ	-9.93199348449707
▁মেয়েদের	-9.932330131530762
▁স্মৃতি	-9.93233585357666
▁সন্তানের	-9.932673454284668
▁মাই	-9.933008193969727
▁রয়েছেন	-9.933499336242676
▁প্রণয়ন	-9.934494018554688
▁১৯৯৭	-9.934532165527344
িস	-9.935001373291016
▁বিশ্লেষণ	-9.935099601745605
▁কিছুদিন	-9.935357093811035
▁মিশর	-9.935396194458008
৬০	-9.936501502990723
▁লিপিবদ্ধ	-9.937320709228516
▁তখনও	-9.93779182434082
▁বিনিয়োগ	-9.938149452209473
▁প্রথা	-9.938505172729492
▁আগুন	-9.938886642456055
▁লোককে	-9.939214706420898
▁স্বর্গে	-9.93950080871582
▁উচিৎ	-9.940065383911133
▁ভবিষ্যতে	-9.940146446228027
▁সংস্কৃতির	-9.940471649169922
▁কার্য	-9.941171646118164
▁৪৯	-9.94372844696045
▁শমূয়েল	-9.94389533996582
▁রাখুন	-9.943954467773438
৮০	-9.9442777633667
▁চিৎকার	-9.944478988647461
▁সহকারী	-9.944992065429688
চিত্র	-9.9450044631958
▁পর্যবেক্ষণ	-9.945562362670898
হিতোপদেশ	-9.945993423461914
রী	-9.94645881652832
▁কলা	-9.946508407592773
▁অনুশীলন	-9.946857452392578
▁শতাব্দী	-9.946940422058105
▁সবুজ	-9.946971893310547
▁জা	-9.947113990783691
▁দক্ষ	-9.947493553161621
▁বো	-9.94806957244873
▁আলি	-9.948737144470215
▁বলছেন	-9.948751449584961
গার	-9.949179649353027
▁ভাইদের	-9.949438095092773
▁কিংডম	-9.94951057434082
▁স্ত্রীর	-9.949871063232422
▁ইস্ট	-9.949881553649902
▁জনের	-9.94996166229248
▁অলিম্পিক	-9.94998836517334
▁মন্ত্রণালয়ের	-9.950645446777344
▁জানিয়েছেন	-9.95071792602539
▁৫৫	-9.951826095581055
ডে	-9.952259063720703
জাত	-9.952604293823242
▁যাক	-9.952962875366211
▁টুইটারে	-9.953011512756348
▁নিয়েছিল	-9.95383071899414
?'	-9.95402717590332
▁জনগণ	-9.954618453979492
▁সুপারিশ	-9.954980850219727
▁পাট	-9.955817222595215
▁জেলে	-9.955896377563477
▁সমৃদ্ধ	-9.955944061279297
▁বিপরীত	-9.956110000610352
▁অনন্ত	-9.956317901611328
▁বাইরের	-9.956635475158691
▁পো	-9.95673942565918
▁পাসওয়ার্ড	-9.956754684448242
▁শুরুর	-9.95714282989502
▁এশিয়ার	-9.957398414611816
▁সমিতি	-9.957491874694824
▁অধিকারী	-9.957539558410645
▁ধনী	-9.95785140991211
▁শক্ত	-9.95785140991211
▁যেকোন	-9.957978248596191
▁চি	-9.958130836486816
▁দমন	-9.95871353149414
▁সত্যের	-9.958773612976074
▁অবৈধ	-9.95898151397705
▁রাজার	-9.96004581451416
▁যৌথ	-9.960107803344727
৪৩	-9.960137367248535
▁ব্যবহূত	-9.960670471191406
▁প্রত্যাশা	-9.96075439453125
▁প্রকৃতি	-9.961292266845703
▁শ্রেণী	-9.961451530456543
▁পদার্থ	-9.961525917053223
▁পৌরসভা	-9.961810111999512
▁ফ	-9.961843490600586
▁ক্যাপ্টেন	-9.96242904663086
ন্ত	-9.963390350341797
▁রূপান্তর	-9.963777542114258
▁ধরার	-9.964962005615234
▁সেখান	-9.965924263000488
▁নিকটে	-9.96735954284668
▁হাসপাতালে	-9.968165397644043
▁এগুলি	-9.968286514282227
▁শ্রী	-9.968650817871094
▁পড়েন	-9.968928337097168
▁আনতে	-9.969057083129883
▁পড়াশোনা	-9.96915054321289
▁উইন্ডো	-9.969184875488281
▁কাগজ	-9.969529151916504
▁সৃষ্ট	-9.969758033752441
▁রাশিয়ার	-9.970063209533691
▁পার্টির	-9.970444679260254
খা	-9.970534324645996
▁প্রার্থী	-9.97082233428955
▁আসলেই	-9.970858573913574
▁৪৩	-9.97421932220459
▁মৎস্য	-9.974270820617676
▁কাটিয়ে	-9.975322723388672
▁ইংল্যান্ড	-9.975619316101074
▁উনি	-9.976468086242676
▁বিপদ	-9.97667407989502
▁পরিচালনার	-9.976753234863281
▁যুগে	-9.976759910583496
▁বাড়িয়ে	-9.976886749267578
▁সেনা	-9.977015495300293
▁পেশাদার	-9.977089881896973
▁পেয়েছেন	-9.977555274963379
▁নির্মাণের	-9.977682113647461
▁ইতিমধ্যেই	-9.978466987609863
▁এটির	-9.978902816772461
▁অনুগত	-9.980400085449219
▁অদ্ভুত	-9.980598449707031
▁দশক	-9.980703353881836
▁১৯৯৫	-9.981080055236816
▁সৈন্য	-9.981669425964355
৪২	-9.981905937194824
্র	-9.982118606567383
▁সাম্রাজ্য	-9.982149124145508
▁রঙের	-9.982385635375977
▁সংবাদপত্র	-9.982442855834961
▁গরম	-9.982843399047852
▁ডা	-9.983772277832031
▁বাই	-9.98462963104248
▁রোমান	-9.98563003540039
▁জাপান	-9.985949516296387
▁চাষ	-9.98647403717041
▁করুক	-9.987796783447266
▁বেতন	-9.988032341003418
▁এসেছি	-9.988317489624023
▁বীজ	-9.989048957824707
▁শত্রু	-9.989312171936035
▁শনাক্ত	-9.989707946777344
▁শীর্ষ	-9.990630149841309
▁প্রেমময়	-9.990846633911133
▁ব্যতীত	-9.990964889526367
▁অপ	-9.991259574890137
▁স্পষ্টভাবে	-9.991315841674805
▁বিচারক	-9.991548538208008
▁সহিত	-9.992193222045898
▁এয়ার	-9.992324829101562
আদিপুস্তক	-9.992610931396484
▁সাহায্যের	-9.99347972869873
▁মনুষ্য	-9.994427680969238
▁ভালোবাসা	-9.994769096374512
▁লাভের	-9.99543285369873
▁প্রকাশের	-9.996037483215332
গান	-9.996074676513672
▁যাব	-9.996212005615234
▁শতকে	-9.99622917175293
▁ইহা	-9.996702194213867
বিশিষ্ট	-9.996935844421387
▁কলেজের	-9.997015953063965
▁উঠেছিল	-9.997105598449707
সংক্রান্ত	-9.997274398803711
▁পল	-9.998161315917969
▁মেলামেশা	-9.998530387878418
▁সাব	-9.998871803283691
▁৪৬	-9.999131202697754
▁কর্তৃত্ব	-9.999210357666016
▁/	-9.999237060546875
▁বন্দী	-9.999250411987305
▁শস্য	-9.999683380126953
▁সংগৃহীত	-9.999703407287598
▁তৎকালীন	-10.00034236907959
▁কল্যাণ	-10.00093936920166
▁কিশোর	-10.001029968261719
▁সদাপ্রভু	-10.00109577178955
▁কংগ্রেস	-10.001633644104004
▁লন্ডন	-10.00216007232666
▁প্রতিরক্ষা	-10.002165794372559
ূ	-10.00316333770752
কারীদের	-10.003267288208008
▁যোগ্যতা	-10.00403118133545
▁হাসান	-10.004101753234863
▁কৃতজ্ঞ	-10.004864692687988
▁ফিফা	-10.00631046295166
▁ঘটনায়	-10.006375312805176
▁করিলেন	-10.00650691986084
▁কথাবার্তা	-10.006551742553711
▁আইনে	-10.006567001342773
▁৪৪	-10.006741523742676
▁আজ্ঞা	-10.007328987121582
▁অভ্যন্তরীণ	-10.007372856140137
▁করলো	-10.007543563842773
▁উজ্জ্বল	-10.007780075073242
▁ডেভিড	-10.007954597473145
▁খানের	-10.008223533630371
▁মুগল	-10.010223388671875
▁সৈয়দ	-10.010319709777832
৪৭	-10.010506629943848
দে	-10.01071548461914
▁কেহ	-10.010787963867188
▁ওয়েস্ট	-10.010811805725098
▁স্পর্শ	-10.011015892028809
▁পূর্ববর্তী	-10.011621475219727
▁পতাকা	-10.011914253234863
▁অনুমোদিত	-10.012092590332031
▁বংশ	-10.0126314163208
▁সেন	-10.012645721435547
▁৪১	-10.013656616210938
ল্ড	-10.0137357711792
▁মিশন	-10.013964653015137
%)	-10.01402759552002
ৈ	-10.014251708984375
▁বিশেষজ্ঞ	-10.014416694641113
▁পাঁচটি	-10.014596939086914
▁ব্যক্তিত্ব	-10.015724182128906
▁বিশেষত	-10.015971183776855
▁ভেঙ্গে	-10.016824722290039
▁ইবনে	-10.017204284667969
▁আলোচনার	-10.01772403717041
▁আন্তরিক	-10.018050193786621
▁উপন্যাস	-10.018970489501953
▁হইয়া	-10.019369125366211
▁মিশরের	-10.019654273986816
▁অথচ	-10.020419120788574
▁জেমস	-10.020485877990723
▁৬৫	-10.020590782165527
▁উন্নয়নের	-10.020609855651855
▁সেনাবাহিনীর	-10.020623207092285
▁ধারার	-10.020626068115234
স্বরূপ	-10.021625518798828
পো	-10.021729469299316
গ্রাম	-10.021763801574707
▁সকাল	-10.021793365478516
▁শ্রদ্ধা	-10.022296905517578
▁সেখানকার	-10.022979736328125
পড়ুন	-10.023338317871094
▁চালানো	-10.023618698120117
দেশ	-10.023876190185547
ঞ্জ	-10.02436637878418
▁কলকাতায়	-10.026342391967773
আপ	-10.026386260986328
▁সেনাবাহিনী	-10.027204513549805
▁কৃষক	-10.027812004089355
▁তম	-10.028183937072754
▁১৯৬০	-10.02916145324707
▁পরিশ্রম	-10.029166221618652
▁পুরুষদের	-10.02957820892334
▁বাজারে	-10.02987003326416
▁এদিকে	-10.029952049255371
ছিলাম	-10.03070068359375
▁রাজি	-10.031259536743164
িতে	-10.031351089477539
▁১৯৫০	-10.031575202941895
▁অধ্যয়নের	-10.03172492980957
▁অনুষ্ঠানের	-10.032405853271484
▁টন	-10.033164978027344
তু	-10.033535957336426
▁চুক্তির	-10.034329414367676
▁রাজশাহী	-10.034371376037598
▁মাঠ	-10.034463882446289
▁ম্যান	-10.034995079040527
▁নিউজ	-10.03515625
▁স্পষ্টতই	-10.035264015197754
▁ভাড়া	-10.036044120788574
▁প্রচারণা	-10.03625774383545
▁এফ	-10.036593437194824
▁প্রাদেশিক	-10.03669548034668
▁কার্যভার	-10.037384033203125
▁বিতর্ক	-10.03771686553955
▁সূর্য	-10.037995338439941
য়ো	-10.038129806518555
▁দুইটি	-10.03853702545166
▁জানিয়েছে	-10.03863525390625
েল	-10.039562225341797
▁সচিব	-10.039963722229004
▁পাশ	-10.040196418762207
*	-10.041328430175781
▁শিশুর	-10.043689727783203
▁টাওয়ার	-10.0437650680542
▁রঙ	-10.044440269470215
▁অফিসে	-10.044483184814453
▁বললে	-10.044540405273438
▁জোরালো	-10.044553756713867
▁সফটওয়্যার	-10.044590950012207
▁লিখে	-10.04517650604248
▁পরিচর্যার	-10.045345306396484
▁অনেকটা	-10.046521186828613
শো	-10.04664134979248
৪৬	-10.047017097473145
▁বায়ু	-10.047693252563477
বর্গ	-10.047836303710938
▁আদালতে	-10.048124313354492
▁গুরু	-10.048351287841797
▁বেল	-10.048394203186035
▁পারবো	-10.048867225646973
▁বুদ্ধি	-10.04921817779541
▁বন্দি	-10.049846649169922
▁নথি	-10.050196647644043
▁শুভ	-10.051194190979004
▁আসো	-10.051212310791016
▁গভীরভাবে	-10.051225662231445
▁মাটি	-10.051410675048828
▁এখনই	-10.0516939163208
▁উপাসনার	-10.051873207092285
▁ইস্রায়েল	-10.05226993560791
▁রাজনীতি	-10.053264617919922
েশন	-10.053321838378906
৭০	-10.053571701049805
▁বাঁধ	-10.054255485534668
▁অতঃপর	-10.054434776306152
গীত	-10.054595947265625
▁সীমান্ত	-10.054795265197754
▁ধন	-10.054826736450195
▁খ্রীষ্টানদের	-10.055766105651855
▁কাঠ	-10.055767059326172
▁নিয়মিতভাবে	-10.056107521057129
▁নব	-10.056647300720215
▁বিবাহিত	-10.056930541992188
▁বন্যা	-10.057086944580078
▁অগ্রসর	-10.057600021362305
▁৫৩	-10.057791709899902
▁মন্দিরের	-10.058428764343262
▁স্বল্প	-10.058894157409668
▁নিষেধাজ্ঞা	-10.058904647827148
▁ট্রেন	-10.059263229370117
▁পরেই	-10.05963134765625
▁ইউনিভার্সিটি	-10.060174942016602
কেই	-10.060245513916016
▁রোগের	-10.060295104980469
লাল	-10.060672760009766
গি	-10.060953140258789
রাম	-10.060997009277344
▁১৯৯২	-10.061129570007324
▁খ্রিস্টানরা	-10.061792373657227
▁আক্রমণের	-10.06193733215332
▁প্রবণতা	-10.062070846557617
▁আটক	-10.062955856323242
মুক্ত	-10.063445091247559
▁সাধন	-10.063830375671387
▁জাতিসংঘের	-10.064248085021973
▁বর্ণিত	-10.064712524414062
৪৮	-10.064770698547363
▁শু	-10.064780235290527
▁সংবিধান	-10.06552791595459
▁অন্যের	-10.06566047668457
▁যেমনটা	-10.06583023071289
▁সিলেট	-10.066058158874512
▁ভালভাবে	-10.066315650939941
▁চোখের	-10.066779136657715
▁ফাঁকা	-10.067117691040039
▁দোকান	-10.06715202331543
সম্পন্ন	-10.067291259765625
▁গির্জা	-10.067893028259277
েও	-10.06795597076416
▁জ	-10.069823265075684
▁মুদ্রণ	-10.070027351379395
▁সংগ্রহের	-10.070789337158203
▁পাহাড়	-10.071015357971191
▁সরল	-10.07120418548584
▁শে	-10.072052955627441
▁কন	-10.072134971618652
▁টিকে	-10.072442054748535
▁বক্তব্য	-10.073493957519531
▁গাছের	-10.073623657226562
সো	-10.073953628540039
▁কারও	-10.074380874633789
▁ফেলার	-10.074834823608398
▁জলবায়ু	-10.075114250183105
▁প্রকাশক	-10.075199127197266
▁রাগ	-10.075305938720703
▁উপেক্ষা	-10.075678825378418
▁মজা	-10.076050758361816
▁ব্যক্তিগতভাবে	-10.076168060302734
▁চিত্রিত	-10.076258659362793
▁ক্ষতিকর	-10.076353073120117
▁বোর্ডের	-10.076528549194336
▁বুক	-10.076857566833496
▁বিবৃতি	-10.077081680297852
▁প্রস্তুতি	-10.07720947265625
▁ওয়া	-10.077218055725098
ন্ট	-10.077814102172852
▁পরিষেবা	-10.078096389770508
০৮	-10.078301429748535
▁দেবার	-10.078339576721191
▁জনসাধারণের	-10.080181121826172
▁ঘুম	-10.080312728881836
▁জড়িয়ে	-10.080352783203125
▁পর্যায়ের	-10.08036994934082
▁বিশ	-10.080595970153809
▁নোট	-10.080741882324219
▁বাঁধা	-10.0807466506958
▁সমন্বয়	-10.080843925476074
▁লর্ড	-10.08084487915039
▁সদস্যরা	-10.080852508544922
▁জিন	-10.081055641174316
▁মানচিত্র	-10.08163070678711
▁যিশুকে	-10.081778526306152
▁২০০	-10.082240104675293
▁সম্পর্কের	-10.082971572875977
িল	-10.083189010620117
▁বিক্রয়	-10.08385181427002
▁ছাপ	-10.084822654724121
▁বর্ণ	-10.086446762084961
▁ব্যবসায়ী	-10.086661338806152
▁তাহারা	-10.086833000183105
▁বলবে	-10.087138175964355
▁দিলে	-10.087620735168457
▁বাচ্চাদের	-10.08852767944336
▁পারছি	-10.088702201843262
▁ফিল্ম	-10.088763236999512
▁অনলাইনে	-10.088860511779785
▁ইয়া	-10.089293479919434
▁পারতেন	-10.089478492736816
▁শাস্ত্রীয়	-10.089546203613281
▁সৃষ্টির	-10.089689254760742
▁লিঙ্গ	-10.0899076461792
▁চে	-10.09000015258789
স্ক	-10.090641975402832
▁ইরান	-10.091015815734863
▁চুপ	-10.091285705566406
▁হৃদয়ে	-10.091339111328125
▁মতোই	-10.091458320617676
▁জানানোর	-10.091595649719238
ৌ	-10.091597557067871
▁সাক্ষী	-10.091894149780273
্ম	-10.091986656188965
▁আরোপ	-10.09215259552002
▁চেক	-10.0926513671875
▁জ্যাক	-10.09266471862793
▁বিপুল	-10.092970848083496
▁প্রতিযোগিতার	-10.093214988708496
▁পুরষ্কার	-10.094161987304688
▁মিশরীয়	-10.0943021774292
▁সুর	-10.09460735321045
▁আদিবাসী	-10.095171928405762
▁নর	-10.09550666809082
সমস্ত	-10.096055030822754
▁যতক্ষণ	-10.096226692199707
▁অভিনয়ের	-10.096261024475098
▁হব	-10.096914291381836
▁বর	-10.097105979919434
িয়	-10.09720516204834
▁খেয়ে	-10.097393035888672
▁থাকায়	-10.097451210021973
▁স্টেট	-10.097646713256836
▁সেটাকে	-10.09797191619873
কম	-10.098783493041992
▁দাঁড়ায়	-10.09889030456543
পাড়া	-10.099014282226562
▁দৃষ্টান্ত	-10.099501609802246
▁নৌকা	-10.10049819946289
▁কর্পোরেশন	-10.100905418395996
▁পরিবহন	-10.100969314575195
▁মাত্রা	-10.10165023803711
▁উপস্থাপনা	-10.102457046508789
▁দায়ূদের	-10.10250473022461
▁কাঠের	-10.10273551940918
▁জনগোষ্ঠীর	-10.102900505065918
▁১৯৯৩	-10.103092193603516
▁পাকিস্তানে	-10.10317611694336
▁রাখি	-10.103611946105957
▁শোক	-10.104619026184082
▁ক্রিকেটে	-10.104930877685547
▁মানুষদের	-10.105196952819824
মাত্র	-10.105327606201172
▁লোড	-10.105895042419434
▁মেডিকেল	-10.106462478637695
▁সুপার	-10.10660457611084
▁বৃদ্ধ	-10.107599258422852
▁৫৪	-10.107704162597656
▁আর্কাইভ	-10.107979774475098
▁বন্ধুত্ব	-10.108109474182129
▁কথায়	-10.10916519165039
▁প্রতিটা	-10.109997749328613
▁কোম্পানী	-10.110133171081543
▁পর্যাপ্ত	-10.11037540435791
▁লুকিয়ে	-10.111187934875488
▁নজর	-10.111398696899414
▁রাতের	-10.111560821533203
▁জমিদার	-10.112159729003906
▁ভালোভাবে	-10.112528800964355
▁মুখ্য	-10.11273193359375
নিয়া	-10.113608360290527
▁জমির	-10.114187240600586
▁উই	-10.114216804504395
▁মুসলমানদের	-10.114933967590332
▁উদযাপন	-10.114960670471191
▁স্বতন্ত্র	-10.115467071533203
নাম	-10.115639686584473
০৭	-10.115779876708984
▁অপূর্ব	-10.116307258605957
▁বিরত	-10.116464614868164
▁তীম	-10.11661434173584
▁পণ্ডিত	-10.11821174621582
▁বিজ্ঞাপন	-10.11833667755127
▁আয়ের	-10.118871688842773
▁সার্টিফিকেট	-10.118910789489746
▁প্রথমবারের	-10.119072914123535
▁অজানা	-10.119654655456543
▁টেনে	-10.11970043182373
▁সম্পর্কযুক্ত	-10.12014389038086
জাতীয়	-10.120744705200195
▁উইলিয়াম	-10.120824813842773
▁বোঝার	-10.121342658996582
রত	-10.12139892578125
▁স্বামীর	-10.122366905212402
বিহীন	-10.122824668884277
▁মুক্তিযুদ্ধের	-10.122832298278809
▁ইয়োব	-10.12348461151123
▁প্লিজ	-10.123542785644531
▁১৯৮২	-10.12397289276123
▁হচ্ছেন	-10.124051094055176
▁ফ্রি	-10.12411880493164
▁শরীর	-10.124192237854004
▁১৯৯৪	-10.12476921081543
▁ভবিষ্যতের	-10.124787330627441
▁বৃষ্টি	-10.125001907348633
▁সৎ	-10.126029014587402
▁বার্ন	-10.127164840698242
▁দৃষ্টিতে	-10.1275634765625
▁কাজগুলো	-10.128032684326172
মন	-10.128105163574219
▁ম্যাচ	-10.128128051757812
▁পরিণতি	-10.128448486328125
▁দ্রব্য	-10.128780364990234
▁আটকে	-10.128837585449219
▁মৃত্তিকা	-10.128878593444824
▁মিশনারি	-10.129326820373535
৪১	-10.129785537719727
▁জেগে	-10.130289077758789
ড়ি	-10.130630493164062
▁দিয়া	-10.13064193725586
▁বিপ্লব	-10.130717277526855
▁বেঙ্গল	-10.131007194519043
▁কান	-10.131216049194336
▁যথাযথ	-10.13144588470459
▁মাটির	-10.132012367248535
▁জানুয়ারী	-10.132187843322754
▁ইতোমধ্যে	-10.132636070251465
▁আকাশ	-10.13278579711914
▁সেতু	-10.133834838867188
লী	-10.135863304138184
▁ধার্মিক	-10.135976791381836
▁অনুলিপি	-10.136246681213379
▁কর্মচারী	-10.136744499206543
▁বিশ্বে	-10.136985778808594
৯০	-10.136996269226074
ল্যান্ড	-10.137567520141602
▁ইস্রায়েলীয়দের	-10.137748718261719
▁প্রবাহিত	-10.138528823852539
▁মাইকেল	-10.13901424407959
▁থাকবেন	-10.139036178588867
স্তা	-10.139305114746094
▁পার্শ্ব	-10.139338493347168
০৬	-10.139863967895508
িনী	-10.140463829040527
কান	-10.141687393188477
▁ওদের	-10.141858100891113
▁আরেক	-10.142054557800293
নিক	-10.142110824584961
▁অপরাধের	-10.142230987548828
০৫	-10.142411231994629
▁বিকাশ	-10.14381217956543
▁মুহূর্তে	-10.144367218017578
▁নির্যাতন	-10.144606590270996
▁হচ্ছিল	-10.144657135009766
▁ইন্ডিয়ান	-10.144755363464355
▁চল	-10.145331382751465
বেন	-10.146056175231934
▁ওষুধ	-10.146373748779297
▁হাসি	-10.147645950317383
▁ভাবতে	-10.147666931152344
▁লোকজন	-10.148185729980469
▁পরিবারকে	-10.148574829101562
বন	-10.148616790771484
▁দেবী	-10.148979187011719
▁ঘণ্টা	-10.149731636047363
▁চিরকাল	-10.149820327758789
▁ঔষধ	-10.150605201721191
▁পুরস্কারের	-10.151888847351074
▁জরিপ	-10.151928901672363
▁পাত্র	-10.152971267700195
▁তেমনি	-10.15311050415039
▁অপসারণ	-10.153220176696777
▁ব্যথা	-10.153470039367676
▁রোড	-10.153703689575195
▁শি	-10.154145240783691
▁সদাপ্রভুর	-10.154263496398926
▁কমান্ড	-10.154296875
ারি	-10.154909133911133
▁পেরে	-10.154937744140625
▁অংশের	-10.155061721801758
▁গৌরব	-10.155074119567871
▁আইনজীবী	-10.155330657958984
▁থাকো	-10.15555477142334
▁এসো	-10.155611038208008
▁কারণেই	-10.15568733215332
▁নো	-10.156529426574707
▁ডিগ্রী	-10.157252311706543
▁আগ	-10.157490730285645
▁রাস্তার	-10.15766429901123
▁অস্ট্রেলিয়ার	-10.157669067382812
▁তাছাড়া	-10.157981872558594
▁লিমিটেড	-10.158745765686035
িস্ট	-10.159071922302246
পশ্চিম	-10.159173965454102
▁এমনভাবে	-10.159245491027832
▁মারাত্মক	-10.160075187683105
কোন	-10.16039752960205
ণ্ড	-10.160433769226074
▁বয়ে	-10.161182403564453
▁প্রতিশ্রুতি	-10.161595344543457
▁উপকৃত	-10.16175365447998
▁শব্দের	-10.162019729614258
▁সাপ্তাহিক	-10.162111282348633
ফার	-10.162532806396484
গে	-10.163264274597168
ল্লা	-10.163427352905273
েড	-10.163895606994629
▁১৯৭৭	-10.16391658782959
▁দিকের	-10.164023399353027
▁আফগান	-10.16427230834961
▁এইভাবে	-10.164481163024902
▁শতক	-10.16463851928711
▁পদ্ধতির	-10.165048599243164
▁আদালতের	-10.16521167755127
▁গ্রামীণ	-10.16549015045166
▁সংস্কৃত	-10.165545463562012
▁একসময়	-10.166481971740723
▁রীতি	-10.166501998901367
▁করেই	-10.166808128356934
▁খেলেন	-10.166858673095703
▁আবশ্যক	-10.1668701171875
▁ডিম	-10.16785717010498
▁কোর্স	-10.168150901794434
তিনি	-10.168201446533203
▁ওঠা	-10.169116973876953
▁কর্মীদের	-10.169354438781738
▁সঠিকভাবে	-10.16981315612793
▁১৯৮৯	-10.170132637023926
▁তিনজন	-10.170283317565918
▁হাল	-10.170958518981934
▁শতকরা	-10.17237663269043
▁যাবেন	-10.172389030456543
▁পাঠিয়ে	-10.172609329223633
▁গণনা	-10.172675132751465
▁১৯৭৫	-10.172947883605957
▁আত্মিক	-10.174263000488281
▁নিমিত্ত	-10.175071716308594
▁বিলিয়ন	-10.17527961730957
তোমার	-10.176436424255371
▁স্টার	-10.17655086517334
▁ব্যবস্থায়	-10.176566123962402
▁বিশ্বযুদ্ধের	-10.176671981811523
▁নিজেদেরকে	-10.176794052124023
▁পড়েছিল	-10.177143096923828
▁ফ্রান্স	-10.17786693572998
▁দিবে	-10.177978515625
▁রস	-10.177987098693848
যিশাইয়	-10.178154945373535
হু	-10.17823600769043
▁সিরিয়ার	-10.178389549255371
রাস্তা	-10.17869758605957
▁কর্মসূচি	-10.178768157958984
▁সংসদের	-10.178842544555664
▁সিরিজ	-10.178906440734863
▁ইউরোপের	-10.179060935974121
▁পরিচারক	-10.179207801818848
▁একত্রে	-10.17933177947998
▁করিও	-10.179497718811035
▁আবদ্ধ	-10.17953109741211
▁মোশির	-10.179597854614258
▁বিশ্রাম	-10.179728507995605
ড়ে	-10.180179595947266
▁ছোটো	-10.18218994140625
রাই	-10.18239974975586
▁ইউনিট	-10.182672500610352
▁প্রত্যক্ষ	-10.1832914352417
পু	-10.18337631225586
▁উপযোগী	-10.183890342712402
▁আর্ট	-10.18404483795166
▁বরাবর	-10.18423080444336
▁সহযোগী	-10.184314727783203
ঙ্গা	-10.184406280517578
▁পাকিস্তানি	-10.184693336486816
০৯	-10.184883117675781
▁স্থাপত্য	-10.184920310974121
▁দানিয়েল	-10.185129165649414
নাথ	-10.185540199279785
▁গেছেন	-10.186247825622559
▁আফগানিস্তানের	-10.186300277709961
▁শিল্পের	-10.187349319458008
▁জন্যই	-10.187746047973633
৬৬	-10.187796592712402
▁একদম	-10.187902450561523
▁আব্দুল	-10.188331604003906
▁লিখতে	-10.188549041748047
▁স্থানান্তর	-10.18893814086914
▁সন্তুষ্ট	-10.189227104187012
ভুক্ত	-10.189287185668945
▁অপরের	-10.189513206481934
উপ	-10.190593719482422
▁কৃষ্ণ	-10.190813064575195
▁সঙ্গী	-10.191393852233887
▁গু	-10.191407203674316
▁চিনি	-10.192237854003906
▁চু	-10.192521095275879
লাইন	-10.192708969116211
▁কাম	-10.192843437194824
▁করবার	-10.193121910095215
৭৫	-10.193130493164062
▁সফর	-10.193636894226074
নীয়	-10.193872451782227
ছো	-10.19396686553955
▁১৯৮৪	-10.194026947021484
▁চুল	-10.194222450256348
▁..	-10.194265365600586
▁রাসায়নিক	-10.194313049316406
▁১৯৬২	-10.194755554199219
০৪	-10.195136070251465
▁সীমাবদ্ধ	-10.195561408996582
▁হোম	-10.196574211120605
পূ	-10.196714401245117
▁১৯৮৭	-10.196843147277832
▁উদ্বিগ্ন	-10.197174072265625
▁সাহসী	-10.197348594665527
▁সম্বন্ধীয়	-10.197356224060059
▁কারাগারে	-10.197507858276367
▁এমনটা	-10.197537422180176
▁১৯৮৩	-10.198277473449707
কী	-10.198417663574219
▁আচার	-10.198753356933594
▁স্প্যানিশ	-10.198808670043945
▁সুরক্ষিত	-10.199211120605469
▁চাইলে	-10.19942569732666
▁প্রতিফলিত	-10.199954986572266
▁আইসিসি	-10.200297355651855
▁ফেরত	-10.200499534606934
▁রেড	-10.201309204101562
▁সৌজন্যে	-10.201343536376953
▁এখানকার	-10.201598167419434
▁জনতা	-10.203354835510254
▁আরবি	-10.203418731689453
▁দোষী	-10.203451156616211
▁ক্রয়	-10.203561782836914
▁বসতি	-10.204161643981934
বাসী	-10.205339431762695
▁দাসদের	-10.205704689025879
▁থাকুন	-10.205782890319824
▁অন্ধ	-10.206196784973145
▁মাঝামাঝি	-10.206375122070312
ধা	-10.206392288208008
▁নিবন্ধন	-10.20640754699707
▁নওয়াব	-10.206645011901855
চু	-10.207100868225098
▁ওপরে	-10.207223892211914
▁অভি	-10.207721710205078
▁নির্বাচনী	-10.207815170288086
▁সেটাই	-10.207891464233398
▁মালিকানা	-10.208207130432129
হো	-10.208504676818848
▁পরিবেশন	-10.208688735961914
▁প্রসারিত	-10.20877456665039
▁এ্যা	-10.209036827087402
▁নেতাদের	-10.209159851074219
▁এনজিও	-10.209293365478516
▁গায়ক	-10.209670066833496
▁বিদেশি	-10.21015739440918
▁ভা	-10.211065292358398
পর	-10.211729049682617
▁তথ্যের	-10.211771011352539
▁নিয়েছেন	-10.211976051330566
▁বিনিময়	-10.212562561035156
▁যাজক	-10.212825775146484
▁এশিয়ান	-10.213496208190918
▁ভৌগোলিক	-10.213595390319824
▁কর্মরত	-10.214485168457031
▁খেয়াল	-10.214723587036133
▁গিয়েছিলাম	-10.214836120605469
▁কেন্দ্রীভূত	-10.215152740478516
মেন	-10.21592903137207
▁রাজকীয়	-10.216567993164062
▁সেগুলোকে	-10.21749496459961
▁খ্যাতি	-10.217535972595215
▁যথাক্রমে	-10.220169067382812
▁অডিও	-10.220234870910645
▁রূপে	-10.220305442810059
▁হাঁস	-10.220732688903809
▁সশস্ত্র	-10.222344398498535
▁সম্পূর্ণরূপে	-10.222844123840332
▁মোশি	-10.223490715026855
▁পুরোনো	-10.223650932312012
▁এজেন্ট	-10.224419593811035
▁লাগছে	-10.224562644958496
▁মঙ্গল	-10.22457504272461
▁চ্যালেঞ্জ	-10.224599838256836
▁পুরাতন	-10.224675178527832
াইয়া	-10.22499942779541
▁একদল	-10.225025177001953
উল	-10.225032806396484
▁প্রণীত	-10.225260734558105
ুক	-10.22530746459961
▁উদ্যান	-10.225889205932617
▁নির্	-10.226183891296387
জান	-10.22620677947998
▁আমরাও	-10.226935386657715
▁হতাশ	-10.227118492126465
৫৫	-10.228015899658203
▁টেক্সট	-10.228195190429688
▁প্রবল	-10.22873306274414
▁বিজ্ঞ	-10.22926139831543
▁সংগ্রাম	-10.229365348815918
▁রহস্য	-10.229371070861816
সেন	-10.229443550109863
▁১৯৮৮	-10.229469299316406
▁মেরি	-10.229926109313965
▁পার্বত্য	-10.230408668518066
▁স্বর্ণ	-10.231085777282715
▁নিম্নলিখিত	-10.231154441833496
▁ঘিরে	-10.231176376342773
▁অর্ধেক	-10.231371879577637
▁সরকারকে	-10.231569290161133
▁দলটি	-10.231817245483398
▁পরিবহণ	-10.231921195983887
▁ইংল্যান্ডের	-10.232029914855957
দী	-10.232086181640625
▁বিচারের	-10.232378005981445
▁পেশ	-10.232688903808594
▁মিত্র	-10.232789993286133
▁প্যা	-10.233241081237793
▁রূপান্তরিত	-10.234562873840332
▁বিদেশে	-10.234588623046875
▁নিদর্শন	-10.234618186950684
▁সহজে	-10.2347412109375
▁সামগ্রী	-10.235169410705566
▁বিদায়	-10.235607147216797
▁রাজ্যে	-10.235692024230957
▁ভয়াবহ	-10.235906600952148
তত্ত্ব	-10.236331939697266
▁প্রত্যাহার	-10.23708438873291
▁ছেলেমেয়েদের	-10.237264633178711
▁আল্লাহর	-10.237648010253906
▁ওয়াচ	-10.238045692443848
▁ইফিষীয়	-10.238086700439453
▁আরেকজন	-10.238090515136719
▁থিয়েটার	-10.23831844329834
▁করান	-10.238455772399902
▁অক্ষর	-10.238755226135254
ীদের	-10.239091873168945
▁স্বয়ংক্রিয়	-10.239377975463867
▁অলৌকিক	-10.239461898803711
দো	-10.239624977111816
▁পশ্চিমবঙ্গের	-10.239652633666992
৫৮	-10.239773750305176
▁অগ্রগামীর	-10.240087509155273
াদি	-10.240324974060059
▁দিচ্ছি	-10.240455627441406
▁হ্যালো	-10.240618705749512
▁চর	-10.241230010986328
ক্ষ	-10.241710662841797
মেইল	-10.24238109588623
মের	-10.242694854736328
প্রকাশিত	-10.242719650268555
▁যিহুদি	-10.243021965026855
▁দায়	-10.243619918823242
▁অস্থায়ী	-10.24384880065918
▁পৃষ্ঠায়	-10.244190216064453
চন্দ্র	-10.24448299407959
▁আনুগত্য	-10.244513511657715
▁আনার	-10.244760513305664
শী	-10.244935035705566
▁ডু	-10.245040893554688
▁বিরক্ত	-10.245197296142578
▁চার্লস	-10.245338439941406
সেই	-10.245466232299805
▁মেজর	-10.245640754699707
▁বস	-10.246039390563965
▁যথা	-10.246275901794434
ভাব	-10.246752738952637
▁টাকার	-10.247190475463867
▁বীমা	-10.24794864654541
▁করছ	-10.248047828674316
▁সত্যিকারের	-10.248220443725586
▁ব্যাংকের	-10.248640060424805
▁লাগানো	-10.248695373535156
▁সেগুলি	-10.248976707458496
▁সম্পাদনা	-10.249109268188477
▁গঠনের	-10.249590873718262
▁নম্র	-10.24976921081543
▁মধ্যবর্তী	-10.249876022338867
▁গণতান্ত্রিক	-10.24988079071045
▁১৯৬৯	-10.251134872436523
▁গবেষণার	-10.251136779785156
▁দেরি	-10.251285552978516
▁আসি	-10.251853942871094
▁লিখেছে	-10.25245189666748
▁অগ্নি	-10.25269889831543
▁নেতিবাচক	-10.252772331237793
▁উন্নীত	-10.252774238586426
▁বেন	-10.252826690673828
▁লাইব্রেরি	-10.253081321716309
যেমন	-10.253142356872559
শ্রেণীর	-10.253332138061523
▁দুধ	-10.253341674804688
▁বৈদেশিক	-10.25352668762207
▁ভূমিকায়	-10.253683090209961
▁বোকা	-10.254036903381348
▁বাম	-10.25490951538086
▁মেয়ের	-10.254977226257324
▁পঞ্চম	-10.255027770996094
▁কেন্দ্রে	-10.255800247192383
▁অল	-10.25593376159668
থি	-10.25615119934082
▁কক্ষ	-10.256467819213867
▁নোহ	-10.256811141967773
▁আমিও	-10.257478713989258
▁আকারের	-10.257660865783691
▁বেগম	-10.258844375610352
▁আপ	-10.258996963500977
▁আফ্রিকান	-10.259947776794434
▁লেখেন	-10.2604341506958
▁১৯৮৬	-10.260936737060547
মত	-10.261956214904785
▁খাবারের	-10.262154579162598
▁দলিল	-10.262887001037598
▁মাতা	-10.263274192810059
▁ফু	-10.263657569885254
▁দেখেছিলেন	-10.263985633850098
এটা	-10.264151573181152
▁ক্যা	-10.26416015625
▁করিব	-10.264297485351562
▁মিনিটের	-10.264381408691406
▁গির্জার	-10.264646530151367
▁পর্ব	-10.264694213867188
ার্স	-10.265091896057129
▁রাখবেন	-10.26522445678711
▁আসাম	-10.265351295471191
▁পুনরুদ্ধার	-10.265670776367188
▁শিরোনামের	-10.2660493850708
▁উনিশ	-10.266355514526367
▁পুকুর	-10.266654014587402
▁পাচ্ছে	-10.267254829406738
▁নিয়ন্ত্রিত	-10.267351150512695
▁চিন্তাভাবনা	-10.267385482788086
▁পার্থিব	-10.267969131469727
ওয়ার	-10.268412590026855
▁রুট	-10.268655776977539
▁হিন্দি	-10.268792152404785
৪৯	-10.269543647766113
▁(;	-10.269574165344238
▁প্রতিবেশী	-10.269796371459961
▁নৃত্য	-10.27010726928711
▁দৈর্ঘ্য	-10.270174026489258
পদ	-10.270747184753418
▁সর্বোত্তম	-10.27116584777832
▁পরীক্ষায়	-10.271306037902832
▁মূল্যায়ন	-10.271470069885254
▁রাশিয়া	-10.271550178527832
▁সংকেত	-10.272757530212402
▁চাল	-10.272912979125977
▁আদায়	-10.27332592010498
▁যাইহোক	-10.273336410522461
▁প্রাচীনদের	-10.273919105529785
▁আধ্যাত্মিকভাবে	-10.273923873901367
▁আমলে	-10.273965835571289
াব	-10.27405834197998
▁আশ্বাস	-10.274131774902344
▁লঙ্ঘন	-10.274348258972168
▁গেম	-10.274800300598145
শক্তি	-10.275062561035156
▁ভেতর	-10.275314331054688
▁একাডেমী	-10.275374412536621
▁উপদেষ্টা	-10.276419639587402
▁জাতীয়তাবাদী	-10.276763916015625
▁হয়েছি	-10.276806831359863
▁বস্ত্র	-10.278112411499023
▁বিষয়গুলোর	-10.278711318969727
▁বিনিময়ে	-10.278881072998047
▁সম্প্রচার	-10.279046058654785
▁বিশুদ্ধ	-10.280278205871582
▁মৃত্যুবরণ	-10.280357360839844
▁পলি	-10.280975341796875
▁চার্চ	-10.28099250793457
▁কেন্দ্রের	-10.281314849853516
▁মসজিদের	-10.281413078308105
লের	-10.281620979309082
অ্যা	-10.281665802001953
▁আবহাওয়া	-10.281844139099121
▁গ্রীক	-10.281923294067383
▁কর্মকর্তাদের	-10.282033920288086
▁দত্ত	-10.2820405960083
▁ওজন	-10.282073020935059
▁বীর	-10.283034324645996
▁জয়লাভ	-10.284418106079102
▁বেসামরিক	-10.284963607788086
▁শোনার	-10.285154342651367
▁রাজত্ব	-10.285260200500488
▁বলেছি	-10.285439491271973
▁১৯৭৩	-10.285510063171387
▁কালে	-10.28597640991211
▁১৯৭৪	-10.286301612854004
▁করতো	-10.286540031433105
▁মাহমুদ	-10.28724479675293
▁বৃহত্তর	-10.287328720092773
কুল	-10.287679672241211
▁খামার	-10.287762641906738
কিন্তু	-10.287873268127441
বিদ	-10.288276672363281
▁ভর	-10.288372993469238
▁ওঠার	-10.288532257080078
▁থাকলেও	-10.288744926452637
▁ভাইয়ের	-10.288768768310547
▁পতন	-10.289877891540527
ডার	-10.290414810180664
▁কুকুর	-10.290602684020996
তাম	-10.290756225585938
▁সকলেই	-10.291141510009766
▁অবশিষ্ট	-10.291183471679688
উই	-10.291356086730957
▁ক্যামেরা	-10.291406631469727
▁হামলার	-10.29153060913086
▁প্রচারিত	-10.291638374328613
তারা	-10.292171478271484
▁বন্ধুদের	-10.29290771484375
▁দিয়েছি	-10.293269157409668
▁অ্যালবাম	-10.293745994567871
▁পাচ্ছি	-10.294100761413574
▁৭৫	-10.294428825378418
চ্ছ	-10.295061111450195
▁দুর্যোগ	-10.295214653015137
োর	-10.295649528503418
▁দলকে	-10.295845985412598
▁দুর্গ	-10.295878410339355
▁জোরে	-10.296915054321289
▁সাই	-10.29707145690918
য়েন	-10.297566413879395
▁ব্যান্ড	-10.29765796661377
▁কার্যক্রমের	-10.298103332519531
▁হোটেল	-10.298201560974121
▁শিক্ষিত	-10.298553466796875
েট	-10.299161911010742
▁পোর্ট	-10.299814224243164
▁সাগর	-10.299942016601562
▁নাম্বার	-10.300756454467773
৫৬	-10.300868034362793
য়াল	-10.301111221313477
▁পাথরের	-10.301294326782227
▁হস্ত	-10.301308631896973
▁বিগত	-10.301459312438965
▁বাজে	-10.302053451538086
▁ঘোড়া	-10.302155494689941
▁গে	-10.302177429199219
▁এসেছেন	-10.30250072479248
▁একেবারেই	-10.30283260345459
▁প্রিমিয়ার	-10.303021430969238
▁ঐতিহ্যবাহী	-10.30383586883545
▁মেয়াদ	-10.304113388061523
▁সাধারণভাবে	-10.304351806640625
আল	-10.304590225219727
▁কমিশনার	-10.30490779876709
▁আনুষ্ঠানিক	-10.304913520812988
▁কেউই	-10.305017471313477
▁সমন্বয়ে	-10.305335998535156
▁নিই	-10.305962562561035
▁অগ্রগতি	-10.306038856506348
▁করলেও	-10.306615829467773
▁শপথ	-10.307126998901367
ফে	-10.307233810424805
▁পাগল	-10.307709693908691
▁শূন্য	-10.307941436767578
▁বিহার	-10.307951927185059
▁সন্ধান	-10.307979583740234
▁কৃতজ্ঞতা	-10.308757781982422
মার্ক	-10.309216499328613
▁শহরটি	-10.309863090515137
▁পেশা	-10.310193061828613
▁পর্বত	-10.310654640197754
▁১৯৬৭	-10.311598777770996
০৩	-10.311601638793945
▁১৯৮৫	-10.311644554138184
▁হস্তক্ষেপ	-10.311922073364258
৫৩	-10.312057495117188
▁খাওয়ার	-10.312390327453613
▁আকর্ষণীয়	-10.312519073486328
▁ভূষিত	-10.312588691711426
▁দিল্লি	-10.3126220703125
▁ইউরোপে	-10.3132963180542
▁গি	-10.313666343688965
▁হাতের	-10.314773559570312
ব্য	-10.31503963470459
▁মিলিয়ে	-10.315263748168945
াত	-10.315377235412598
▁জীব	-10.315452575683594
▁অর্ধ	-10.315523147583008
▁প্রার্থনার	-10.315726280212402
বাস	-10.31576919555664
ুয়া	-10.315913200378418
▁তীরে	-10.31628704071045
▁নীতির	-10.317264556884766
▁কমিউনিস্ট	-10.317420959472656
▁আবেগ	-10.317447662353516
▁দিত	-10.31745719909668
▁প্রান্ত	-10.317672729492188
▁কাজটি	-10.318081855773926
▁উদ্ধৃতি	-10.318230628967285
জনিত	-10.318462371826172
▁এগুলোর	-10.318893432617188
▁যন্ত্রণা	-10.31907844543457
▁বইয়ে	-10.319225311279297
▁রু	-10.319330215454102
▁প্রবাহ	-10.31997299194336
▁নৌ	-10.320024490356445
▁৫০০	-10.320427894592285
▁নিঃসন্দেহে	-10.320608139038086
▁উপাধি	-10.321158409118652
▁স্বীকৃত	-10.321378707885742
▁থাকুক	-10.321514129638672
৫৯	-10.321524620056152
▁স্থানান্তরিত	-10.321842193603516
▁পুরুষের	-10.321894645690918
▁স্মরণার্থ	-10.321972846984863
▁জনপ্রিয়তা	-10.322117805480957
▁সেবায়	-10.322419166564941
▁জলের	-10.32243824005127
▁অতিথি	-10.32245922088623
তর	-10.323050498962402
▁ব্যা	-10.323195457458496
্ট	-10.323530197143555
▁এক্ষেত্রে	-10.323772430419922
▁প্রারম্ভিক	-10.323907852172852
ভে	-10.3241548538208
▁বস্তুগত	-10.32475757598877
ম্প	-10.324884414672852
▁তু	-10.325246810913086
▁প্রাপ্তবয়স্ক	-10.325485229492188
▁হংকং	-10.325608253479004
ত্র	-10.325758934020996
▁তোমাদিগকে	-10.326271057128906
লোক	-10.326329231262207
▁সিংহ	-10.326680183410645
▁সামনের	-10.326891899108887
▁পরিশোধ	-10.327112197875977
▁নিশ্চয়	-10.327400207519531
▁কর্মসূচির	-10.327449798583984
▁জোড়া	-10.328049659729004
বিরোধী	-10.328405380249023
▁ফেলেছে	-10.328654289245605
শান	-10.32886791229248
এবং	-10.329080581665039
▁নাইট	-10.329741477966309
▁পয়েন্ট	-10.330755233764648
▁নেট	-10.331014633178711
▁ব্লগের	-10.331191062927246
▁ডেকে	-10.331244468688965
▁বেলা	-10.331334114074707
▁গন্ধ	-10.331388473510742
▁বানানো	-10.331501007080078
▁উত্তরাধিকার	-10.33176040649414
▁কবর	-10.331774711608887
▁খনন	-10.331954956054688
গন	-10.331995010375977
▁চিকিৎসক	-10.332313537597656
▁যাত্রী	-10.332413673400879
▁শরীরের	-10.332640647888184
▁আগামী	-10.333189964294434
▁কমান্ডার	-10.333367347717285
▁দিলেন	-10.33382511138916
▁ঘটতে	-10.33383846282959
▁সংজ্ঞা	-10.333879470825195
▁মানের	-10.333941459655762
▁ডিফল্ট	-10.334349632263184
▁বিপ্লবের	-10.334567070007324
৬৮	-10.334632873535156
▁সম্মেলনের	-10.334771156311035
▁দ	-10.3348388671875
▁দো	-10.334917068481445
৫২	-10.33515453338623
▁রাশিয়ান	-10.335225105285645
▁হস্তান্তর	-10.335304260253906
▁রোজ	-10.335566520690918
▁ধারনা	-10.335806846618652
▁ন্যায়বিচার	-10.336551666259766
▁আন্দোলনে	-10.337306022644043
০১	-10.337411880493164
▁এখানেই	-10.337823867797852
মিন	-10.337843894958496
লিয়া	-10.33804702758789
▁ভারী	-10.338430404663086
▁দেবতা	-10.33910846710205
▁জরুরী	-10.339371681213379
জ্ঞান	-10.340462684631348
▁জবাব	-10.341012954711914
▁৫৬	-10.341136932373047
▁মধ্যকার	-10.341317176818848
▁ঘটবে	-10.341876983642578
▁দুর্নীতি	-10.341943740844727
▁ফ্রান্সের	-10.342138290405273
ম্	-10.342225074768066
▁রেখেছিলেন	-10.342227935791016
ঁচ	-10.342731475830078
ভেন	-10.34277629852295
▁বংশের	-10.343520164489746
▁ডিজাইন	-10.343591690063477
নু	-10.34361457824707
▁এতো	-10.343734741210938
▁ভূমিকম্প	-10.343756675720215
▁অন্ধকার	-10.344030380249023
▁উষ্ণ	-10.34409236907959
▁পত্রিকায়	-10.344107627868652
▁সাক্ষীদের	-10.344244956970215
▁মদ	-10.344463348388672
▁আধা	-10.344704627990723
▁উৎপত্তি	-10.344999313354492
ারের	-10.345176696777344
আপনি	-10.345623016357422
▁গুলো	-10.345771789550781
▁পর্য্যন্ত	-10.345935821533203
▁পরিমাপ	-10.346247673034668
▁পশ্চিমা	-10.346253395080566
▁গণিত	-10.346385955810547
▁বিন্যাস	-10.346731185913086
▁প্রদর্শনের	-10.346805572509766
▁বাস্তবায়ন	-10.346992492675781
▁বেলায়	-10.347121238708496
▁পালা	-10.347397804260254
▁ইসলামিক	-10.347784996032715
▁কণ্ঠ	-10.348133087158203
▁যেটার	-10.3483247756958
৫৪	-10.34846305847168
ক্ষণ	-10.348647117614746
▁ভাগ্য	-10.349447250366211
▁করিবার	-10.349740028381348
▁ভ	-10.350343704223633
▁ফাউন্ডেশন	-10.350603103637695
ক্	-10.350833892822266
▁প্রো	-10.351609230041504
রাও	-10.351631164550781
▁গোষ্ঠীর	-10.351638793945312
▁হালকা	-10.351713180541992
▁সংক্ষেপে	-10.3518648147583
০২	-10.352011680603027
▁ক্লিক	-10.352439880371094
▁অদৃশ্য	-10.352739334106445
▁উপরের	-10.352747917175293
৮৫	-10.352879524230957
▁দম্পতি	-10.35290813446045
▁চেয়েছিল	-10.353128433227539
▁শ্রমিকদের	-10.353227615356445
▁নোবেল	-10.35344123840332
▁তারকা	-10.35347843170166
▁আগমন	-10.353628158569336
▁চেহারা	-10.354178428649902
▁অর্ডার	-10.35433578491211
▁উপজেলায়	-10.354887962341309
▁বিচারপতি	-10.355237007141113
▁উদ্যাপন	-10.355313301086426
ওয়ে	-10.355363845825195
▁শাস্ত্রপদ	-10.355627059936523
▁পর্যটন	-10.355935096740723
▁সমষ্টি	-10.356107711791992
▁১৯৭৯	-10.356484413146973
▁প্রবর্তন	-10.356518745422363
▁পাকা	-10.358208656311035
▁জন্মগ্রহণকারী	-10.358723640441895
▁১৯৩০	-10.359140396118164
কর্ম	-10.359885215759277
▁রান্না	-10.359989166259766
▁স্তম্ভ	-10.360355377197266
▁নেয়ার	-10.360413551330566
য়েল	-10.360488891601562
▁জাল	-10.360742568969727
▁রুম	-10.361418724060059
▁সবসময়ই	-10.36173152923584
▁শিখ	-10.361837387084961
▁নামেও	-10.362275123596191
▁লেগে	-10.36230754852295
▁সদস্যের	-10.362356185913086
▁দেখাই	-10.362679481506348
▁আঁকা	-10.363103866577148
েজ	-10.363240242004395
▁সমতল	-10.363439559936523
▁আব	-10.36352252960205
াকার	-10.363689422607422
▁কোর্ট	-10.364045143127441
▁বরাদ্দ	-10.365001678466797
▁আসন্ন	-10.365230560302734
পাল	-10.36640739440918
▁ডাকা	-10.36649227142334
▁নিবন্ধ	-10.366744995117188
▁মশীহ	-10.367570877075195
▁প্রশান্ত	-10.367817878723145
▁নিশ্চয়তা	-10.368721008300781
তায়	-10.368793487548828
▁স্বার্থ	-10.369217872619629
▁১৯১৪	-10.369978904724121
▁টাইপ	-10.370037078857422
▁কর্তব্য	-10.370294570922852
▁যতটা	-10.37145709991455
▁অনুধাবন	-10.371922492980957
▁সাপেক্ষে	-10.372224807739258
▁ক্ষয়	-10.372660636901855
▁পোষণ	-10.373029708862305
▁মতবাদ	-10.373116493225098
▁সোসাইটির	-10.37314510345459
▁উপকরণ	-10.373541831970215
থা	-10.373612403869629
▁আনুমানিক	-10.373753547668457
▁কমিয়ে	-10.374078750610352
▁খেলে	-10.37419319152832
▁হেনরি	-10.37433910369873
▁বিদ্যালয়ে	-10.37475872039795
▁গণতন্ত্র	-10.375299453735352
ডেন	-10.375578880310059
▁রক্ষার	-10.376059532165527
▁পানীয়	-10.37623119354248
▁রাজাবলি	-10.376409530639648
▁প্রাচীর	-10.377202987670898
▁স্	-10.377774238586426
▁বলেছিলাম	-10.378148078918457
▁বিনা	-10.378667831420898
▁শ্রোতাদের	-10.37945556640625
াঙ্গ	-10.379608154296875
▁প্রকৃতির	-10.379671096801758
▁জানতাম	-10.37968921661377
▁দ্বি	-10.37969970703125
▁কিছুর	-10.379959106445312
▁৩০০	-10.380264282226562
▁সিভিল	-10.380592346191406
৬৪	-10.380965232849121
▁৫৭	-10.381166458129883
▁দপ্তর	-10.381227493286133
ধারী	-10.382019996643066
▁মজার	-10.382146835327148
▁প্রাধান্য	-10.382235527038574
▁শ্রেণির	-10.382658958435059
▁প্রয়োজনীয়তা	-10.382722854614258
▁ডাটা	-10.382725715637207
▁গাড়ির	-10.383564949035645
▁প্রফেসর	-10.383883476257324
▁সুপরিচিত	-10.383907318115234
▁মাথার	-10.384170532226562
িতা	-10.384320259094238
▁চলবে	-10.384662628173828
▁মেট্রো	-10.384845733642578
্ত	-10.384943008422852
▁১৯৪৮	-10.385374069213867
▁অবধি	-10.385798454284668
ায়ন	-10.385881423950195
▁হাউস	-10.385939598083496
▁আউট	-10.386290550231934
▁সিরিয়া	-10.386545181274414
নেট	-10.386685371398926
৭৭	-10.386686325073242
▁চিন্তার	-10.386687278747559
ন্ডা	-10.387495040893555
রান	-10.387540817260742
▁ঠাকুর	-10.387547492980957
▁মিষ্টি	-10.3875732421875
▁সংখ্যার	-10.388376235961914
▁পাপের	-10.388639450073242
৯৭	-10.388808250427246
▁আওয়াজ	-10.389581680297852
▁১৯৬৫	-10.389690399169922
▁সিপিআই	-10.390094757080078
দাস	-10.39016056060791
▁যিরমিয়	-10.390792846679688
▁ক্যালেন্ডার	-10.391069412231445
৬৭	-10.391240119934082
▁ডিরেক্টরি	-10.391535758972168
▁খুলনা	-10.391855239868164
▁দেখাশোনা	-10.392122268676758
▁ইতিমধ্যে	-10.392230033874512
▁খাল	-10.392267227172852
▁১৯৭৬	-10.392298698425293
কিছু	-10.392629623413086
▁লড়াইয়ে	-10.392682075500488
▁লিখুন	-10.393407821655273
বাই	-10.39438533782959
▁নিরাপত্তার	-10.3946533203125
সং	-10.394696235656738
▁ডিস্ক	-10.395008087158203
▁লিপি	-10.395010948181152
▁অনূর্ধ্ব	-10.395119667053223
▁ব্যক্ত	-10.395230293273926
▁অবস্থানে	-10.395370483398438
▁সমীক্ষা	-10.39590072631836
▁হইল	-10.395936965942383
▁যাচ্ছেন	-10.396258354187012
▁ছায়া	-10.396334648132324
▁পর্যালোচনা	-10.396859169006348
▁ভারসাম্য	-10.397294998168945
▁ভে	-10.397321701049805
৭৪	-10.397496223449707
▁সামুদ্রিক	-10.397810935974121
▁সকলকে	-10.397900581359863
ম্ব	-10.398452758789062
গড়	-10.399358749389648
▁নিক্ষেপ	-10.399535179138184
▁ম্যানেজার	-10.399585723876953
িজ	-10.400565147399902
▁শলোমন	-10.4005708694458
▁বেতার	-10.400691986083984
▁সেবার	-10.401012420654297
▁ত্রি	-10.401065826416016
▁অর্জনের	-10.401321411132812
▁লোকেদেরকে	-10.401419639587402
৫১	-10.401660919189453
▁বিবেক	-10.401971817016602
▁গেলো	-10.402020454406738
▁পাঠক	-10.403303146362305
▁পরমদেশ	-10.403528213500977
▁চারপাশে	-10.40362548828125
▁পুনঃ	-10.403688430786133
▁গোয়েন্দা	-10.403836250305176
▁ক্লান্ত	-10.404114723205566
▁ভক্তি	-10.404805183410645
৯৯	-10.4049072265625
▁গ্রহণযোগ্য	-10.405317306518555
▁পুনরুত্থিত	-10.405604362487793
উদ্দিন	-10.406293869018555
▁ব্যবসায়	-10.406678199768066
▁হাজির	-10.406765937805176
ষ্ঠ	-10.407160758972168
▁আচরণের	-10.407176971435547
▁এইরূপ	-10.407201766967773
কায়	-10.407317161560059
জী	-10.40753173828125
▁ওয়াল	-10.40758991241455
▁বিস্ময়কর	-10.408333778381348
▁আহ	-10.408451080322266
▁হ্যারি	-10.408764839172363
সান	-10.40927791595459
▁আস্তে	-10.409635543823242
▁যন্ত্রপাতি	-10.40975284576416
▁দেখছি	-10.409956932067871
▁দাগ	-10.410304069519043
▁জাতিসংঘ	-10.41032886505127
▁বিশ্বাসী	-10.410463333129883
উত্তর	-10.410578727722168
▁নাগরিকরা	-10.410772323608398
▁সৌন্দর্য	-10.410839080810547
কিউ	-10.410901069641113
▁নিষ্ক্রিয়	-10.410901069641113
▁বলব	-10.41139030456543
▁১৯৭৮	-10.411494255065918
▁মারিয়া	-10.412254333496094
বর	-10.41275405883789
▁কমিউনিটি	-10.412786483764648
▁সভাগুলোতে	-10.412812232971191
▁অপশন	-10.413045883178711
▁গান্ধী	-10.413540840148926
▁পর্যায়	-10.413573265075684
▁দূত	-10.41405963897705
শু	-10.414122581481934
▁করিবেন	-10.414170265197754
▁গম্বুজ	-10.414618492126465
▁বরফ	-10.414999008178711
▁খ্রিস্টাব্দের	-10.415070533752441
▁চালায়	-10.415276527404785
▁কূটনৈতিক	-10.415314674377441
▁গায়ে	-10.415435791015625
দেরকে	-10.415762901306152
▁ছুটি	-10.41620922088623
▁মেশিন	-10.4164400100708
▁অতীত	-10.416460037231445
▁গোল্ডেন	-10.416831970214844
▁বাসায়	-10.416953086853027
▁চক্র	-10.416966438293457
▁ভাইবোনদের	-10.417027473449707
তেও	-10.417041778564453
ীকরণ	-10.417096138000488
▁কিনে	-10.4171142578125
▁আকৃষ্ট	-10.417130470275879
▁পুনরালোচনা	-10.417977333068848
▁চাঁদ	-10.418354988098145
▁মস্তক	-10.418445587158203
▁তথা	-10.418570518493652
▁তরল	-10.418766021728516
▁কাজী	-10.418825149536133
▁আলম	-10.419008255004883
▁জেল	-10.419219017028809
▁আলু	-10.41932201385498
▁ভিডিওটি	-10.419330596923828
▁গুগল	-10.419349670410156
▁ভয়ে	-10.419780731201172
▁কোরিয়ার	-10.41991901397705
দ্বিতীয়	-10.420015335083008
▁খাতে	-10.420537948608398
▁(@	-10.421005249023438
▁ম্যা	-10.421059608459473
্ন	-10.422614097595215
▁ইসলামের	-10.424261093139648
ক্রমে	-10.424591064453125
▁জানাচ্ছে	-10.425755500793457
▁পূর্বের	-10.425830841064453
▁সংযোজন	-10.42602252960205
৯৮	-10.42634105682373
▁বোঝাতে	-10.426349639892578
ধরনের	-10.426595687866211
▁১৯৫২	-10.426631927490234
▁স্থগিত	-10.426904678344727
▁চলমান	-10.427102088928223
▁জ্ঞানের	-10.42712116241455
▁স্বর্গ	-10.42712688446045
▁প্রায়শই	-10.427290916442871
▁ইস্রায়েলীয়রা	-10.427620887756348
▁সোফি	-10.427786827087402
▁নারীরা	-10.428140640258789
▁ফেলবে	-10.428348541259766
▁নির্ণয়	-10.42837905883789
▁দারুণ	-10.428844451904297
▁কুল	-10.429139137268066
▁চলাচল	-10.429197311401367
▁শান্তিপূর্ণ	-10.429425239562988
▁নিচু	-10.43055534362793
▁১৯৫১	-10.431024551391602
▁উৎপাদনের	-10.431175231933594
▁মাটিতে	-10.431469917297363
▁কোরিয়া	-10.43154525756836
প্রতিদ্বন্দ্বিতা	-10.432469367980957
▁ভাস্কর্য	-10.432913780212402
▁করিনি	-10.432984352111816
৯৫	-10.4331636428833
▁সেট	-10.433442115783691
▁পদত্যাগ	-10.433797836303711
▁যাত্তয়া	-10.434082984924316
▁চ্যাম্পিয়নশিপ	-10.434353828430176
▁গঙ্গা	-10.434415817260742
▁আনুষ্ঠানিকভাবে	-10.434782981872559
▁মঞ্চ	-10.435086250305176
▁গম	-10.435342788696289
▁বন্ধন	-10.435423851013184
▁সমর্থিত	-10.435653686523438
▁লগ	-10.435759544372559
গ্রস্ত	-10.436102867126465
▁জাদুঘর	-10.43623161315918
করণের	-10.436275482177734
▁মাস্টার	-10.436901092529297
▁যাবো	-10.437560081481934
▁নীচের	-10.43761157989502
▁ফেসবুকে	-10.437992095947266
▁হেঁটে	-10.438079833984375
▁সম্পদের	-10.438294410705566
▁বাগ	-10.438313484191895
▁সমর্থক	-10.43850326538086
▁টার্মিনাল	-10.438643455505371
দিকে	-10.439253807067871
▁তিনটে	-10.439423561096191
▁দার্শনিক	-10.43955135345459
দিক	-10.439801216125488
▁উদার	-10.439814567565918
▁টে	-10.439923286437988
৮৬	-10.440276145935059
▁চিন্তিত	-10.440499305725098
▁কখনই	-10.44055461883545
▁কাউন্সিলের	-10.440616607666016
▁যুব	-10.440765380859375
▁১৯৫৭	-10.44102954864502
▁অর্থনীতির	-10.441238403320312
▁টুকরো	-10.441426277160645
▁ধার	-10.441682815551758
▁অভিযোগে	-10.441934585571289
▁সমাপ্ত	-10.442286491394043
▁অধিকন্তু	-10.44230842590332
▁নেতারা	-10.442532539367676
▁যাচাই	-10.442676544189453
▁সৃষ্টিকর্তা	-10.44281005859375
▁দায়িত্বে	-10.44283390045166
৬৯	-10.444207191467285
▁তারাও	-10.445565223693848
▁৬৬	-10.445591926574707
পথ	-10.445714950561523
▁নিশ্চিতভাবেই	-10.446131706237793
টের	-10.446311950683594
লান	-10.447122573852539
▁শিব	-10.447833061218262
▁রেখেছিল	-10.448284149169922
৫০০	-10.44833755493164
ন্ডার	-10.448623657226562
▁ঝড়	-10.448798179626465
িও	-10.449889183044434
▁প্রাথমিকভাবে	-10.449995994567871
▁ফেডারেশন	-10.450246810913086
▁রক্তের	-10.450757026672363
▁অবরোধ	-10.450848579406738
▁মর	-10.45130443572998
▁অন্বেষণ	-10.451456069946289
▁ক্যালিফোর্নিয়া	-10.451464653015137
▁বিনামূল্যে	-10.451483726501465
▁কমপক্ষে	-10.451512336730957
▁মহৎ	-10.451632499694824
৭৯	-10.451950073242188
▁গ্রেট	-10.452032089233398
▁জাতিগত	-10.452338218688965
ধর্ম	-10.452783584594727
▁সংবিধানের	-10.453642845153809
▁বাবামা	-10.453660011291504
▁স্তরের	-10.453690528869629
োস	-10.453710556030273
▁জীবন্ত	-10.454014778137207
▁নাচ	-10.454071044921875
▁লোকটা	-10.45416259765625
▁মেষ	-10.454225540161133
▁প্রভুর	-10.454548835754395
▁সফলভাবে	-10.454706192016602
▁মিউজিক	-10.45512866973877
▁একত্র	-10.456110000610352
▁কাজকে	-10.456183433532715
▁করেছ	-10.456663131713867
৬৫	-10.457446098327637
▁জোট	-10.457549095153809
▁চলুন	-10.457967758178711
▁ব্যবহারকারীর	-10.458364486694336
▁হত্যার	-10.458929061889648
▁দুঃখজনক	-10.458931922912598
▁৬৩	-10.459524154663086
▁কার্যালয়	-10.459614753723145
▁১৯৪০	-10.459787368774414
▁ছেলের	-10.459814071655273
▁নাট্য	-10.460383415222168
৬২	-10.460841178894043
পতি	-10.46088695526123
্ব	-10.460967063903809
▁সংসদে	-10.461061477661133
▁১৯৮১	-10.461307525634766
▁শেখার	-10.461382865905762
২০১১	-10.461524963378906
▁পঞ্চায়েত	-10.461602210998535
▁উর্দু	-10.461784362792969
ওয়ালা	-10.46192741394043
▁ব্যবহারিক	-10.462004661560059
▁খায়	-10.462357521057129
▁পরস্পর	-10.46241283416748
▁১৯২০	-10.46336841583252
▁তারপরও	-10.463605880737305
▁তুর্কি	-10.464041709899902
▁উইল	-10.464234352111816
▁ক্ষমতায়	-10.464245796203613
▁ব্ল্যাক	-10.464300155639648
▁ভাইরাস	-10.464498519897461
▁হারে	-10.465413093566895
▁অসিদ্ধ	-10.46552562713623
▁সংখ্যায়	-10.466179847717285
▁ভিতর	-10.46630573272705
▁বালিকা	-10.466418266296387
▁রাষ্ট্রপতির	-10.466763496398926
▁রেখা	-10.467147827148438
▁তাল	-10.4674072265625
▁বিষ	-10.467694282531738
▁ইউটিউব	-10.468027114868164
▁কোচ	-10.46837329864502
▁বাতাস	-10.468513488769531
▁পাঞ্জাব	-10.468841552734375
▁পারমাণবিক	-10.469108581542969
▁ঘোষিত	-10.469381332397461
▁অপরিহার্য	-10.469996452331543
▁অস্বাভাবিক	-10.470096588134766
মাস	-10.47048568725586
▁প্রেরণা	-10.470494270324707
৮৮	-10.470701217651367
জেন	-10.471227645874023
শিক্ষা	-10.47136116027832
▁হোমস	-10.471372604370117
▁জন্যও	-10.471710205078125
▁ডাল	-10.472023010253906
▁তর্ক	-10.472121238708496
▁স্বেচ্ছায়	-10.472147941589355
পাত	-10.472661972045898
▁শুষ্ক	-10.472831726074219
▁জাহাজের	-10.473124504089355
▁উদ্বেগ	-10.473669052124023
▁কেন্দ্রটি	-10.474042892456055
▁নেবে	-10.474339485168457
▁মার্টিন	-10.475011825561523
▁ভাইয়েরা	-10.475117683410645
▁ইঞ্জিনিয়ারিং	-10.475497245788574
দল	-10.475637435913086
▁তি	-10.475679397583008
▁চাপের	-10.475687026977539
▁ট	-10.475887298583984
▁এভাবেই	-10.476362228393555
৮৯	-10.476469039916992
▁প্রতিদ্বন্দ্বী	-10.476644515991211
▁ব্যবহারকারীদের	-10.476716995239258
▁পৌঁছানোর	-10.476723670959473
▁চালানোর	-10.476840019226074
মুখ	-10.476893424987793
৯৬	-10.476921081542969
সময়	-10.477448463439941
▁দিচ্ছেন	-10.477604866027832
▁শিক্ষার্থী	-10.477999687194824
৫৭	-10.478048324584961
▁আবুল	-10.478181838989258
▁বন্দুক	-10.478485107421875
▁সোজা	-10.47884750366211
খানা	-10.479156494140625
);	-10.47921085357666
যদি	-10.479337692260742
▁ক্লাবের	-10.47953987121582
▁বঙ্গ	-10.480194091796875
▁লাগিয়ে	-10.48021125793457
▁বিনোদন	-10.480337142944336
▁সিনিয়র	-10.480359077453613
▁হউক	-10.480378150939941
▁কাদের	-10.480703353881836
▁দুইজন	-10.48077392578125
▁চর্চা	-10.480910301208496
▁সাউথ	-10.48137378692627
▁ভিডিওতে	-10.481474876403809
▁মাঠে	-10.48161792755127
▁পড়বে	-10.481741905212402
▁রত্ন	-10.482383728027344
▁প্রভাবশালী	-10.483288764953613
▁টাইমস	-10.483359336853027
▁গবেষক	-10.483434677124023
সব	-10.483454704284668
▁মিঃ	-10.483512878417969
▁পাঠান	-10.48363971710205
সপ্তাহ	-10.483842849731445
স্কি	-10.484026908874512
▁যিহূদী	-10.484251022338867
▁সম্প্রসারণ	-10.485174179077148
▁৬৪	-10.48530101776123
▁রেখেছেন	-10.485881805419922
▁উচ্চারণ	-10.486051559448242
▁যেগুলোর	-10.486202239990234
▁কাঁচা	-10.486424446105957
ান্ত	-10.486709594726562
স্থান	-10.48690414428711
▁ফেব্রুয়ারী	-10.487043380737305
▁সর্বপ্রথম	-10.487105369567871
▁দুর্ঘটনা	-10.48720645904541
▁হাতিয়ার	-10.487723350524902
▁৭২	-10.48775863647461
▁তুলেছেন	-10.487974166870117
▁আগত	-10.488370895385742
▁১৯৫৬	-10.488608360290527
▁সৈনিক	-10.488725662231445
▁তালিকাভুক্ত	-10.489511489868164
▁হাড়	-10.48977279663086
▁দেয়াল	-10.48997688293457
▁অধিকাংশই	-10.490184783935547
▁টিম	-10.490336418151855
৮৪	-10.490443229675293
▁ভাইস	-10.490524291992188
▁বললো	-10.490592956542969
৭৬	-10.490668296813965
▁প্রচারের	-10.491195678710938
▁বিজ্ঞানী	-10.49184799194336
▁বলবেন	-10.491965293884277
▁নেপাল	-10.49217700958252
▁স্টেডিয়াম	-10.49242877960205
▁নিখুঁত	-10.492862701416016
▁নির্ভরযোগ্য	-10.493036270141602
▁অতীতে	-10.493439674377441
্ড	-10.493465423583984
▁সংরক্ষণের	-10.493488311767578
▁দেহের	-10.493764877319336
▁জার্মানির	-10.494155883789062
▁বলেই	-10.49436092376709
▁দুঃখের	-10.494409561157227
ঝ	-10.494538307189941
টিক	-10.494540214538574
কন	-10.494731903076172
▁বিদ্যা	-10.496293067932129
▁ব্যাগ	-10.49659252166748
▁ঘটনাগুলো	-10.497296333312988
▁খণ্ড	-10.497382164001465
▁ক্লাস	-10.49764633178711
▁বসু	-10.498472213745117
▁দূরবর্তী	-10.498581886291504
▁জনাব	-10.498671531677246
ফল	-10.499217987060547
ডু	-10.499345779418945
সদাপ্রভু	-10.499593734741211
রণ	-10.499999046325684
▁সেল	-10.500167846679688
▁বৈ	-10.500382423400879
▁উদ্ভব	-10.500441551208496
▁তাহাদিগকে	-10.50062370300293
কেন্দ্র	-10.50090217590332
▁সেদিন	-10.500940322875977
টায়	-10.501082420349121
▁পরও	-10.501395225524902
▁ক্ষতিপূরণ	-10.501419067382812
▁কপিরাইট	-10.501458168029785
▁শুল্ক	-10.501537322998047
▁জনতার	-10.501997947692871
|	-10.502074241638184
▁সন্ত্রাসী	-10.502169609069824
▁ছয়টি	-10.50217056274414
▁ঘ	-10.50234317779541
৭২	-10.502985000610352
▁নকল	-10.50299072265625
▁জিও	-10.503071784973145
বর্ণ	-10.50324821472168
াবাদ	-10.503687858581543
সূচক	-10.503752708435059
▁ট্র্যাক্ট	-10.504146575927734
▁হয়েছিলো	-10.504256248474121
▁অনেকের	-10.50426197052002
▁দ্বীপে	-10.504265785217285
▁ব্যাক	-10.504402160644531
ঘাট	-10.504714012145996
▁তুলেছে	-10.504977226257324
▁সমিতির	-10.505097389221191
▁পরিত্রাণ	-10.50568962097168
▁করুণা	-10.506182670593262
▁পানিতে	-10.506186485290527
▁সম্পাদিত	-10.506280899047852
▁হলুদ	-10.506808280944824
▁১৯৪৬	-10.506975173950195
▁বাগান	-10.507245063781738
তলা	-10.507246017456055
বিষয়ক	-10.508025169372559
▁চালান	-10.508058547973633
▁ইট	-10.508129119873047
৮৩	-10.508179664611816
▁মাদক	-10.508398056030273
▁বললাম	-10.508609771728516
▁থেকেও	-10.508806228637695
্যাল	-10.508942604064941
▁কুমিল্লা	-10.509101867675781
▁অনুদান	-10.50916862487793
▁লক্ষণ	-10.509193420410156
▁''	-10.509495735168457
▁সেসব	-10.509865760803223
▁গ্রহ	-10.509879112243652
▁পরিশেষে	-10.510150909423828
▁অসুস্থতা	-10.510233879089355
▁ওভার	-10.510688781738281
▁ইহুদি	-10.510812759399414
▁পাব	-10.510862350463867
▁জার্মানি	-10.511748313903809
▁বস্তুতপক্ষে	-10.512090682983398
▁স্বয়ং	-10.512099266052246
হান	-10.51227855682373
্যা	-10.512306213378906
▁পাহাড়ের	-10.512343406677246
▁শিক্ষার্থীদের	-10.512662887573242
▁প্রাচীনরা	-10.512883186340332
▁টো	-10.513381958007812
▁ভরা	-10.513459205627441
▁আস	-10.513900756835938
▁গবাদিপশু	-10.514045715332031
▁পারতাম	-10.514325141906738
▁ভেসে	-10.514507293701172
▁গলা	-10.515066146850586
মুখী	-10.515092849731445
▁স্তরে	-10.515318870544434
▁চালিত	-10.515398979187012
▁গুণাবলি	-10.515581130981445
গ্রহণ	-10.51618480682373
▁ক্রমশ	-10.516318321228027
▁পাইলট	-10.51639175415039
▁নজরুল	-10.516493797302246
▁বিশ্বাসকে	-10.51687240600586
▁অভ্যন্তরে	-10.516961097717285
▁প্রজাতন্ত্র	-10.51740837097168
▁শেখা	-10.517513275146484
▁ফে	-10.517586708068848
▁আত্মীয়	-10.517599105834961
৯২	-10.517681121826172
▁ক্ষেত্রেই	-10.518031120300293
৯৪	-10.518197059631348
▁প্রতিশোধ	-10.518258094787598
▁খাজা	-10.518696784973145
৬৩	-10.518783569335938
বাজার	-10.518855094909668
৭৮	-10.518954277038574
▁প্রচেষ্টার	-10.519371032714844
▁জুনিয়র	-10.519974708557129
সম	-10.520223617553711
▁প্রজা	-10.520939826965332
▁প্রযোজক	-10.520995140075684
▁অন্তর	-10.521483421325684
▁অ্যাপ্লিকেশন	-10.521530151367188
▁স্থাপনের	-10.521533012390137
▁ধাপ	-10.521563529968262
▁গতকাল	-10.521711349487305
▁উয়েফা	-10.521906852722168
▁পরা	-10.522500991821289
▁১লা	-10.522780418395996
▁প্রথমত	-10.523025512695312
▁গ্রুপের	-10.523272514343262
▁নির্মাতা	-10.52377986907959
স্ব	-10.524173736572266
▁জাগিয়ে	-10.524348258972168
শেষ	-10.524699211120605
▁মানবিক	-10.525056838989258
একটি	-10.525381088256836
▁ভঙ্গ	-10.525457382202148
▁অনুসারীদের	-10.525554656982422
▁১৯৫৮	-10.525578498840332
▁বিজ্ঞানের	-10.525619506835938
▁উদ্বোধন	-10.52574634552002
▁রোধ	-10.52583122253418
▁জন্মের	-10.526192665100098
▁ছ	-10.52641487121582
লেট	-10.526779174804688
▁ওঠেন	-10.527040481567383
▁ম্যাচে	-10.527131080627441
▁১৫০	-10.527156829833984
িশ	-10.527812004089355
▁টাইম	-10.528094291687012
ভাই	-10.528096199035645
▁বিংশ	-10.528162956237793
▁বয়সের	-10.528285026550293
▁ইঞ্জিন	-10.528319358825684
▁৫৮	-10.528451919555664
▁সাহসের	-10.528493881225586
▁যাদেরকে	-10.528512954711914
▁কিং	-10.528650283813477
▁মূল্যের	-10.528797149658203
▁মুহম্মদ	-10.528952598571777
▁বিপর্যয়	-10.529380798339844
জীবন	-10.529537200927734
▁স্যাটেলাইট	-10.529830932617188
▁বরিশাল	-10.529891967773438
▁নামটি	-10.53019905090332
▁মিশ্র	-10.530499458312988
▁ভরে	-10.530552864074707
▁ল্যাটিন	-10.53095817565918
▁প্রত্যেকটা	-10.531373023986816
▁বলিয়া	-10.531645774841309
জের	-10.532272338867188
▁১৯৪৫	-10.532791137695312
▁ক্রমবর্ধমান	-10.532820701599121
▁অধি	-10.533303260803223
জল	-10.533385276794434
▁প্রচলন	-10.533817291259766
▁বক্স	-10.53425121307373
৯৩	-10.534404754638672
▁পেন	-10.534613609313965
▁কার্য্য	-10.534745216369629
বাড়ি	-10.534910202026367
''	-10.535221099853516
▁তেমনই	-10.535362243652344
▁প্রদেশে	-10.535977363586426
▁সিরিজের	-10.536293029785156
গুণ	-10.536425590515137
▁সচেতনতা	-10.537092208862305
যাকোব	-10.53741455078125
▁;	-10.537633895874023
▁ভু	-10.537720680236816
▁পরম	-10.538130760192871
দিগকে	-10.538463592529297
ব্রা	-10.538661003112793
▁তাপ	-10.538773536682129
▁১ম	-10.538934707641602
▁রকমের	-10.539042472839355
▁গমন	-10.53922176361084
▁প্রযুক্তির	-10.539381980895996
▁দ্বন্দ্ব	-10.539607048034668
ঞ্চ	-10.539737701416016
▁একইরকম	-10.540189743041992
▁ব্যবসায়িক	-10.540346145629883
▁খন্ড	-10.54056167602539
▁বাসস্থান	-10.540635108947754
▁দিতেন	-10.540881156921387
▁সপ্তম	-10.540994644165039
▁পেয়েছিলাম	-10.541245460510254
▁অধিকতর	-10.541996955871582
▁হৃদয়কে	-10.542094230651855
▁তাপমাত্রা	-10.542452812194824
▁ফ্লিকার	-10.54290771484375
▁ক্ষেত্রেও	-10.543306350708008
সী	-10.543389320373535
সাম	-10.54370403289795
পরি	-10.544151306152344
▁মোটা	-10.544840812683105
বিল	-10.544848442077637
▁ফেলেছিল	-10.545419692993164
▁আ্য	-10.545622825622559
▁কানাডা	-10.545646667480469
▁কৃত্রিম	-10.54587173461914
েন্ট	-10.546382904052734
ঠ	-10.546560287475586
▁নোংরা	-10.546882629394531
▁উদ্ভূত	-10.546892166137695
▁অপমান	-10.546930313110352
▁যিহূদা	-10.546930313110352
▁পারা	-10.547118186950684
▁ঘোষ	-10.547590255737305
▁এও	-10.547699928283691
৭১	-10.548105239868164
▁পুন	-10.548128128051758
▁পটভূমি	-10.548264503479004
▁দাঁত	-10.548918724060059
▁আফগানিস্তান	-10.549007415771484
▁টেবিল	-10.549159049987793
▁সাক্ষীরা	-10.549403190612793
▁রাখ	-10.549473762512207
বদ্ধ	-10.549741744995117
▁বিলুপ্তপ্রায়	-10.549978256225586
▁যিরূশালেমে	-10.550049781799316
▁সংঘর্ষ	-10.55024528503418
▁মিস্টার	-10.550337791442871
▁আখ	-10.550432205200195
▁সনাক্ত	-10.55117130279541
▁থিষলনীকীয়	-10.551222801208496
▁যোগাযোগের	-10.55128288269043
▁প্রশ্নগুলো	-10.551397323608398
▁জিনিসপত্র	-10.552268981933594
▁প্রাক	-10.552570343017578
▁ঘন্টার	-10.552695274353027
▁পারিনি	-10.552790641784668
▁প্রদর্শনী	-10.553500175476074
▁রংপুর	-10.553794860839844
ভূমি	-10.553840637207031
▁যথার্থ	-10.553895950317383
▁সূক্ষ্ম	-10.5540771484375
▁মাসিক	-10.554285049438477
▁আইনগত	-10.554967880249023
▁তাড়না	-10.555194854736328
▁চালাতে	-10.555310249328613
▁প্রয়োজনে	-10.555383682250977
▁হয়েছিলাম	-10.556051254272461
▁আয়োজিত	-10.557050704956055
▁ভেবেছিলাম	-10.557191848754883
কথা	-10.557377815246582
▁পারেননি	-10.557443618774414
ওয়ান	-10.55766487121582
▁কথাটা	-10.557818412780762
▁তুরস্ক	-10.558083534240723
▁পরিপ্রেক্ষিতে	-10.558172225952148
▁পরই	-10.558329582214355
▁ধীর	-10.558453559875488
▁১৯৬১	-10.55872631072998
ভো	-10.55893325805664
ছা	-10.559845924377441
▁বিরোধ	-10.559935569763184
▁বুদ্ধিমান	-10.560050964355469
▁ন্যায্য	-10.56020450592041
▁প্রতিষ্ঠানে	-10.560282707214355
▁রাখবে	-10.560420989990234
▁পরিবেশের	-10.561153411865234
▁&	-10.56118106842041
▁বিপদজনক	-10.56124496459961
▁জৈব	-10.561809539794922
▁পর্বে	-10.561955451965332
▁দ্বীপের	-10.561989784240723
▁সম্মানিত	-10.562079429626465
ীন	-10.562612533569336
▁প্রসার	-10.562766075134277
▁ঢুকে	-10.563207626342773
▁গ্রীষ্মকালীন	-10.56322956085205
▁আবদুল্লাহ	-10.563249588012695
▁ইমাম	-10.563352584838867
ন্দা	-10.56347942352295
▁দণ্ড	-10.56411361694336
▁অকার্যকর	-10.564229965209961
▁ঘটছে	-10.564295768737793
▁১৯৫৪	-10.564884185791016
▁ক্রিয়া	-10.564982414245605
৮৭	-10.565168380737305
▁২য়	-10.56556224822998
▁লন্ডনে	-10.566052436828613
▁মনো	-10.566060066223145
▁কার্যকারী	-10.566073417663574
▁বাসা	-10.566237449645996
ইট	-10.566437721252441
▁উদ্ভাবন	-10.566767692565918
▁ছুটির	-10.567815780639648
▁দাখিল	-10.568368911743164
▁প্রশস্ত	-10.568906784057617
▁সাহিত্যের	-10.569218635559082
▁ডাউনলোড	-10.569392204284668
পূর্বক	-10.569741249084473
লাভ	-10.569986343383789
▁টানা	-10.570003509521484
▁পেরেছি	-10.570186614990234
▁ওপেন	-10.570247650146484
▁ত্রাণ	-10.57043170928955
▁দারিদ্র্য	-10.570638656616211
▁লোকসভা	-10.570666313171387
▁সুসমাচারের	-10.570898056030273
▁রিচার্ড	-10.571263313293457
▁বারো	-10.571447372436523
▁জাপানি	-10.571731567382812
▁কারিগরি	-10.5719633102417
▁ব্লগাররা	-10.572176933288574
▁বঙ্গবন্ধু	-10.572513580322266
হিতো	-10.572623252868652
▁উন্নয়নে	-10.572694778442383
▁ঘা	-10.572742462158203
▁বিবিসি	-10.573116302490234
▁পূজা	-10.573437690734863
▁সেকেন্ড	-10.573598861694336
▁পণ্যের	-10.5737943649292
▁পপ	-10.57409381866455
▁হৃদয়ের	-10.574207305908203
ল্ট	-10.574421882629395
নোর	-10.574706077575684
▁ঘোষণাবলি	-10.574811935424805
▁একদিনের	-10.574926376342773
েশ্বর	-10.57504940032959
▁মেক্সিকো	-10.5753173828125
▁রয়ে	-10.575674057006836
দাতা	-10.57568645477295
▁সময়ই	-10.576315879821777
▁উত্তরাধিকারী	-10.576624870300293
▁ইউনাইটেড	-10.576729774475098
▁আমায়	-10.576894760131836
▁গেছি	-10.57716178894043
প্রায়	-10.577239036560059
ইফিষীয়	-10.577486991882324
▁নিরপেক্ষ	-10.577587127685547
▁পল্লী	-10.577923774719238
▁বেড়া	-10.578025817871094
▁বিদ্রোহী	-10.57809066772461
▁নিবন্ধিত	-10.578125953674316
▁রানী	-10.57824420928955
আদি	-10.578263282775879
▁শান্তির	-10.578408241271973
▁টান	-10.578696250915527
▁সনাতন	-10.578961372375488
▁বিন্দু	-10.579448699951172
▁রাজনীতিতে	-10.579585075378418
▁সমসাময়িক	-10.57979679107666
▁৬২	-10.579937934875488
▁অপেক্ষাকৃত	-10.580805778503418
▁সুপ্রিম	-10.580836296081543
▁আসছি	-10.5808744430542
▁ফিলিপীয়	-10.581254959106445
▁কামনা	-10.58150577545166
▁৬১	-10.58197021484375
ইল	-10.582252502441406
▁পরিবেশে	-10.58324909210205
▁সুনির্দিষ্ট	-10.583332061767578
▁খ্রি	-10.583372116088867
▁অন্যদেরকে	-10.5835542678833
▁বাণী	-10.58370304107666
▁প্রজাতন্ত্রের	-10.583846092224121
▁চিত্রগুলো	-10.58397388458252
▁তত	-10.584283828735352
▁প্রদানকারী	-10.584284782409668
▁কফি	-10.584620475769043
▁মৃত্যুদণ্ড	-10.5851469039917
▁শাস্ত্রের	-10.585654258728027
▁বালক	-10.586002349853516
মাল	-10.586494445800781
▁অপব্যবহার	-10.58658504486084
▁পতিত	-10.586685180664062
▁১৯৬৪	-10.58690357208252
াতে	-10.587388038635254
োন	-10.587418556213379
▁টেস্টে	-10.587516784667969
▁অভিব্যক্তি	-10.587665557861328
▁নির্ভরশীল	-10.587764739990234
ক্ষেত্রে	-10.587871551513672
▁ফিলিপ	-10.588858604431152
ঘর	-10.589131355285645
▁ভবনের	-10.589564323425293
▁ওয়ার	-10.5902099609375
▁তিনিই	-10.590235710144043
▁নিষ্পত্তি	-10.59030532836914
▁বঙ্গীয়	-10.5906400680542
▁দেই	-10.590755462646484
▁ক্রম	-10.591182708740234
▁ঘটায়	-10.591266632080078
▁অঙ্গীকার	-10.591339111328125
▁হিউম্যান	-10.591469764709473
▁কাট	-10.591500282287598
▁কার্	-10.59188461303711
▁পোস্টে	-10.592045783996582
▁অবলম্বন	-10.592138290405273
▁আপত্তি	-10.592381477355957
▁উত্থাপন	-10.592415809631348
ক্কা	-10.59247875213623
▁মতই	-10.592550277709961
▁ইন্দোনেশিয়া	-10.592893600463867
▁দৃঢ়ভাবে	-10.592907905578613
▁১৯৬৮	-10.593231201171875
▁অতিবাহিত	-10.593506813049316
▁অ্যাসোসিয়েশন	-10.59355640411377
আপনার	-10.593568801879883
▁বৃক্ষ	-10.593957901000977
▁ব্লগারদের	-10.594169616699219
▁সমবেদনা	-10.594547271728516
▁ক্যাথরিন	-10.594626426696777
▁সর্বত্র	-10.594635009765625
▁থাকাকালীন	-10.595277786254883
▁হাইকোর্ট	-10.596131324768066
সিয়া	-10.596173286437988
▁যীশুকে	-10.596385955810547
▁ইরানী	-10.596491813659668
▁মালদ্বীপ	-10.596683502197266
▁ডিভাইস	-10.596728324890137
▁সন্ধ্যা	-10.597265243530273
▁জাপানে	-10.59728717803955
▁রসায়ন	-10.597328186035156
▁জলাশয়	-10.597752571105957
▁এশীয়	-10.597833633422852
সদাপ্রভুর	-10.598133087158203
▁রূপক	-10.598226547241211
▁ফাইলের	-10.598605155944824
াই	-10.598800659179688
▁রক	-10.598944664001465
▁ল্যা	-10.599327087402344
নীতি	-10.599881172180176
▁এজন্য	-10.599943161010742
▁বাপ্তাইজিত	-10.600103378295898
▁স্ত্রীকে	-10.600201606750488
▁বিশ্বকাপের	-10.600296020507812
▁মহিলার	-10.60031795501709
▁সেচ	-10.601022720336914
▁জনকে	-10.601024627685547
▁প্রশ্নগুলোর	-10.601338386535645
▁সার্ভারের	-10.601739883422852
িনা	-10.602048873901367
▁বাস্তবতা	-10.602179527282715
▁বন্ধুরা	-10.602334022521973
▁বিকৃত	-10.602357864379883
▁দেখেছেন	-10.60277271270752
ন্না	-10.60325813293457
▁অবসান	-10.603436470031738
▁প্রান্তে	-10.603787422180176
▁ক্যারিয়ার	-10.604351997375488
▁যিরূশালেম	-10.604391098022461
▁উদ্যোগের	-10.60446834564209
উড	-10.604729652404785
সিন	-10.604986190795898
▁কাব্য	-10.60507583618164
▁কাউন্টি	-10.60560131072998
▁শ্বাস	-10.6058931350708
▁ঠাণ্ডা	-10.606277465820312
▁ধাক্কা	-10.606293678283691
▁কারাদণ্ড	-10.606400489807129
সেল	-10.606430053710938
সকল	-10.606965065002441
▁বাল	-10.60706901550293
▁সর্বদা	-10.607410430908203
▁মুখের	-10.607501983642578
▁যিহোশূয়	-10.607553482055664
▁পুরানো	-10.607561111450195
▁বসবাসকারী	-10.607629776000977
▁সরঞ্জাম	-10.608248710632324
▁প্রজনন	-10.608518600463867
▁কৃত	-10.608821868896484
▁সম্পৃক্ত	-10.608885765075684
ভাষী	-10.609400749206543
▁হইয়াছে	-10.609410285949707
▁আবাসিক	-10.60961627960205
▁আন্তঃ	-10.609691619873047
৮২	-10.609932899475098
▁সম্মুখে	-10.610092163085938
▁নিয়ন্ত্রণে	-10.610390663146973
▁ভিয়েতনাম	-10.610583305358887
▁স্নাতকোত্তর	-10.610607147216797
প্রধান	-10.611028671264648
▁সাময়িকী	-10.611557960510254
হিত	-10.611815452575684
▁গৃহে	-10.611885070800781
▁রাখো	-10.61230182647705
▁মুর	-10.612335205078125
▁জীবনী	-10.612427711486816
▁ইন্দোনেশিয়ার	-10.612649917602539
▁খা	-10.61283016204834
▁অতীতের	-10.613033294677734
▁করছিলাম	-10.613049507141113
▁অনেকগুলো	-10.61329460144043
▁আলাপ	-10.613975524902344
▁স্যা	-10.614550590515137
▁অব্রাহাম	-10.614556312561035
▁মন্দিরে	-10.614891052246094
▁ঘটনাটি	-10.615065574645996
▁পরস্পরের	-10.615083694458008
▁ওয়ে	-10.615453720092773
▁ল্যাট্রিন	-10.615983963012695
▁আপীল	-10.615997314453125
োয়া	-10.616005897521973
কাম	-10.616316795349121
র্ণ	-10.616424560546875
▁চাপা	-10.616643905639648
▁দৈনন্দিন	-10.61706829071045
▁অবকাঠামো	-10.617409706115723
৮১	-10.617462158203125
▁যেটাকে	-10.617478370666504
▁অভিজ্ঞ	-10.61756706237793
▁কমপ্লেক্স	-10.61757755279541
৭৩	-10.618128776550293
োপ	-10.618207931518555
▁ব্রা	-10.618510246276855
▁ভালবাসি	-10.618647575378418
বাংলা	-10.619046211242676
▁সোনার	-10.619390487670898
▁নূতন	-10.619730949401855
▁নিয়ন্ত্রণের	-10.620595932006836
বেল	-10.620606422424316
▁বিতর্কিত	-10.620946884155273
▁চামড়া	-10.620967864990234
▁প্রবন্ধটি	-10.621204376220703
▁পায়ের	-10.621512413024902
▁উপনিবেশ	-10.622440338134766
▁চীনে	-10.623159408569336
▁কলাম	-10.623393058776855
ব্যবস্থা	-10.623778343200684
▁অনুপস্থিত	-10.623956680297852
▁ফাইলটি	-10.624202728271484
▁১৯৬৩	-10.62426471710205
▁সেইজন্য	-10.624303817749023
▁সাফল্যের	-10.62467098236084
▁আবিষ্কৃত	-10.62469482421875
▁কয়লা	-10.625134468078613
▁ক্রস	-10.625187873840332
পুরুষ	-10.62533950805664
▁আহবান	-10.625852584838867
▁পাতায়	-10.626259803771973
▁সেমি	-10.62646198272705
বছর	-10.62666130065918
▁রাজনীতির	-10.62674331665039
▁অধিষ্ঠিত	-10.626899719238281
▁বঞ্চিত	-10.626984596252441
▁কার্যকরী	-10.627298355102539
▁বিপ্লবী	-10.627457618713379
▁সহকর্মী	-10.627548217773438
সির	-10.62756061553955
ক্ত	-10.627847671508789
▁সম্বলিত	-10.62817096710205
াইল	-10.628299713134766
টুকু	-10.628472328186035
▁মুক্তিযোদ্ধা	-10.628992080688477
▁অভিবাসী	-10.629183769226074
▁দিব	-10.629432678222656
▁শরণার্থী	-10.629557609558105
▁সন্তানরা	-10.629889488220215
▁ওয়ান	-10.629949569702148
▁পরেও	-10.630178451538086
▁নোটিশ	-10.630234718322754
▁অধিকারের	-10.63032054901123
ভাগ	-10.630334854125977
▁সাহায্যকারী	-10.63071346282959
▁প্রতিস্থাপন	-10.630752563476562
▁মেয়েকে	-10.630929946899414
বর্তমান	-10.631074905395508
▁বংশাবলি	-10.631314277648926
▁মালিকানাধীন	-10.631471633911133
▁দেও	-10.631478309631348
▁সম্মাননা	-10.631906509399414
দায়ক	-10.632063865661621
▁১৯৬৬	-10.63210678100586
▁উপদেশক	-10.632110595703125
ব্যা	-10.632221221923828
▁শিক্ষাদান	-10.632304191589355
▁ছাপা	-10.632726669311523
▁টুয়েন্টি২০	-10.633508682250977
▁উপকূলীয়	-10.633703231811523
▁সন্তানকে	-10.63371753692627
ভাল	-10.633764266967773
]:	-10.63376522064209
▁দ্বার	-10.633854866027832
▁দায়ের	-10.633931159973145
▁পাঠানোর	-10.63427448272705
▁দৌড়	-10.634932518005371
▁সমাবেশ	-10.634965896606445
▁পড়ছে	-10.635160446166992
▁চির	-10.63543701171875
▁খেলতে	-10.635558128356934
▁উভয়ই	-10.635567665100098
▁ম্যাজিস্ট্রেট	-10.635688781738281
▁উত্থান	-10.635709762573242
▁তুলেছিল	-10.635826110839844
▁প্রা	-10.635846138000488
▁বুঝে	-10.63608169555664
▁ভাগে	-10.636098861694336
▁কোষ	-10.636162757873535
▁ডলারের	-10.636240005493164
▁ষষ্ঠ	-10.636802673339844
▁হেক্টর	-10.636848449707031
▁সমুদ্রের	-10.63753890991211
▁চারজন	-10.637919425964355
▁ছাড়	-10.637955665588379
▁হতাশা	-10.637977600097656
▁সেখানেই	-10.638336181640625
▁৮৯	-10.638520240783691
▁তোলেন	-10.63872241973877
▁অবিবাহিত	-10.639016151428223
▁খসড়া	-10.639031410217285
▁ধারণার	-10.639253616333008
▁পালক	-10.639323234558105
শিল্প	-10.639531135559082
▁অব্রাহামের	-10.639823913574219
▁পাক	-10.639924049377441
▁ছাড়িয়ে	-10.63997745513916
▁লুইস	-10.64010238647461
▁গ্লোব	-10.64058780670166
গ্রামে	-10.640619277954102
▁বিদ্যালয়ের	-10.640656471252441
▁ফেলো	-10.6410551071167
▁ডেপুটি	-10.64123249053955
▁পরিধান	-10.641264915466309
▁লন্ডনের	-10.641474723815918
▁বৃত্তি	-10.641538619995117
▁অপরাধী	-10.641754150390625
▁পাকিস্তানী	-10.641818046569824
▁মাকে	-10.642265319824219
▁অনুতপ্ত	-10.642355918884277
▁চলাকালীন	-10.642501831054688
▁লবণ	-10.642544746398926
▁উদ্যোগে	-10.642605781555176
▁বৈষম্য	-10.642657279968262
▁শ্রেণি	-10.642666816711426
▁উচ্চতর	-10.642739295959473
▁চাবি	-10.642752647399902
▁সমাপ্তি	-10.642783164978027
▁পেলে	-10.643383979797363
ক্রম	-10.643487930297852
▁১১৯	-10.643600463867188
▁জানিয়েছিলেন	-10.643636703491211
▁তারপরে	-10.643836975097656
▁পন্ডিত	-10.644209861755371
হাই	-10.644508361816406
#	-10.644532203674316
▁অগ্রাধিকার	-10.644606590270996
▁স্বাগত	-10.644749641418457
ার্ড	-10.644916534423828
▁গুরুত্বের	-10.644989013671875
▁আলোর	-10.645146369934082
▁ডুবে	-10.645915031433105
▁অপেক্ষায়	-10.645953178405762
েন্স	-10.646798133850098
▁ওয়াশিংটন	-10.646924018859863
▁নম্রতা	-10.647138595581055
▁বয়	-10.647148132324219
▁সতর্কতা	-10.647703170776367
▁সময়কালে	-10.647734642028809
২০১২	-10.647912979125977
▁প্রাতিষ্ঠানিক	-10.647958755493164
▁ছাত্ররা	-10.648001670837402
▁নিরীক্ষা	-10.648186683654785
▁বাধ্যতামূলক	-10.648621559143066
▁এরূপ	-10.648679733276367
▁কালের	-10.648694038391113
লিক	-10.648995399475098
বী	-10.6490478515625
▁জিয়া	-10.649974822998047
▁জানালা	-10.649993896484375
▁কৌতুক	-10.650298118591309
▁লাইফ	-10.650659561157227
▁সাক্ষ্যদান	-10.65093994140625
▁সঞ্চয়	-10.651107788085938
▁মধ্যেও	-10.651232719421387
▁মেঘ	-10.65153694152832
▁কমন	-10.651642799377441
▁হিল	-10.651958465576172
▁দানের	-10.652194023132324
▁মিশরে	-10.6522216796875
▁দিনাজপুর	-10.65252685546875
কাজ	-10.652962684631348
▁কৃতিত্ব	-10.653093338012695
▁গেমসে	-10.653160095214844
▁মায়ানমার	-10.653505325317383
▁স্থাপনা	-10.653517723083496
জ্ঞ	-10.653564453125
▁সংসদীয়	-10.65363883972168
▁অফিসিয়াল	-10.653706550598145
▁খনি	-10.65371036529541
▁দেখেছে	-10.653779029846191
▁স্বাদ	-10.653963088989258
▁অর	-10.654006004333496
▁অনুসারী	-10.654478073120117
▁১৯১৯	-10.654637336730957
▁সুনাম	-10.654667854309082
▁নরম	-10.655003547668457
বতী	-10.655024528503418
▁ইংরেজী	-10.655051231384277
রিয়া	-10.655258178710938
▁গুজব	-10.655438423156738
▁সমাধি	-10.655502319335938
য়ন	-10.655735969543457
▁লেফটেন্যান্ট	-10.655820846557617
▁গানটি	-10.65703010559082
▁আমেরিকায়	-10.657267570495605
▁শরীরে	-10.657503128051758
▁আরে	-10.657559394836426
▁কিছুক্ষণ	-10.657973289489746
▁বশীভূত	-10.658052444458008
র্ত	-10.65810775756836
▁অত্যাচার	-10.658110618591309
▁অংশগ্রহণকারী	-10.658182144165039
▁পার্শ্ববর্তী	-10.659213066101074
▁ঘটনাবলি	-10.65941047668457
মালা	-10.659476280212402
▁পায়ে	-10.659500122070312
▁লাইট	-10.659595489501953
▁বাড়তে	-10.659627914428711
▁পুনর্	-10.659791946411133
▁লিংক	-10.660310745239258
▁আর্থ	-10.660419464111328
▁দূতাবাস	-10.660625457763672
▁প্রকল্পটি	-10.660694122314453
হাম	-10.661515235900879
▁খ্রীষ্টানেরা	-10.661964416503906
▁সৈন্যদের	-10.661972999572754
▁রেলপথ	-10.662217140197754
ালি	-10.662286758422852
▁রুটি	-10.662341117858887
▁পারস্পরিক	-10.662581443786621
▁নেপালের	-10.662871360778809
▁দৃশ্যমান	-10.662996292114258
▁প্রস্তাবিত	-10.663118362426758
▁প্রক্রিয়ার	-10.663383483886719
▁অলিম্পিকে	-10.663455963134766
▁থাই	-10.663652420043945
▁রেগে	-10.663904190063477
▁দরজার	-10.664179801940918
▁ত্রিশ	-10.664199829101562
▁দুঃখকষ্ট	-10.664509773254395
ঘা	-10.664532661437988
▁জানাই	-10.665005683898926
▁৭৩	-10.665014266967773
▁বন্ধুর	-10.665024757385254
▁শিলা	-10.665396690368652
▁অধ্যায়ে	-10.665431022644043
▁যাচ্ছিল	-10.665655136108398
▁দৌরাত্ম্য	-10.665864944458008
▁সজ্জিত	-10.66608715057373
▁গবেষণায়	-10.666170120239258
▁মানুষেরা	-10.666285514831543
▁৬৭	-10.666834831237793
▁বহিঃসংযোগ	-10.667137145996094
তুল্য	-10.667232513427734
▁পুনরাবৃত্তি	-10.667459487915039
▁পেরেছিল	-10.667707443237305
▁গার্ড	-10.668054580688477
▁$	-10.66823673248291
▁দেখলাম	-10.668447494506836
▁বারবার	-10.66860294342041
▁বিষয়গুলি	-10.668746948242188
▁অধিবাসী	-10.668912887573242
▁রত	-10.66894245147705
পাদটীকাগুলো	-10.669026374816895
▁যিরূশালেমের	-10.669450759887695
▁সমন্বিত	-10.66953182220459
▁ফরাসী	-10.670007705688477
▁আছো	-10.670393943786621
▁চাওয়া	-10.670415878295898
▁বাজারের	-10.67074966430664
▁শিকাগো	-10.671257972717285
▁সম্মতি	-10.671337127685547
কালের	-10.671455383300781
▁অধিনায়ক	-10.671523094177246
উদ্দীন	-10.671538352966309
▁বালি	-10.672008514404297
৬১	-10.672444343566895
▁ক্লিনিক	-10.67247486114502
▁পুনরুত্থান	-10.672608375549316
কিন	-10.672720909118652
▁অভিজ্ঞতার	-10.672722816467285
▁মামলার	-10.672858238220215
▁উৎপাদিত	-10.672893524169922
▁কলসীয়	-10.67372989654541
▁করিয়াছেন	-10.673981666564941
এক্স	-10.673991203308105
▁আছ	-10.674022674560547
▁টেলিফোন	-10.674200057983398
▁সফরে	-10.67436695098877
▁বিল্ডিং	-10.674410820007324
▁গ্রে	-10.674494743347168
▁সম্মিলিত	-10.67456340789795
▁যাত্রাপুস্তক	-10.674988746643066
গতি	-10.675007820129395
▁কড়া	-10.675176620483398
▁উঠবে	-10.676015853881836
মহা	-10.676145553588867
▁অক্ষাংশ	-10.676352500915527
▁ব্যবধানে	-10.676542282104492
▁পরিকল্পনার	-10.676587104797363
বিজ্ঞান	-10.676591873168945
▁ক্রোধ	-10.676942825317383
▁উপলক্ষে	-10.677172660827637
▁উভয়ের	-10.677227973937988
▁ঝ	-10.677544593811035
▁আশ্চর্য	-10.678099632263184
▁তথ্যসূত্র	-10.678205490112305
▁মেয়র	-10.678250312805176
ঙ্গি	-10.678302764892578
▁প্রাণীর	-10.678319931030273
▁তালিকার	-10.678351402282715
▁যথাসাধ্য	-10.678619384765625
▁জলদি	-10.67894172668457
▁১৯৪৯	-10.679309844970703
▁স্বাস্থ্যকর	-10.67937183380127
▁হিতো	-10.679398536682129
▁বৃষ্টিপাত	-10.679819107055664
▁অযোগ্য	-10.680525779724121
▁নদীতে	-10.68056583404541
▁কিনতে	-10.68066120147705
▁অসন্তুষ্ট	-10.680936813354492
▁ধরুন	-10.680984497070312
াংশ	-10.682299613952637
▁ক্যান্সার	-10.682371139526367
▁কর্মীরা	-10.683152198791504
▁দূষণ	-10.683173179626465
ার্থে	-10.683225631713867
▁স্টক	-10.683259010314941
▁নাগাদ	-10.683420181274414
▁মূলধন	-10.683428764343262
যাত্রা	-10.683486938476562
▁করছো	-10.683738708496094
▁মল	-10.683955192565918
মন্ত্রী	-10.684136390686035
▁লোভ	-10.684161186218262
▁অসম	-10.684203147888184
▁আজিজ	-10.684338569641113
ভিন	-10.684379577636719
২০০৬	-10.684754371643066
▁সংজ্ঞায়িত	-10.685558319091797
▁সংকট	-10.685640335083008
▁ডাই	-10.685657501220703
▁ফর্ম	-10.686039924621582
▁ব্যবহারকারীরা	-10.686091423034668
▁গেমস	-10.68636703491211
▁বিধবা	-10.687172889709473
▁ড্র	-10.687178611755371
▁দর্শক	-10.687312126159668
▁অবদানের	-10.68744945526123
▁দুশ্চিন্তা	-10.687552452087402
▁পথের	-10.687644958496094
▁সারি	-10.6879243850708
▁অধ্যাদেশ	-10.687933921813965
▁যাহারা	-10.688125610351562
▁৮৫	-10.688227653503418
▁অক্ষম	-10.688745498657227
▁নলকূপ	-10.68905258178711
▁বাহিরে	-10.689119338989258
▁জার্নাল	-10.689399719238281
▁ফন্ট	-10.689501762390137
▁দাসত্ব	-10.689586639404297
পন্থী	-10.689643859863281
▁প্রতিজ্ঞাত	-10.689760208129883
▁গল্পের	-10.689929962158203
▁থাকব	-10.690376281738281
▁বর্জন	-10.690816879272461
দ্র	-10.691045761108398
▁বাসিন্দা	-10.69106388092041
৯১	-10.691478729248047
▁কালি	-10.69156551361084
▁খাত	-10.691632270812988
▁ওয়েবসাইটে	-10.692248344421387
কারীরা	-10.692395210266113
▁লস	-10.692501068115234
ফু	-10.692670822143555
▁খাপ	-10.69272232055664
▁প্রি	-10.693106651306152
▁গালাতীয়	-10.693360328674316
▁ইচ্ছে	-10.693648338317871
▁এটাও	-10.693703651428223
▁পাঠাতে	-10.693888664245605
▁খ্রিস্টাব্দ	-10.693940162658691
▁কাজেই	-10.693964958190918
▁নিষ্ঠুর	-10.694039344787598
▁মৃতদেহ	-10.694947242736816
▁হার্ট	-10.69507884979248
▁স্টুডিও	-10.6956787109375
▁কথিত	-10.696261405944824
▁শৃঙ্খলা	-10.696621894836426
▁হোস্ট	-10.697078704833984
▁সাপ	-10.697752952575684
▁যিহিষ্কেল	-10.698797225952148
▁১৯৫৯	-10.699161529541016
শাস্ত্র	-10.69929313659668
▁গ্রাহক	-10.699410438537598
▁মেডিক্যাল	-10.699604034423828
▁সবই	-10.700065612792969
ইয়োব	-10.70012092590332
▁জাতিকে	-10.701664924621582
▁দেখাচ্ছে	-10.701848030090332
কার্য	-10.70205020904541
▁অংশগ্রহণের	-10.70263671875
▁দিয়েছিলাম	-10.70315933227539
▁পয়সা	-10.703194618225098
▁১৯৫৫	-10.703927040100098
ওয়াল	-10.704235076904297
▁শত্রুদের	-10.704256057739258
▁শিয়া	-10.70445442199707
াউ	-10.704628944396973
▁মিয়া	-10.704977989196777
▁প্রকৌশলী	-10.705591201782227
▁শাখার	-10.706437110900879
▁কোনটা	-10.706503868103027
▁চিকিৎসার	-10.7074556350708
▁বর্ধিত	-10.70797061920166
▁মায়া	-10.708008766174316
▁ভালোবাসি	-10.708009719848633
▁স্মরণে	-10.708306312561035
▁প্রার্থনায়	-10.70927619934082
েশ	-10.709297180175781
▁উদ্যোগী	-10.709305763244629
▁বিনষ্ট	-10.709465980529785
▁উইকিপিডিয়া	-10.71026611328125
▁দ্রাঘিমাংশ	-10.71026611328125
▁গ্র্যান্ড	-10.710399627685547
▁ট্র্যাক	-10.710587501525879
▁বিবাহের	-10.710591316223145
▁সিঙ্গাপুর	-10.710681915283203
▁পুত্রের	-10.710797309875488
▁ভূমির	-10.711080551147461
▁১২০	-10.711291313171387
▁শ্রীলঙ্কা	-10.711441993713379
▁সাতটি	-10.711527824401855
▁হাম	-10.711714744567871
▁স্নেহ	-10.712251663208008
▁বোনের	-10.712286949157715
▁সীমাবদ্ধতা	-10.712602615356445
ৃ	-10.712667465209961
▁লাগাতে	-10.712793350219727
▁কোমল	-10.713067054748535
▁আত্মপ্রকাশ	-10.713153839111328
▁পৌঁছাতে	-10.713398933410645
ম্বা	-10.713451385498047
▁রাষ্ট্রদূত	-10.71389102935791
▁৬৮	-10.7139253616333
▁জোসেফ	-10.713932037353516
▁ভ্রমণের	-10.713993072509766
▁সুস্পষ্ট	-10.714051246643066
▁আরবের	-10.714094161987305
▁ক্রি	-10.714503288269043
▁১০০০	-10.714584350585938
▁১৯৫৩	-10.714635848999023
▁আপলোড	-10.71505069732666
▁পুষ্টি	-10.715058326721191
রিক	-10.715179443359375
▁ইন্টারনেটে	-10.715879440307617
▁হরি	-10.716391563415527
▁প্রত্যেকটি	-10.716530799865723
▁ফলস্বরূপ	-10.716614723205566
▁ঢাল	-10.716704368591309
▁গাড়ী	-10.716717720031738
▁দূরত্ব	-10.717085838317871
সমূহে	-10.717103958129883
▁দীর্ঘদিন	-10.717124938964844
▁রবিবার	-10.717313766479492
▁আত্মহত্যা	-10.71733283996582
রকম	-10.71750545501709
সুর	-10.71765422821045
▁সিদ্ধান্তের	-10.717824935913086
▁সফলতা	-10.71866226196289
▁প্রবিধান	-10.718725204467773
▁লিস্ট	-10.718764305114746
▁জমিদারি	-10.718878746032715
▁এলিয়	-10.719217300415039
▁খু	-10.719947814941406
বের	-10.720212936401367
▁ফারসি	-10.720235824584961
▁সহায়তায়	-10.720537185668945
▁১৯৪৩	-10.72069263458252
▁ভান	-10.721027374267578
▁বেঁধে	-10.721043586730957
▁লিপ্ত	-10.72121524810791
▁কার্ল	-10.721420288085938
দ্	-10.721744537353516
▁চৌ	-10.721901893615723
▁কাজটা	-10.722012519836426
বলি	-10.722285270690918
▁সত্যিকার	-10.722369194030762
▁দাদা	-10.722383499145508
ায়িত	-10.722748756408691
▁পৃথিবীকে	-10.722921371459961
▁উপসংহারে	-10.722994804382324
▁৭১	-10.723254203796387
▁দুর্দশা	-10.723502159118652
▁ফ্যাশন	-10.723505020141602
▁স্বস্তি	-10.723527908325195
▁শিরোনামে	-10.723552703857422
ফো	-10.723816871643066
▁অনন্য	-10.724477767944336
▁নীতিগুলো	-10.724526405334473
▁ঔপনিবেশিক	-10.724706649780273
▁জলে	-10.724883079528809
▁মহাসাগরীয়	-10.724919319152832
▁দেশীয়	-10.725509643554688
▁১৯৪২	-10.725556373596191
▁বাক	-10.725687026977539
▁চো	-10.725811958312988
▁আওতাধীন	-10.725874900817871
▁নু	-10.726038932800293
াধীন	-10.726617813110352
▁ডো	-10.726635932922363
▁কোর	-10.727039337158203
▁অত্যধিক	-10.727083206176758
▁কর্নেল	-10.727124214172363
▁ছেলেমেয়েরা	-10.727734565734863
বাজ	-10.727821350097656
▁সাহেব	-10.728588104248047
▁নবাব	-10.728713989257812
▁জেলাটি	-10.728793144226074
▁দুর্বলতা	-10.728918075561523
সিসি	-10.729496955871582
▁গর্বিত	-10.729825973510742
▁মাত্রায়	-10.730093002319336
▁অর্থের	-10.730141639709473
▁অপরকে	-10.730194091796875
▁উল্লেখ্য	-10.730350494384766
▁মৌসুম	-10.730697631835938
▁বিস্মিত	-10.730722427368164
▁ডক	-10.730879783630371
▁মিডিয়ার	-10.730886459350586
সাই	-10.731104850769043
▁বিশ্বযুদ্ধ	-10.731219291687012
▁জনগণকে	-10.732464790344238
▁টাউন	-10.732744216918945
দুর	-10.732845306396484
▁দৌড়ে	-10.73288345336914
▁আনে	-10.733291625976562
▁প্রকৃতই	-10.733291625976562
▁ফুটবলার	-10.733473777770996
▁তাঁহাকে	-10.733491897583008
ার্থ	-10.73359203338623
ব্যক্তি	-10.733789443969727
▁গেট	-10.734193801879883
▁বিক্ষোভের	-10.73464298248291
▁গঠনমূলক	-10.734743118286133
▁ময়মনসিংহ	-10.73486328125
▁প্রক্রিয়ায়	-10.734996795654297
▁আর্মি	-10.735177040100098
▁বাজানো	-10.735283851623535
▁জানত	-10.73550033569336
▁অফিসের	-10.735506057739258
▁এড়াতে	-10.735614776611328
▁তোকে	-10.735718727111816
▁গোলাম	-10.735773086547852
▁স্থানের	-10.73579216003418
▁শাসনামলে	-10.736162185668945
▁ফার	-10.736178398132324
▁প্রস্তর	-10.736186981201172
▁ধর্মঘট	-10.73650074005127
▁রাইটস	-10.736635208129883
২০১৩	-10.736721992492676
▁পারছে	-10.73677921295166
▁হোয়াইট	-10.73697566986084
▁গেলেন	-10.737032890319824
▁পুনরুত্থানের	-10.737076759338379
▁এগুলির	-10.737083435058594
▁মিসেস	-10.737141609191895
▁অধিদপ্তর	-10.737152099609375
▁৮৮	-10.737177848815918
িম	-10.737504005432129
▁পাঠকদের	-10.737640380859375
▁বাস্তবে	-10.737667083740234
▁আসবেন	-10.737793922424316
▁কার্টুন	-10.73802661895752
▁লেবেল	-10.738133430480957
▁পরিপূর্ণতা	-10.738529205322266
▁চেতনা	-10.738616943359375
▁তামিল	-10.73913860321045
▁প্রতারণা	-10.73918628692627
জ্জ	-10.739189147949219
▁ক্যাম্প	-10.739315032958984
য়ি	-10.739556312561035
▁মেয়েরা	-10.739635467529297
▁রোম	-10.739752769470215
▁অনৈতিক	-10.740055084228516
২০১০	-10.740541458129883
এখন	-10.740827560424805
তিন	-10.74093246459961
▁যুক্তরাজ্য	-10.74106216430664
▁বিষয়গুলোকে	-10.741589546203613
▁ধাতু	-10.741594314575195
▁প্রবেশের	-10.741704940795898
▁এইচআইভি	-10.741732597351074
▁সর্বমোট	-10.741752624511719
▁লাফ	-10.741768836975098
▁স্থল	-10.741833686828613
▁প্রেরিতদের	-10.741889953613281
▁টাকাপয়সা	-10.743053436279297
▁বাহাদুর	-10.743093490600586
▁জিনিষ	-10.743104934692383
▁অপহরণ	-10.744197845458984
▁লেক	-10.744473457336426
▁প্রশাসনের	-10.744673728942871
র্ন	-10.745193481445312
▁১৯৪৪	-10.745283126831055
▁বিবেচনায়	-10.746195793151855
রিন	-10.746336936950684
▁অন্যরা	-10.746384620666504
্যু	-10.746418952941895
স্তি	-10.74662971496582
▁পাশের	-10.747381210327148
▁অভিজাত	-10.747879028320312
এসসি	-10.747932434082031
▁বানান	-10.748579025268555
▁করানো	-10.748665809631348
টেন	-10.748838424682617
▁মীর	-10.748977661132812
▁অনন্তজীবন	-10.749044418334961
▁প্রলোভন	-10.749128341674805
▁ইউএস	-10.74929428100586
▁মৃত্যুতে	-10.749302864074707
ধর্মী	-10.749567031860352
▁মরিয়ম	-10.750531196594238
▁৪০০	-10.750754356384277
পল	-10.75139045715332
▁উত্তেজনা	-10.751574516296387
▁মুহূর্ত	-10.7515869140625
▁সনদ	-10.752145767211914
▁উৎসবে	-10.752147674560547
▁সমালোচক	-10.752659797668457
▁লজ্জা	-10.753090858459473
▁গাড়িতে	-10.753439903259277
▁প্রত্যেকের	-10.753745079040527
▁অন্যকে	-10.753897666931152
▁অ্যান	-10.754454612731934
▁অ্যাক্ট	-10.755472183227539
▁তাহাকে	-10.755721092224121
▁দর	-10.755959510803223
▁স্পেন	-10.75606918334961
▁বৈদ্যুতিক	-10.756628036499023
▁কণ্ঠস্বর	-10.756738662719727
▁যোষেফ	-10.75683307647705
▁৯১	-10.757153511047363
▁সেন্ট্রাল	-10.757843017578125
▁গুড	-10.758399963378906
▁ইসলামি	-10.759103775024414
▁হ্যাশট্যাগ	-10.759117126464844
▁থেমে	-10.759159088134766
▁তীর	-10.759536743164062
▁মহ	-10.760087966918945
▁ইংলিশ	-10.76038646697998
▁ধর্ষণ	-10.760902404785156
▁আগ্রহের	-10.760953903198242
▁কর্মকর্তারা	-10.761029243469238
▁বাবাকে	-10.76131820678711
▁আসনে	-10.761396408081055
▁জরিমানা	-10.761589050292969
পট	-10.761697769165039
▁ব্রি	-10.761880874633789
▁মরে	-10.762248039245605
বাংলাদেশ	-10.762393951416016
▁কাছেই	-10.762411117553711
িজম	-10.762646675109863
▁বেথেল	-10.763026237487793
ক্যা	-10.76318359375
▁দেখিয়েছিল	-10.763439178466797
ানি	-10.763579368591309
▁কর্মকান্ড	-10.76360034942627
▁গ্রন্থে	-10.763867378234863
▁সরবরাহের	-10.76401138305664
▁শাকসবজি	-10.764100074768066
▁পরমাণু	-10.764105796813965
▁ঠিকই	-10.764120101928711
▁মহাসড়ক	-10.764158248901367
তাই	-10.764547348022461
▁সিন্ধু	-10.76462459564209
▁ক্ষত	-10.764649391174316
▁৮৬	-10.764883041381836
▁ধারায়	-10.764988899230957
▁রোগে	-10.765089988708496
▁ক্ষুধা	-10.76533317565918
▁স্বর	-10.765572547912598
দিয়া	-10.765684127807617
▁ব্য	-10.765791893005371
উন	-10.766477584838867
▁বর্ষ	-10.766646385192871
▁মেক্সিকোর	-10.766658782958984
▁প্রতিদ্বন্দ্বি	-10.766683578491211
▁তথাপি	-10.766844749450684
ম্যা	-10.766927719116211
▁বানিয়ে	-10.766983985900879
য়েট	-10.767313003540039
▁তাহাতে	-10.767533302307129
▁বংশধর	-10.767611503601074
▁উৎসবের	-10.767640113830566
মিল	-10.76823616027832
▁নগরের	-10.768540382385254
▁দাঁড়াও	-10.768641471862793
▁ঘোড়ার	-10.768890380859375
▁খুঁজতে	-10.76914119720459
▁ভিক্টোরিয়া	-10.769186973571777
▁তুলনামূলকভাবে	-10.769508361816406
শূন্য	-10.769618034362793
উস	-10.770060539245605
▁জাত	-10.770586013793945
▁সিসি	-10.770618438720703
▁লক্ষণীয়	-10.771471977233887
▁নিষেধ	-10.771940231323242
▁সাহিত্যে	-10.771943092346191
▁ইত্যাদির	-10.772208213806152
▁যখনই	-10.772430419921875
▁পেরেছে	-10.772783279418945
িট	-10.772870063781738
▁গ্রন্থাগার	-10.772878646850586
বাদের	-10.772977828979492
▁সম্পর্ককে	-10.773249626159668
▁কানাডার	-10.773269653320312
কুমার	-10.773411750793457
▁সায়	-10.774114608764648
▁শিরোপা	-10.774267196655273
সময়ের	-10.77450180053711
▁বটে	-10.774615287780762
▁যশোর	-10.774648666381836
ভাবেই	-10.774765968322754
▁শিশুরা	-10.774980545043945
লস	-10.77534008026123
িয়াল	-10.775361061096191
▁অবস্থানের	-10.775453567504883
গর	-10.775469779968262
▁রিয়াল	-10.775572776794434
র্ক	-10.77580738067627
▁ল্যাংডনের	-10.776023864746094
▁হ্রদ	-10.776056289672852
নির	-10.776213645935059
▁মিছিল	-10.776252746582031
▁৬৯	-10.776447296142578
▁ইন্টার	-10.776832580566406
▁সম্পত্তির	-10.777533531188965
▁ব্রিজ	-10.77778434753418
▁লেবীয়	-10.77785873413086
▁পত্রিকাটি	-10.778000831604004
▁মিনিটে	-10.778029441833496
▁বেশীরভাগ	-10.778044700622559
▁দেখলে	-10.778660774230957
▁৭৪	-10.778669357299805
▁সর	-10.778809547424316
▁প্রসব	-10.779059410095215
▁বিরতি	-10.779077529907227
▁শীঘ্র	-10.779090881347656
▁রিসার্চ	-10.779300689697266
▁ভয়ঙ্কর	-10.779304504394531
▁মুজিবুর	-10.779364585876465
▁পতনের	-10.779410362243652
▁ব্যাটসম্যান	-10.780577659606934
▁মঠ	-10.780600547790527
▁প্রচারক	-10.780745506286621
ুল্লাহ	-10.780867576599121
▁ছাদ	-10.7810697555542
▁ইস্যু	-10.781237602233887
স্প	-10.781379699707031
▁হিসেবেও	-10.7817964553833
সীমা	-10.781804084777832
▁শিবির	-10.782320022583008
▁দলীয়	-10.782533645629883
▁ঠান্ডা	-10.783220291137695
▁সাম	-10.784041404724121
▁প্রকা	-10.784192085266113
▁ভিড়	-10.784225463867188
বুদ্ধি	-10.784753799438477
▁অপ্রত্যাশিত	-10.784954071044922
▁আশেপাশের	-10.784960746765137
▁সংস্কারের	-10.785161018371582
▁আপনিও	-10.785669326782227
▁অভিযানের	-10.785768508911133
▁সন্ধ্যায়	-10.785781860351562
▁শুক্রবার	-10.785845756530762
▁প্রশিক্ষণের	-10.786247253417969
▁প্রস্থ	-10.786264419555664
▁প্রেমপূর্ণ	-10.786354064941406
▁দেখিয়েছেন	-10.78687572479248
▁এক্সচেঞ্জ	-10.786993980407715
▁বিভাগীয়	-10.78715991973877
▁মাঝখানে	-10.78770923614502
▁দিয়াবল	-10.788097381591797
স্থল	-10.78839111328125
▁নেবেন	-10.788605690002441
▁আক্ষরিক	-10.788655281066895
▁খোদা	-10.788817405700684
▁শিষ্যরা	-10.789666175842285
▁রাই	-10.789793968200684
▁দফা	-10.789911270141602
▁মালয়েশিয়া	-10.789911270141602
▁ভোজন	-10.789990425109863
▁৯৫	-10.790349006652832
▁মিশ্রণ	-10.790535926818848
▁ব্রাজিলের	-10.790594100952148
▁পক্ষের	-10.790626525878906
▁প্রতিবেদনে	-10.79095458984375
ানু	-10.79122257232666
▁ডন	-10.791247367858887
▁জেন	-10.791902542114258
দ্ধ	-10.792040824890137
▁ডাচ	-10.792074203491211
▁উত্তেজিত	-10.792147636413574
▁অবহেলা	-10.79214859008789
▁ট্রেড	-10.79217529296875
▁মহাপরিচালক	-10.79219913482666
▁অমর	-10.792313575744629
▁বুঝি	-10.792351722717285
▁করেছেনঃ	-10.7924165725708
▁গুণগত	-10.79262924194336
▁আজারবাইজান	-10.792722702026367
▁নিচ্ছে	-10.792732238769531
▁দাঙ্গা	-10.7928466796875
▁মিনার	-10.79289722442627
▁প্রতিবাদে	-10.793034553527832
নামা	-10.793441772460938
▁ব্রাজিল	-10.793595314025879
▁চরিত্রের	-10.793773651123047
▁"[	-10.793828964233398
▁হায়	-10.793953895568848
▁ইংল্যান্ডে	-10.794195175170898
▁যানবাহন	-10.79439640045166
▁লাইনের	-10.794438362121582
▁শুদ্ধ	-10.794459342956543
▁=	-10.795175552368164
▁পৌঁছায়	-10.795263290405273
▁পুনর্গঠন	-10.796041488647461
▁কনফিগারেশন	-10.79605770111084
ফোর্ড	-10.796101570129395
▁সাইকেল	-10.796623229980469
▁অসুবিধা	-10.796772003173828
মী	-10.796799659729004
▁পোপ	-10.796940803527832
▁কাজকর্ম	-10.797138214111328
হ্	-10.797211647033691
হর	-10.797280311584473
▁বিপজ্জনক	-10.797329902648926
▁আধিপত্য	-10.797330856323242
▁শুনুন	-10.797385215759277
▁নিল	-10.797438621520996
▁শুনেছি	-10.797691345214844
গাঁও	-10.797703742980957
▁ম্যাগাজিন	-10.797703742980957
▁সিস্টেমের	-10.798054695129395
▁ডিসেম্বরে	-10.79808521270752
▁দাসের	-10.79811954498291
র্থ	-10.798259735107422
▁গোটা	-10.798362731933594
▁তাইওয়ান	-10.798665046691895
▁প্রবেশাধিকার	-10.798736572265625
▁ছেলেকে	-10.79885196685791
▁ধু	-10.799399375915527
▁সংকলন	-10.80010986328125
ভান	-10.800117492675781
▁আলোচনায়	-10.800148010253906
▁চোর	-10.800383567810059
▁চেয়েছিলাম	-10.800756454467773
▁গ্যা	-10.801013946533203
▁প্রজন্মের	-10.801141738891602
▁সাম্প্রদায়িক	-10.801212310791016
▁উত্তীর্ণ	-10.801236152648926
ডব্লিউ	-10.801283836364746
▁বিষয়টিকে	-10.801472663879395
খে	-10.801533699035645
▁মির্জা	-10.801910400390625
▁সমকামী	-10.801910400390625
িদ	-10.801961898803711
▁ধ	-10.80198860168457
▁অভিভাবক	-10.802218437194824
▁শীতল	-10.802337646484375
▁খুলুন	-10.802566528320312
▁ধর	-10.802815437316895
▁স্পেনের	-10.802909851074219
▁থা	-10.803057670593262
▁এড	-10.803144454956055
▁দাসেরা	-10.803299903869629
▁সেশন	-10.803410530090332
▁অনুষদ	-10.80356216430664
চর	-10.804014205932617
▁শিক্ষকদের	-10.804108619689941
▁আলোচিত	-10.804137229919434
▁স্বভাব	-10.804533958435059
▁দায়ে	-10.804668426513672
▁উদ্ধৃত	-10.804715156555176
▁তথাকথিত	-10.80516242980957
▁ব্রোঞ্জ	-10.80517864227295
▁গর্ব	-10.805519104003906
▁দাঁড়িয়েছে	-10.805715560913086
▁স্বাগতম	-10.80596923828125
▁পোস্টটি	-10.806166648864746
▁ইনিংসে	-10.806253433227539
▁সাহিত্যিক	-10.806360244750977
ইংরাজি	-10.806524276733398
▁শুচি	-10.806719779968262
▁কোট	-10.806863784790039
ষা	-10.806902885437012
।'-	-10.806960105895996
▁হামিদ	-10.808053970336914
▁বাহন	-10.808348655700684
▁জটিলতা	-10.808634757995605
▁বাজেট	-10.808854103088379
▁ভূগর্ভস্থ	-10.809104919433594
▁বেসরকারী	-10.809110641479492
▁বাড়তি	-10.809126853942871
▁পারলে	-10.809335708618164
▁কথাই	-10.809765815734863
▁ভাবনা	-10.810044288635254
▁চট্টগ্রামের	-10.810066223144531
▁হর	-10.81020736694336
▁একতা	-10.810343742370605
ুস	-10.810550689697266
▁শুয়ে	-10.81091022491455
ভের	-10.81103801727295
▁ঘাটতি	-10.81108570098877
▁অভাবে	-10.811775207519531
ফর	-10.811820983886719
▁মোড়	-10.812016487121582
▁ঘটা	-10.812165260314941
বৃন্দ	-10.812243461608887
▁খ্রিস্টপূর্ব	-10.81253433227539
▁প্ররোচিত	-10.813048362731934
▁হাউজ	-10.813116073608398
▁যোদ্ধা	-10.813142776489258
▁ফেলুন	-10.813922882080078
▁ভয়ানক	-10.814370155334473
▁নও	-10.814652442932129
▁টেকনোলজি	-10.81489086151123
▁অভিধান	-10.815064430236816
রোগ	-10.815315246582031
গামী	-10.815585136413574
নাস	-10.816007614135742
▁আকৃতি	-10.816391944885254
▁৭৬	-10.816510200500488
▁৭৭	-10.81651782989502
▁ধ্বংসের	-10.816851615905762
▁অণু	-10.816910743713379
▁প্রস্থান	-10.816933631896973
▁প্রাইভেট	-10.817081451416016
▁একাউন্ট	-10.817092895507812
▁বিশ্বস্ততা	-10.817307472229004
▁খুজে	-10.81730842590332
▁সমূহ	-10.817329406738281
▁গীতরচক	-10.817846298217773
▁নিউজিল্যান্ড	-10.818151473999023
▁একজনকে	-10.818493843078613
▁গোত্রের	-10.818998336791992
▁ফটো	-10.81903076171875
ীরা	-10.819042205810547
▁করিল	-10.819287300109863
▁সংঘ	-10.819519996643066
▁অপরিচিত	-10.819759368896484
▁জামা	-10.819907188415527
▁জমিতে	-10.81998348236084
▁প্রচারে	-10.820001602172852
▁ট্রাস্ট	-10.820151329040527
▁খবরের	-10.820298194885254
ীকৃত	-10.82068157196045
নারী	-10.820920944213867
লিং	-10.821097373962402
▁প্রসঙ্গ	-10.821240425109863
ধি	-10.821290016174316
▁উক্তি	-10.821331024169922
▁স্বাস্থ্যের	-10.82139778137207
▁কামাল	-10.822174072265625
▁সাহিত্যাদি	-10.822216987609863
প্রিয়	-10.822488784790039
▁সংলগ্ন	-10.82260513305664
▁দিলাম	-10.82283878326416
▁ব্যাঙ্ক	-10.823155403137207
▁উল	-10.823526382446289
▁শনিবার	-10.823834419250488
▁অনুসন্ধানের	-10.823877334594727
▁এসময়	-10.824129104614258
▁অনেকগুলি	-10.824146270751953
▁হান	-10.824728965759277
▁পূর্ণসময়	-10.824755668640137
▁রবীন্দ্রনাথ	-10.824913024902344
বির	-10.825091361999512
▁ফেলি	-10.825254440307617
▁আফ্রিকায়	-10.825284004211426
▁সাংবাদিকদের	-10.825695991516113
▁গোপনে	-10.826091766357422
▁কতিপয়	-10.826336860656738
▁সহিংসতা	-10.826438903808594
▁মাছের	-10.826594352722168
▁দিলো	-10.82675838470459
▁সাময়িক	-10.82744026184082
▁গিলিয়েড	-10.827675819396973
▁পাকসেনা	-10.827686309814453
একজন	-10.828396797180176
▁গজ	-10.829655647277832
▁সূর্যের	-10.829660415649414
▁খাদ্যের	-10.829676628112793
▁পশুর	-10.83004379272461
▁১৯৩৭	-10.830219268798828
মাই	-10.830635070800781
▁মার্	-10.830682754516602
▁ভিডিওটা	-10.830683708190918
▁কেড়ে	-10.831175804138184
▁ছাত্রী	-10.831735610961914
▁কমন্স	-10.831924438476562
▁করিম	-10.831925392150879
▁স্টেশনে	-10.83224105834961
▁লাগল	-10.832976341247559
▁লিঙ্ক	-10.833135604858398
▁সম্	-10.833967208862305
বোনদের	-10.83415699005127
▁ইউসুফ	-10.834396362304688
▁নগদ	-10.834421157836914
▁মারি	-10.835213661193848
্তি	-10.835733413696289
▁ল্যাঙডন	-10.835745811462402
▁মীমাংসা	-10.835838317871094
▁জাফর	-10.835840225219727
▁বাক্যে	-10.835874557495117
▁পুত্ত্র	-10.835953712463379
▁পেরেছিলাম	-10.835979461669922
▁বাহির	-10.836431503295898
▁চলি	-10.836575508117676
▁কিসের	-10.836719512939453
োল	-10.83683967590332
▁১৯৩৯	-10.836885452270508
▁প্রধানমন্ত্রীর	-10.836979866027832
▁নির্যাতনের	-10.837059020996094
ওয়াই	-10.83711051940918
▁মধু	-10.837498664855957
......	-10.837833404541016
▁খোঁজ	-10.838171005249023
▁ভ্যান	-10.838362693786621
▁সাড়ে	-10.838837623596191
েন্দ্র	-10.83899211883545
▁নিজেরা	-10.838994979858398
▁ব্যভিচার	-10.83920955657959
▁ছাপানো	-10.839539527893066
▁উদ্বুদ্ধ	-10.83980655670166
▁অল্পবয়সি	-10.839838027954102
্টার	-10.840043067932129
▁তরঙ্গ	-10.840331077575684
ট্রি	-10.840651512145996
▁অস	-10.84078311920166
▁জায়গার	-10.840839385986328
মূল	-10.84091567993164
▁সাজানো	-10.840936660766602
▁মুম্বাই	-10.840999603271484
▁সাংবিধানিক	-10.841161727905273
▁প্রজেক্ট	-10.841176986694336
▁বৎসর	-10.841564178466797
▁ফ্লাইট	-10.841842651367188
দর্শন	-10.842025756835938
▁মেমো	-10.842090606689453
▁কোল	-10.84211254119873
▁খোঁজার	-10.842182159423828
▁পোস্টার	-10.842293739318848
▁সার্বভৌম	-10.842479705810547
▁আলেকজান্ডার	-10.842552185058594
▁আঠারো	-10.842643737792969
▁ইউরো	-10.842830657958984
▁মাযার	-10.842862129211426
▁গেলাম	-10.842960357666016
▁পড়	-10.8431396484375
▁র্যা	-10.843749046325684
▁রদবদল	-10.843883514404297
▁চক্ষু	-10.843920707702637
▁কার্যকলাপ	-10.843963623046875
রুশ	-10.84402847290039
▁৭৮	-10.844305038452148
মূল্য	-10.844637870788574
▁মোকাবেলা	-10.844969749450684
ভিল	-10.845057487487793
▁আবির্ভূত	-10.845243453979492
▁দৃঢ়সংকল্পবদ্ধ	-10.845255851745605
বাগ	-10.845312118530273
▁সত্যতা	-10.845331192016602
▁ধূসর	-10.845358848571777
▁বগুড়া	-10.84537124633789
▁লোকে	-10.845703125
▁ইংরেজিতে	-10.846174240112305
▁নির্দেশক	-10.846227645874023
▁নীতিমালা	-10.846261978149414
▁লেখিকা	-10.846701622009277
▁প্রাসাদ	-10.847280502319336
ন্	-10.84729290008545
▁সবগুলো	-10.847467422485352
▁প্রত্যেকে	-10.847485542297363
▁পড়েছিলেন	-10.847878456115723
▁জঘন্য	-10.847973823547363
▁পৃথিবীব্যাপী	-10.84805679321289
▁রাণী	-10.848331451416016
▁৯৪	-10.848406791687012
▁চিন্তাধারা	-10.848409652709961
▁ইরাক	-10.84874439239502
▁চালক	-10.84888744354248
▁প্রেমে	-10.84895133972168
▁সমতা	-10.849140167236328
▁সম্পূর্ণভাবে	-10.849197387695312
▁বহুল	-10.849509239196777
▁ট্রেনিং	-10.850013732910156
▁বুঝিয়ে	-10.850164413452148
▁পাবার	-10.850187301635742
ঠা	-10.85025691986084
▁আরাম	-10.850265502929688
▁অধিবেশন	-10.850318908691406
▁দিবেন	-10.850493431091309
ব্যাপী	-10.850702285766602
▁আঙ্গুল	-10.850739479064941
▁ভয়ংকর	-10.850752830505371
▁৮৩	-10.850793838500977
▁সম্মত	-10.850817680358887
▁সৈন্যরা	-10.851153373718262
▁ইচ্ছার	-10.851239204406738
▁অটো	-10.851275444030762
▁আজাদ	-10.851399421691895
মেল	-10.851593017578125
▁প্রচেষ্টায়	-10.851845741271973
▁অপ্রয়োজনীয়	-10.852083206176758
▁ফার্ম	-10.8521146774292
▁বইটা	-10.852348327636719
▁সুন্দরী	-10.852396965026855
▁নির্দেশিকা	-10.852694511413574
২০০৯	-10.852842330932617
▁এক্সপ্রেস	-10.853360176086426
▁ডব্লিউ	-10.853407859802246
▁সর্বনিম্ন	-10.85347843170166
▁উপকারী	-10.853480339050293
▁মনোভাবের	-10.85382080078125
▁উদ্	-10.85423469543457
▁জ্বালানি	-10.85428237915039
▁প্রবাসী	-10.85464096069336
▁চিরস্থায়ী	-10.854841232299805
▁খো	-10.855026245117188
▁দুর্ভিক্ষ	-10.855080604553223
▁তারপরেও	-10.855589866638184
▁বিবাদ	-10.855741500854492
▁গণহত্যা	-10.855805397033691
ত্তা	-10.856287956237793
▁তুচ্ছ	-10.856316566467285
▁তারাই	-10.856451988220215
▁নল	-10.85669994354248
▁যতদিন	-10.856738090515137
▁উদ্যোক্তা	-10.857653617858887
খান	-10.857656478881836
কাস	-10.857748031616211
▁একাডেমিক	-10.857789039611816
▁স্থায়ীভাবে	-10.857836723327637
▁থ	-10.85783863067627
জিয়া	-10.857874870300293
▁পর্দা	-10.858046531677246
▁মালা	-10.858110427856445
▁বক্তা	-10.858277320861816
▁সুখের	-10.858396530151367
▁(_	-10.858857154846191
অব	-10.859378814697266
▁ভাষণ	-10.859502792358398
▁খোদাই	-10.85992431640625
▁অ্যাওয়ার্ড	-10.860013008117676
▁মধ্যযুগীয়	-10.860405921936035
▁আকস্মিক	-10.861068725585938
▁কানে	-10.861241340637207
▁শান্তিতে	-10.861273765563965
২০০৭	-10.861337661743164
ধর	-10.861577987670898
বাহী	-10.861628532409668
▁১৯৩৫	-10.861639976501465
▁ঘরোয়া	-10.861873626708984
বর্তী	-10.861960411071777
ক্সি	-10.8623685836792
রাত	-10.86303424835205
▁বৈশ্বিক	-10.863125801086426
▁শহুরে	-10.863125801086426
▁অর্জিত	-10.863134384155273
▁ট্যাব	-10.863219261169434
▁ব্রহ্মপুত্র	-10.86325454711914
▁যমুনা	-10.863353729248047
▁স্ক্রিন	-10.863358497619629
▁ডঃ	-10.863487243652344
▁আজও	-10.863497734069824
▁বিজ্ঞতার	-10.863558769226074
▁থামো	-10.863637924194336
▁পূর্বপুরুষ	-10.863919258117676
পাদটীকা	-10.864006996154785
▁উঠছে	-10.864263534545898
▁আবারো	-10.864297866821289
▁আংশিক	-10.864352226257324
▁ঘোষনা	-10.864510536193848
▁নিউইয়র্ক	-10.864577293395996
▁ব্যবস্থাপক	-10.86474323272705
▁খিলান	-10.864845275878906
▁স্টাফ	-10.864871978759766
▁বিশপ	-10.864999771118164
▁মাপ	-10.865090370178223
▁দক্ষতার	-10.865242958068848
▁১৯৪১	-10.865476608276367
▁পিতামাতা	-10.86562728881836
▁বিদ্রোহের	-10.865813255310059
▁স্থপতি	-10.865915298461914
▁উইন্ডোজ	-10.865943908691406
▁সমবায়	-10.865951538085938
▁কাল্পনিক	-10.865982055664062
▁প্রিন্স	-10.866034507751465
জির	-10.866061210632324
▁বিধিব্যবস্থার	-10.86607551574707
▁বস্তুর	-10.866230010986328
▁টুকরা	-10.866232872009277
২০০০	-10.866301536560059
▁সেইসব	-10.867036819458008
▁সেক্টর	-10.867046356201172
▁বার্তাটি	-10.86716079711914
▁ফিলিস্তিনি	-10.867256164550781
▁গোলে	-10.868287086486816
▁ফাংশন	-10.868694305419922
▁পারছেন	-10.868992805480957
কিং	-10.86912727355957
মির	-10.869599342346191
▁মোহ	-10.869763374328613
ারী	-10.869884490966797
▁সিল	-10.869909286499023
▁দেননি	-10.869997024536133
▁উত্তোলন	-10.870089530944824
িব	-10.870410919189453
▁বোলিং	-10.871088027954102
▁নবী	-10.871408462524414
▁জানিনা	-10.871914863586426
▁নেবার	-10.87244987487793
▁ইয়ো	-10.8725004196167
▁মস্তিষ্ক	-10.872750282287598
▁ধ্বংসাবশেষ	-10.872888565063477
▁নির্দোষ	-10.872899055480957
▁ভুটান	-10.872974395751953
▁বলবো	-10.87319564819336
▁রুমে	-10.873384475708008
▁কোথা	-10.873566627502441
▁এটিই	-10.873804092407227
▁৯২	-10.874134063720703
▁তত্ত্বাবধায়ক	-10.874317169189453
▁দেশটি	-10.874542236328125
▁নির্ভরতা	-10.87502384185791
▁বিবর্তন	-10.875134468078613
াহ	-10.875279426574707
▁অবগত	-10.87540054321289
▁সদয়	-10.875591278076172
▁বন্যার	-10.875617980957031
▁পরিপক্ব	-10.875689506530762
▁প্রযোজনা	-10.875967025756836
স্টি	-10.876184463500977
▁প্রযুক্তিগত	-10.876274108886719
▁শাসকদের	-10.87702751159668
কোট	-10.877129554748535
▁হেড	-10.877165794372559
▁পররাষ্ট্র	-10.87727165222168
▁মৃদু	-10.877412796020508
▁ভীত	-10.877890586853027
▁বিতর্কের	-10.878166198730469
য়েড	-10.878324508666992
▁জড়ো	-10.878520011901855
▁পুড়িয়ে	-10.8785400390625
▁মেরামত	-10.878926277160645
▁ব্যতিক্রম	-10.878948211669922
▁প্রজন্ম	-10.87917709350586
তন্ত্র	-10.879661560058594
াপেক্ষা	-10.879918098449707
▁অস্বাস্থ্যকর	-10.879920959472656
▁কার্যাবলী	-10.87995433807373
আউট	-10.880184173583984
▁প্রথমবার	-10.88046646118164
▁প্রমুখ	-10.880626678466797
দর	-10.880696296691895
▁বাচ্চারা	-10.880779266357422
▁ত্রিপুরা	-10.881373405456543
▁বৈচিত্র্য	-10.881494522094727
▁ঝামেলা	-10.881621360778809
▁মস্তিষ্কের	-10.881710052490234
▁হাইওয়ে	-10.88176441192627
▁আকৃতির	-10.882079124450684
টেল	-10.882168769836426
▁লেন	-10.882620811462402
▁উত্থাপিত	-10.882747650146484
▁সিদ্ধান্তে	-10.883899688720703
ক্রি	-10.884147644042969
ন্ডি	-10.884153366088867
▁কৃষকদের	-10.884570121765137
▁ষড়যন্ত্র	-10.885278701782227
▁১৯২১	-10.885635375976562
▁নাগরিকের	-10.886219024658203
▁উঠা	-10.886249542236328
▁সংখ্যাগরিষ্ঠ	-10.88665771484375
▁ছেলেদের	-10.886882781982422
▁স্বেচ্ছাসেবক	-10.886896133422852
▁ইলেকট্রনিক	-10.886966705322266
▁পেত	-10.88711166381836
▁স্মিথ	-10.88715648651123
সিস	-10.887187957763672
▁ভগ্ন	-10.887550354003906
▁মৌসুমের	-10.887883186340332
▁জ্বর	-10.888692855834961
▁গ্রহন	-10.888969421386719
▁অক্টোবরে	-10.889071464538574
▁সামগ্রিক	-10.889267921447754
▁খুলতে	-10.889331817626953
নেস	-10.889362335205078
▁নীতিনিষ্ঠা	-10.889446258544922
▁হকি	-10.889632225036621
▁চিত্ত	-10.889701843261719
▁ভদ্র	-10.88971996307373
▁ব্যবসার	-10.889763832092285
▁আশঙ্কা	-10.889863014221191
▁হিমালয়	-10.88986587524414
▁ভূগোল	-10.890300750732422
প্রেম	-10.890304565429688
▁অবনতি	-10.89043140411377
▁থাকতেন	-10.890530586242676
ডেল	-10.890835762023926
পত্রিকা	-10.890917778015137
▁মহকুমা	-10.890931129455566
্টি	-10.890941619873047
▁পুনর্সাক্ষাৎ	-10.891279220581055
▁স্লোগান	-10.891304969787598
▁রব	-10.891430854797363
মনা	-10.891551971435547
▁অধীনস্থ	-10.891801834106445
▁গরুর	-10.89206314086914
▁প্রে	-10.892195701599121
▁প্রসঙ্গে	-10.892218589782715
▁শিশুকে	-10.892495155334473
▁বন্দোবস্ত	-10.89277458190918
▁কর্মের	-10.892982482910156
বৃত্তি	-10.893260955810547
▁ডিএনএ	-10.893926620483398
▁ইভেন্ট	-10.894048690795898
▁আখ্যায়িত	-10.894136428833008
▁দ্বৈত	-10.894247055053711
▁বনাম	-10.894522666931152
খু	-10.89465045928955
▁নায়ক	-10.894720077514648
চ্ছি	-10.894922256469727
▁দ্বিতীয়ত	-10.895286560058594
▁প্রতিবাদের	-10.895337104797363
▁৯৯	-10.895383834838867
▁প্রত্যাবর্তন	-10.8955717086792
▁প্রত্নতাত্ত্বিক	-10.895575523376465
▁বিশেষত্ব	-10.895585060119629
▁প্রখ্যাত	-10.895625114440918
▁অর্থনীতিতে	-10.895633697509766
▁এলো	-10.895702362060547
▁মুজিব	-10.895952224731445
যিহোবার	-10.896626472473145
▁৮৪	-10.896788597106934
▁ভদ্রমহিলা	-10.897008895874023
▁ব্লগিং	-10.897045135498047
▁দ্বিগুণ	-10.897047996520996
▁সংঘাত	-10.897258758544922
সংখ্যা	-10.897316932678223
▁এডওয়ার্ড	-10.897316932678223
▁রায়ের	-10.897499084472656
▁ধরেছে	-10.89761734008789
▁জ্ঞাত	-10.8978910446167
▁স্পেস	-10.8978910446167
▁লাইভ	-10.898222923278809
▁দিয়েই	-10.898290634155273
▁ব্যর্থতা	-10.898303031921387
▁নিরুৎসাহিত	-10.898415565490723
▁টেলিযোগাযোগ	-10.898442268371582
▁উপত্যকা	-10.898614883422852
ইস	-10.89863395690918
▁সিকিউরিটি	-10.898725509643555
ঙ্গার	-10.898734092712402
▁নর্থ	-10.898824691772461
▁স্ট্রিট	-10.899060249328613
▁হিসেব	-10.899067878723145
তন	-10.89919376373291
▁নিশ্চিতভাবে	-10.899214744567871
▁সহানুভূতি	-10.899798393249512
▁ঝগড়া	-10.899810791015625
▁অপারেটিং	-10.899879455566406
▁ইঞ্চি	-10.899994850158691
▁প্যাকেজ	-10.900105476379395
▁অংশীদার	-10.900201797485352
▁ফেল	-10.900239944458008
▁পর্বের	-10.900636672973633
▁আইনি	-10.901131629943848
▁হাওড়া	-10.901320457458496
▁কর্মকাণ্ড	-10.90146541595459
▁অগ্র	-10.901481628417969
▁ভক্ত	-10.901679039001465
▁রুপ	-10.90178108215332
▁হট	-10.90210247039795
▁ওয়াই	-10.902151107788086
▁লক	-10.90221881866455
▁মিলিটারি	-10.902830123901367
▁তত্ত্বাবধান	-10.903130531311035
▁থাম	-10.903183937072754
▁পাতার	-10.903726577758789
▁প্লাগ	-10.903775215148926
▁পেট	-10.903915405273438
▁প্রজ্ঞাপন	-10.904267311096191
▁রৌপ্য	-10.904281616210938
▁লোকসংখ্যা	-10.904600143432617
▁বাংলাদেশি	-10.904764175415039
বৃত্ত	-10.905068397521973
▁মহাসাগর	-10.905221939086914
▁ট্রাক	-10.905256271362305
▁সোশ্যাল	-10.905616760253906
▁চলেন	-10.905791282653809
ণা	-10.905882835388184
▁বিরল	-10.905882835388184
▁অষ্টম	-10.906047821044922
▁কথোপকথন	-10.906201362609863
▁বাড়ানোর	-10.906257629394531
কির	-10.906288146972656
▁প্রাণীদের	-10.906834602355957
▁উৎসর্গীকৃত	-10.907177925109863
▁সেনাপতি	-10.90717887878418
▁শিখি	-10.907218933105469
▁গোত্র	-10.90725326538086
▁ঘুমিয়ে	-10.907313346862793
টিং	-10.907854080200195
▁বাকী	-10.907968521118164
▁ভীতি	-10.908182144165039
হীনতা	-10.908393859863281
▁রোগীর	-10.908431053161621
▁রোমাঞ্চকর	-10.90857219696045
▁বাঁশ	-10.908588409423828
▁ব্র্যাক	-10.908608436584473
▁তামাক	-10.908886909484863
▁ট্রি	-10.908973693847656
▁এডমন্ড	-10.90927791595459
▁পর্তুগিজ	-10.909679412841797
▁কর্মচারীদের	-10.909981727600098
▁লিনাক্স	-10.91020679473877
▁ডক্টর	-10.910210609436035
এটি	-10.91035270690918
▁পুতুল	-10.910422325134277
লক	-10.910449028015137
▁ফাঁস	-10.910460472106934
▁বেত	-10.910846710205078
চ্ছে	-10.910871505737305
▁স্রোত	-10.910906791687012
▁ফেসবুকের	-10.911304473876953
▁বন্য	-10.91143798828125
▁সূত্রপাত	-10.91157054901123
▁ধ্বনি	-10.912196159362793
▁সমর্থনে	-10.912375450134277
▁প্রকল্পে	-10.912469863891602
▁কলম্বিয়া	-10.91302490234375
▁দেয়নি	-10.913430213928223
১৯৭২	-10.913468360900879
▁আলোক	-10.913678169250488
▁ধরেন	-10.913922309875488
▁জন্মদিন	-10.914029121398926
▁ম্যারি	-10.91471004486084
যন্ত্র	-10.914813995361328
▁লাশ	-10.91483211517334
স্বাস্থ্যকেন্দ্র	-10.914885520935059
▁মাংসের	-10.914956092834473
▁কেজি	-10.915214538574219
তাকে	-10.91528606414795
▁অনুবাদক	-10.915811538696289
▁তৃণমূল	-10.915852546691895
▁রয়্যাল	-10.915855407714844
▁ন্যস্ত	-10.91585922241211
▁গুপ্তধন	-10.915891647338867
▁যৌথভাবে	-10.915910720825195
▁বানাতে	-10.91599178314209
যখন	-10.91607666015625
▁জনগোষ্ঠী	-10.91612434387207
▁বিভাজন	-10.916190147399902
▁ভয়েস	-10.916374206542969
▁বোতাম	-10.917403221130371
▁খাড়া	-10.917622566223145
ভারত	-10.917998313903809
▁ভাইকে	-10.918126106262207
▁পঞ্চাশ	-10.918415069580078
▁উত্পাদন	-10.918774604797363
▁উপার্জন	-10.918774604797363
▁স্মারক	-10.918896675109863
▁অবহিত	-10.919183731079102
.;	-10.919206619262695
▁নির	-10.919279098510742
▁যুক্তিযুক্ত	-10.919328689575195
▁যাইবে	-10.919422149658203
▁মেঘনা	-10.919622421264648
▁দেশগুলোর	-10.919795989990234
▁প্রচারণার	-10.920324325561523
▁স্বরাষ্ট্র	-10.920644760131836
▁প্রণালী	-10.920823097229004
▁বিপদের	-10.920823097229004
▁উক্তরূপ	-10.920906066894531
▁সিডি	-10.921185493469238
▁অবিলম্বে	-10.921713829040527
▁অক্সফোর্ড	-10.921717643737793
হারা	-10.92210578918457
▁বড়দিন	-10.922152519226074
কারি	-10.922249794006348
▁মঞ্চে	-10.922937393188477
▁পুরাণ	-10.922945022583008
টিভি	-10.92308235168457
▁কাই	-10.923114776611328
▁দুজনেই	-10.923296928405762
▁৯৭	-10.923540115356445
অনেক	-10.923798561096191
▁গেঁথে	-10.924661636352539
▁দৃষ্টিকোণ	-10.924697875976562
▁হুম	-10.924818992614746
▁বাবামার	-10.925104141235352
▁খাঁ	-10.925393104553223
▁টের	-10.92572021484375
মারা	-10.92586612701416
▁ঝুঁকির	-10.926064491271973
▁অভ্যর্থনা	-10.926138877868652
▁সংবাদপত্রের	-10.926138877868652
▁অকৃষি	-10.926194190979004
▁তলায়	-10.926270484924316
▁সাজা	-10.926312446594238
▁মুগ্ধ	-10.92636489868164
▁উৎসর্গীকরণ	-10.926558494567871
▁যুক্তরাজ্যের	-10.9267578125
তী	-10.927009582519531
▁পাখির	-10.92730712890625
▁সরু	-10.927340507507324
▁যোগান	-10.927389144897461
▁বেশিরভাগই	-10.927397727966309
▁কেনার	-10.927416801452637
▁শিল্পে	-10.927530288696289
▁দাতব্য	-10.92762565612793
▁সেপ্টেম্বরে	-10.928045272827148
▁যাপন	-10.928125381469727
▁বারের	-10.928174018859863
বন্ধ	-10.92837142944336
▁রাস্তাটি	-10.928679466247559
▁পর্যটক	-10.928746223449707
▁কমনওয়েলথ	-10.929099082946777
▁শৌল	-10.929194450378418
▁হান্না	-10.929247856140137
▁দর্শকদের	-10.929299354553223
▁আগামীকাল	-10.929732322692871
▁থাইল্যান্ড	-10.929787635803223
▁জামে	-10.930084228515625
কোষ	-10.930102348327637
▁ভবনটি	-10.930182456970215
▁লইয়া	-10.930593490600586
তাঁহার	-10.93082046508789
র্জ	-10.93091106414795
▁হুমকির	-10.930990219116211
▁প্রশাসক	-10.93161678314209
২০০৮	-10.931663513183594
▁সায়েন্স	-10.93203353881836
▁অভিনীত	-10.932159423828125
▁আবর্জনা	-10.93224811553955
▁ধা	-10.932265281677246
▁দিল্লির	-10.93228530883789
দ্দ	-10.932292938232422
▁উপকূল	-10.932832717895508
▁শিক্ষাবিদ	-10.933030128479004
▁ঘূর্ণিঝড়	-10.933076858520508
▁ষাট	-10.93356990814209
২০০১	-10.933646202087402
▁চ্যাম্পিয়ন	-10.933756828308105
▁পলিসি	-10.934046745300293
▁সমুদয়	-10.934053421020508
ফিল্ড	-10.934253692626953
▁হাইস্কুল	-10.934758186340332
▁ইরানি	-10.934767723083496
▁বলিদান	-10.934795379638672
২০১৪	-10.93510627746582
প্রদান	-10.935151100158691
নির্	-10.935317993164062
তল	-10.935319900512695
ন্ন	-10.93539810180664
▁কোর্টের	-10.93545913696289
▁নৌবাহিনীর	-10.935791969299316
▁পাত	-10.935798645019531
▁মানা	-10.936541557312012
াদ	-10.936594009399414
▁রণ	-10.936670303344727
▁চূর্ণ	-10.93679428100586
▁রাজত্বের	-10.936806678771973
▁ক্যান	-10.937070846557617
▁ফোল্ডারে	-10.937190055847168
▁বাবু	-10.937267303466797
▁কিউ	-10.937376976013184
▁শুন	-10.937536239624023
▁ভাবা	-10.93784236907959
▁অনধিক	-10.93793773651123
▁পরিত্যক্ত	-10.938035011291504
▁অন্তর্ভূক্ত	-10.938103675842285
▁ফাইনাল	-10.938172340393066
ঞ্জি	-10.938230514526367
▁টুল	-10.93835735321045
▁জুতা	-10.938419342041016
▁ছবিগুলো	-10.938740730285645
▁জয়ের	-10.938966751098633
▁রাজবংশের	-10.939446449279785
▁গুন	-10.939535140991211
▁মুক্তিযোদ্ধাদের	-10.939676284790039
▁আকবর	-10.939684867858887
শত	-10.93973445892334
▁অটল	-10.939752578735352
▁পেলাম	-10.939857482910156
▁প্রকাশকদের	-10.940089225769043
▁কবির	-10.940262794494629
▁অনা	-10.94034194946289
▁পুর	-10.940540313720703
▁অস্পষ্ট	-10.940589904785156
▁অনুপাত	-10.9408540725708
▁হলাম	-10.941169738769531
দশ	-10.941333770751953
▁দরজায়	-10.941831588745117
▁১৯৩৮	-10.942286491394043
▁মাইক্রো	-10.942550659179688
▁পিছিয়ে	-10.942564010620117
▁সত্যে	-10.942599296569824
▁গর্ত	-10.942601203918457
নাল	-10.942669868469238
▁খাতের	-10.943036079406738
লাই	-10.9433012008667
▁বাড়াতে	-10.9433012008667
▁প্যান	-10.943305015563965
▁বিভ্রান্ত	-10.943438529968262
▁গ্লাস	-10.944771766662598
প্রকাশ	-10.94486141204834
▁সমাধানের	-10.945259094238281
▁জায়গাটা	-10.945281028747559
▁নৈতিকতা	-10.945319175720215
▁ধর্মে	-10.94537353515625
▁উপহাস	-10.945446968078613
▁প্রেসিডেন্সি	-10.945542335510254
▁আরোগ্য	-10.945676803588867
▁বর্ধমান	-10.945708274841309
▁দ্বিধা	-10.945733070373535
ানোর	-10.946199417114258
▁অবাধ্য	-10.946516036987305
▁আর্থার	-10.946781158447266
▁পর্নোগ্রাফি	-10.946915626525879
কুই	-10.94824504852295
▁সময়কাল	-10.948260307312012
▁ডিস	-10.948310852050781
▁কর্ণ	-10.948354721069336
▁লগইন	-10.948807716369629
▁ইন্দো	-10.948809623718262
▁চিন	-10.949207305908203
চক	-10.949304580688477
▁মোটামুটি	-10.949484825134277
▁১১০	-10.949514389038086
▁পূ	-10.949752807617188
▁দোকানে	-10.949878692626953
মোহন	-10.950078964233398
▁লাঠি	-10.95012092590332
▁১৯৩২	-10.950188636779785
বৎ	-10.950311660766602
▁১৯৩১	-10.950339317321777
সেট	-10.950411796569824
▁যেগুলি	-10.95050048828125
▁ইয়োবের	-10.950522422790527
বাবা	-10.951106071472168
▁জীবনধারা	-10.95122241973877
▁গ্রন্থের	-10.951245307922363
▁ট্রফি	-10.951395988464355
্টন	-10.951502799987793
▁ক্রিস	-10.951534271240234
বোন	-10.951536178588867
▁মোতাবেক	-10.951589584350586
▁স্যানিটেশন	-10.951589584350586
▁বুড়ো	-10.951615333557129
▁নিয়ন্ত্রক	-10.95169734954834
▁প্রশ্নোত্তর	-10.951715469360352
▁বাস্তবায়নের	-10.952380180358887
▁হাসপাতালের	-10.952667236328125
▁তুমিই	-10.952860832214355
▁স্বাক্ষরিত	-10.952947616577148
সেন্ট	-10.953192710876465
▁এইডস	-10.953194618225098
▁খাম	-10.953314781188965
▁রাত্রি	-10.953529357910156
▁একজনের	-10.953771591186523
▁ইন্টারনেটের	-10.954140663146973
▁দেখব	-10.954522132873535
▁পিছু	-10.954785346984863
যাত্রাপুস্তক	-10.954901695251465
▁লাগলো	-10.955121040344238
▁মুক্তিপ্রাপ্ত	-10.955137252807617
▁ফিল্ড	-10.955155372619629
▁কষ্টকর	-10.955385208129883
দেব	-10.9559965133667
▁স্যাম	-10.956304550170898
▁রেন্ট	-10.95659351348877
▁নিরাপদে	-10.956604957580566
কস	-10.95673656463623
▁ব্যাংকিং	-10.957210540771484
লেস	-10.95745849609375
▁আগা	-10.957648277282715
▁ফরিদপুর	-10.958032608032227
াক	-10.958301544189453
পের	-10.958844184875488
▁দুর	-10.959210395812988
▁নগরে	-10.959245681762695
▁অগ্রাহ্য	-10.959272384643555
▁নির্গত	-10.95956802368164
▁উন্নতির	-10.959702491760254
▁চারিদিকে	-10.959705352783203
▁প্রথমদিকে	-10.959775924682617
▁ইমেইল	-10.959826469421387
টেক	-10.959827423095703
▁ব্যাক্তি	-10.959909439086914
▁ফ্রান্সে	-10.960082054138184
▁ইস্রায়েলীয়	-10.960193634033203
▁কাঁটা	-10.960249900817871
▁অ্যাল	-10.960412979125977
▁পড়াশুনা	-10.960729598999023
▁খাজনা	-10.96073055267334
▁জিনিসটা	-10.961748123168945
▁কিউবা	-10.961870193481445
▁দেশটিতে	-10.961891174316406
মতি	-10.96192455291748
পবিত্র	-10.962119102478027
লন	-10.962177276611328
▁মিলন	-10.962379455566406
কেন	-10.963401794433594
▁রক্ষণাবেক্ষণ	-10.96353816986084
▁ছবিটা	-10.963651657104492
▁ধরণ	-10.963685989379883
কট	-10.963752746582031
▁গিয়া	-10.964091300964355
▁আশার	-10.964223861694336
▁তাস	-10.964373588562012
▁লেগেছে	-10.964462280273438
▁পড়ো	-10.96464729309082
▁ব্রোশার	-10.964672088623047
▁লাইনে	-10.964900970458984
▁করাতে	-10.965081214904785
▁দম	-10.965105056762695
▁চেয়ার	-10.9652681350708
▁ফেরার	-10.965333938598633
▁মার্শাল	-10.965370178222656
▁নাটকে	-10.965375900268555
জাতি	-10.965412139892578
▁ব্যবস্থাপনার	-10.965489387512207
েক	-10.96562385559082
▁দেখাও	-10.966463088989258
ত্য	-10.96668815612793
▁ফেডারেল	-10.966874122619629
▁চেম্বার	-10.966903686523438
▁উদ্বোধনী	-10.967045783996582
▁য	-10.967084884643555
▁কার্বন	-10.967101097106934
▁সৃষ্টিকর্তার	-10.967403411865234
▁মুদ্রার	-10.967411994934082
২০১৫	-10.967669486999512
▁সবক	-10.967752456665039
▁ভীষণ	-10.967788696289062
▁বিচিত্র	-10.967822074890137
ওয়েল	-10.9678955078125
▁পালিত	-10.96793270111084
▁কর্মকর্তার	-10.967964172363281
▁প্যারিস	-10.968117713928223
ডন	-10.968215942382812
ট্টা	-10.968441009521484
▁সতর্কবাণী	-10.96846866607666
▁|	-10.968873023986816
▁পেজ	-10.969094276428223
▁এসিড	-10.969304084777832
▁ব্রিটেন	-10.969437599182129
▁কলুষিত	-10.970015525817871
▁প্লে	-10.97011661529541
▁রাসেল	-10.97020149230957
▁ঘোষণার	-10.970380783081055
▁প্রতিবন্ধকতা	-10.970582008361816
▁বাঘ	-10.970852851867676
▁বসা	-10.971195220947266
▁দেখবে	-10.971435546875
▁ব্যাবসা	-10.971495628356934
▁প্রচ্ছদ	-10.971500396728516
▁অভ্যস্ত	-10.971512794494629
▁ট্রেডমার্ক	-10.971537590026855
▁সমাদর	-10.97162914276123
▁গণমাধ্যম	-10.97163200378418
দেহ	-10.971755981445312
▁বেস	-10.97177791595459
ানন্দ	-10.972168922424316
▁হেরে	-10.972309112548828
▁নামিয়ে	-10.972390174865723
▁জড়	-10.972585678100586
িরা	-10.972907066345215
▁কুয়েত	-10.972970008850098
▁লাহোর	-10.973021507263184
নিউ	-10.97304630279541
▁আরোহণ	-10.973048210144043
▁পরিচালনায়	-10.973081588745117
▁যোনা	-10.973220825195312
▁খেতাব	-10.973287582397461
যার	-10.973478317260742
ক্ষা	-10.973567962646484
সাল	-10.97364330291748
▁থি	-10.973647117614746
▁অধিবাসীদের	-10.973663330078125
▁বেদনা	-10.973666191101074
▁ফলক	-10.973675727844238
▁দেখবেন	-10.973856925964355
রুপ	-10.973912239074707
▁ভালবাসে	-10.973983764648438
▁ধারে	-10.974299430847168
▁পাহাড়ি	-10.97434139251709
▁অনুভূতির	-10.974433898925781
▁ইব্রাহিম	-10.97459602355957
▁অবজ্ঞা	-10.975347518920898
▁চুক্তিতে	-10.975350379943848
▁তুলা	-10.975353240966797
্যান্ট	-10.975540161132812
▁৮৭	-10.975553512573242
▁লাগা	-10.975748062133789
▁ভূত	-10.975863456726074
▁ক্যাপ	-10.976028442382812
▁বেথেলে	-10.976151466369629
▁গাজা	-10.976163864135742
▁গোপনীয়তা	-10.976343154907227
▁মানিয়ে	-10.976896286010742
▁ঢেকে	-10.976978302001953
▁জাপানী	-10.977349281311035
▁নূর	-10.977423667907715
▁আলা	-10.97761058807373
▁বিকশিত	-10.977704048156738
▁বছরগুলোতে	-10.97773551940918
▁দেবো	-10.97790813446045
▁রক্ষণশীল	-10.977998733520508
▁কর্মসূচী	-10.978083610534668
▁বদ্ধ	-10.978163719177246
▁ইতালীয়	-10.978570938110352
শালা	-10.978593826293945
▁আর্টস	-10.978861808776855
▁ততই	-10.978880882263184
▁নিম্নরূপ	-10.978973388671875
▁তলা	-10.979156494140625
▁যৌনতা	-10.979207038879395
▁মেধা	-10.979218482971191
▁সেক্রেটারি	-10.979262351989746
▁সাব্যস্ত	-10.979329109191895
▁পরিহার	-10.979477882385254
▁পৃষ্ঠ	-10.979710578918457
▁শেল	-10.979872703552246
▁যিহুদিদের	-10.979985237121582
রিস	-10.980439186096191
▁চার্চের	-10.980441093444824
▁গোল্ড	-10.980474472045898
▁মোড	-10.98058795928955
▁রেমিটেন্স	-10.980822563171387
▁বহাল	-10.980913162231445
▁নক্ষত্র	-10.981040000915527
▁পলায়ন	-10.981085777282715
▁স্টাইল	-10.981155395507812
▁স্নায়ু	-10.981195449829102
য়েভ	-10.981250762939453
▁হাতি	-10.981683731079102
▁১৯৩৬	-10.98221206665039
▁ট্রাফিক	-10.982394218444824
▁ভিডিওর	-10.982586860656738
▁১৯২২	-10.98261833190918
▁১৯১৮	-10.983360290527344
▁চড়ে	-10.983448028564453
▁দেখাবে	-10.983914375305176
▁কাঁঠাল	-10.983949661254883
▁প্রাচীনতম	-10.984102249145508
▁সোমবার	-10.984221458435059
▁শৈলী	-10.984502792358398
্লি	-10.985051155090332
িয়াম	-10.985394477844238
▁আত্মসমর্পণ	-10.985516548156738
▁মুর্শিদাবাদ	-10.985556602478027
▁সাহা	-10.985625267028809
▁অনন্তকাল	-10.985747337341309
িমা	-10.986053466796875
▁খনিজ	-10.986215591430664
▁গরু	-10.986289978027344
▁সময়কার	-10.986902236938477
▁নিক	-10.987140655517578
▁চিঠিতে	-10.98720932006836
ষণ	-10.987346649169922
▁আইকন	-10.987403869628906
▁তাড়া	-10.98750114440918
▁পেল	-10.987518310546875
▁পাতলা	-10.987616539001465
▁মণ্ডলীকে	-10.987700462341309
▁শিল্পকলা	-10.987792015075684
▁সত্যকে	-10.987834930419922
▁নির্দেশনার	-10.987971305847168
▁ফায়ার	-10.988018035888672
▁বিষয়কে	-10.98804759979248
▁কয়েকদিন	-10.988286972045898
▁বিশ্বাসে	-10.988486289978027
▁বিষয়শ্রেণী	-10.988490104675293
মিয়া	-10.988595008850098
▁অভিনন্দন	-10.988658905029297
▁প্রেক্ষাপটে	-10.988725662231445
▁ভারসন	-10.989018440246582
▁কমই	-10.989137649536133
▁ম্যাপ	-10.989241600036621
পাস	-10.98935604095459
▁পায়নি	-10.989459037780762
রেখা	-10.989513397216797
▁আর্জেন্টিনা	-10.989727973937988
▁সেন্সর	-10.990254402160645
্ল	-10.990531921386719
▁রাশি	-10.990599632263184
▁ছুটে	-10.990646362304688
▁আগেও	-10.990696907043457
▁জোন	-10.990802764892578
▁ভূমিহীন	-10.990822792053223
▁পরমদেশে	-10.990873336791992
▁হিন্দুদের	-10.991202354431152
▁মাত্রার	-10.991562843322754
▁ভাববাণী	-10.991851806640625
▁পারস্য	-10.991904258728027
▁জাগতিক	-10.991937637329102
▁আইস	-10.991952896118164
▁দাঁড়	-10.992204666137695
▁শিখেছি	-10.992913246154785
▁জীবাণু	-10.993354797363281
জিন	-10.994099617004395
▁চিনতে	-10.994671821594238
▁কার্যক্রমে	-10.994741439819336
▁স্বত্ব	-10.994803428649902
বিশ্বস্ত	-10.994918823242188
▁ইম্পোর্ট	-10.994973182678223
▁প্রতীয়মান	-10.994973182678223
▁উন্মোচন	-10.994974136352539
▁মূল্যবোধ	-10.994982719421387
▁মনকে	-10.994983673095703
▁বুকমার্ক	-10.99505615234375
যোগ	-10.995936393737793
▁রাজবংশ	-10.995942115783691
লাস	-10.996709823608398
▁শোষণ	-10.996749877929688
▁মোটর	-10.996781349182129
▁ফাইনালে	-10.997098922729492
▁বাঁচাতে	-10.997519493103027
▁মারতে	-10.998064041137695
▁বিষাক্ত	-10.998152732849121
▁দৈহিক	-10.998211860656738
পস	-10.998727798461914
মায়ের	-10.99889087677002
বর্তমানে	-10.998992919921875
মোর	-10.999162673950195
▁জিম	-10.999253273010254
▁প্রকাশ্যে	-10.999714851379395
▁ল্যাঙ্গুয়েজ	-10.999734878540039
▁সর্বোপরি	-10.999734878540039
▁রেজা	-10.99985122680664
▁পাশ্চাত্য	-10.999863624572754
▁সহস্র	-10.99993896484375
▁আইনটি	-11.000249862670898
▁অসহায়	-11.000271797180176
▁কারাগার	-11.000288009643555
▁একতাবদ্ধ	-11.000694274902344
▁অব্যাহতি	-11.000710487365723
▁তর	-11.00072193145752
▁গাই	-11.000752449035645
বীর	-11.000884056091309
▁আসত	-11.000923156738281
▁উপজাতি	-11.001055717468262
▁শাহের	-11.001205444335938
▁লং	-11.001269340515137
▁দূষিত	-11.00132942199707
▁ধূমপান	-11.001331329345703
▁বৃষ্টির	-11.001336097717285
▁গ্রামীণফোন	-11.00135326385498
▁মার্কেট	-11.001471519470215
▁ঘাট	-11.001533508300781
বড়	-11.001592636108398
▁কালা	-11.001938819885254
▁গুণগুলো	-11.002020835876465
▁উদ্দিন	-11.00218391418457
যিহোবা	-11.002403259277344
ক্র	-11.002714157104492
▁অধ্যায়ের	-11.002817153930664
ড়ী	-11.002917289733887
গী	-11.003166198730469
▁চাচ্ছি	-11.003216743469238
▁বিস্ফোরণ	-11.003541946411133
▁পাইবে	-11.003639221191406
▁সিংহাসনে	-11.003817558288574
▁ছন্দ	-11.003823280334473
▁সেজন্য	-11.00388240814209
ধু	-11.003998756408691
সুবিধা	-11.004091262817383
▁হার্ড	-11.00411319732666
চো	-11.004402160644531
▁চেপে	-11.004744529724121
▁উপকারজনক	-11.004788398742676
▁ব্রাউজার	-11.004989624023438
▁খলিফা	-11.005094528198242
▁সৈন্যবাহিনী	-11.005348205566406
▁থাইল্যান্ডের	-11.005399703979492
▁দিও	-11.00548267364502
▁নিজেরাই	-11.005547523498535
িংয়ের	-11.005733489990234
▁কেস	-11.005887031555176
যিশা	-11.006446838378906
▁যিহূদার	-11.006484031677246
▁বাঁচিয়ে	-11.006490707397461
বোর্ড	-11.0067720413208
▁নারীবাদী	-11.006958961486816
▁ট্যাপ	-11.007347106933594
▁জাম	-11.00757884979248
টাইম	-11.007623672485352
▁শমূ	-11.007718086242676
▁ক্রিয়েটিভ	-11.007722854614258
য়াং	-11.00776195526123
▁স্বার্থে	-11.007879257202148
▁অভিবাসন	-11.00823974609375
পাত্র	-11.00845718383789
▁ফ্যাক্টরি	-11.008561134338379
▁বন্ধুবান্ধব	-11.008872985839844
ত্বের	-11.009180068969727
▁তোমায়	-11.009554862976074
▁পাচ্ছেন	-11.010415077209473
তাদের	-11.010552406311035
কোর	-11.010738372802734
▁জাহাজে	-11.010847091674805
▁শব্দটা	-11.010863304138184
অনু	-11.010875701904297
▁পূর্বাভাস	-11.010984420776367
▁বোতল	-11.011377334594727
▁ঠেলে	-11.011480331420898
▁ক্রা	-11.011516571044922
▁ভালবাসেন	-11.011683464050293
▁সঙ্গীতের	-11.011739730834961
▁বোলার	-11.011783599853516
▁শোনেন	-11.011795997619629
▁মাধ্যমের	-11.012189865112305
▁সুফি	-11.01220417022705
▁জাদু	-11.012208938598633
▁মেনু	-11.012532234191895
▁সিম	-11.012532234191895
▁অবতরণ	-11.012545585632324
▁অভিযানে	-11.012596130371094
▁প্যানেল	-11.01292896270752
▁মসজিদটি	-11.013087272644043
▁হিংস্র	-11.013402938842773
▁পছন্দের	-11.01364803314209
▁স্টেশনের	-11.014023780822754
য়াস	-11.014097213745117
▁ডিভিশন	-11.014214515686035
▁পরিকল্পিত	-11.014240264892578
পূর্বে	-11.014249801635742
▁এলে	-11.014464378356934
তোমাদের	-11.014559745788574
▁রোমের	-11.014664649963379
▁ভূমিকম্পের	-11.014890670776367
▁ব্যবস্থাকে	-11.01498031616211
▁সাথি	-11.015426635742188
▁দোষারোপ	-11.01577377319336
▁শুমারি	-11.015804290771484
▁ক্ষতির	-11.015975952148438
▁দেশগুলোতে	-11.015998840332031
সামাজিক	-11.01611042022705
▁স্পেনীয়	-11.016563415527344
▁অসীম	-11.016818046569824
▁আনোয়ার	-11.016830444335938
▁চাকুরি	-11.016852378845215
▁প্রত্যয়	-11.017341613769531
▁বক্তৃতার	-11.017626762390137
কর্তা	-11.017958641052246
▁মাউন্ট	-11.018073081970215
▁নভেম্বরে	-11.018126487731934
▁সিঁড়ি	-11.018281936645508
▁সালাম	-11.018417358398438
▁ঐক্য	-11.018625259399414
মতো	-11.01885986328125
▁ফ্রেঞ্চ	-11.0191068649292
▁সমৃদ্ধি	-11.019209861755371
▁খেল	-11.019218444824219
ীভূত	-11.019675254821777
▁রেশম	-11.019937515258789
▁প্রজ্ঞার	-11.020007133483887
▁কুমারী	-11.020072937011719
সত্য	-11.020075798034668
▁মঙ্গলের	-11.020482063293457
▁স্টাডি	-11.020547866821289
▁প্ল্যাটফর্ম	-11.020637512207031
▁ধোঁয়া	-11.020638465881348
▁অজ্ঞাত	-11.020766258239746
▁লেনদেন	-11.020928382873535
▁সংখ্যালঘু	-11.020970344543457
▁সততা	-11.02149772644043
▁পৌর	-11.02157974243164
▁লাগানোর	-11.021919250488281
▁খোলার	-11.021984100341797
▁ব্যাকরণ	-11.02220344543457
▁গাণিতিক	-11.022262573242188
▁সমবেত	-11.022262573242188
▁ভাববিনিময়	-11.022282600402832
দিনের	-11.022351264953613
▁ভ্রাতা	-11.022459030151367
ফুল	-11.022549629211426
▁পূর্ণাঙ্গ	-11.022590637207031
িটি	-11.023064613342285
▁৭৯	-11.024039268493652
▁ব্র	-11.024201393127441
▁অতীব	-11.024248123168945
▁করানোর	-11.02478313446045
▁লাই	-11.025093078613281
▁নাক	-11.025146484375
▁উড়ে	-11.025189399719238
▁প্রয়াস	-11.025666236877441
▁ঘড়ি	-11.025708198547363
২০০৫	-11.026002883911133
▁সিন	-11.026095390319824
চিত্ত	-11.0261869430542
▁সংঘর্ষের	-11.026201248168945
িদের	-11.02636432647705
▁মহামারী	-11.026416778564453
▁কাটাতে	-11.02706527709961
▁সঞ্চালন	-11.027219772338867
▁কেনা	-11.02754020690918
▁যুবতী	-11.02760124206543
▁বর্ষণ	-11.027847290039062
▁সাইটে	-11.028221130371094
▁অন্ধকারে	-11.028389930725098
▁খাই	-11.02844524383545
+	-11.0286226272583
▁দরুন	-11.0288667678833
▁কলম	-11.02900505065918
পন্ন	-11.029409408569336
▁যেখান	-11.029576301574707
▁জানাচ্ছেন	-11.029592514038086
▁ইউটিউবে	-11.029681205749512
▁১৯২৯	-11.029716491699219
▁তাও	-11.0297269821167
▁ভরসা	-11.029827117919922
গল	-11.030096054077148
▁সমস্যাগুলো	-11.030252456665039
▁ডোমেইন	-11.030442237854004
▁গর্ভপাত	-11.03045654296875
▁বলিউড	-11.030608177185059
ভু	-11.030640602111816
ত্	-11.030891418457031
▁সভাতে	-11.03091812133789
লির	-11.031129837036133
▁বিগ	-11.031177520751953
বিচার	-11.03124713897705
▁কন্ট্রোল	-11.031318664550781
▁২৫০	-11.031364440917969
▁ইল	-11.031612396240234
▁সাফ	-11.031936645507812
▁চ্যাপলিন	-11.03210163116455
▁প্যারা	-11.03230094909668
▁বসবাসরত	-11.03231143951416
▁বাণিজ্যের	-11.032344818115234
র্ড	-11.032601356506348
▁প্রণয়নের	-11.032711029052734
▁ফাঁদ	-11.032804489135742
ীতে	-11.033080101013184
▁নার্স	-11.033116340637207
▁মৌখিক	-11.033123016357422
▁বোধগম্যতা	-11.033387184143066
▁জজ	-11.033462524414062
▁সাইবার	-11.033506393432617
▁পুরা	-11.033517837524414
▁ভট্টাচার্য	-11.033720970153809
▁ভিউ	-11.033883094787598
▁এসএমএস	-11.033987998962402
শাসিত	-11.034072875976562
▁ভোজ	-11.034420013427734
▁সেগুলির	-11.034626007080078
▁তোমাদেরকে	-11.035124778747559
▁১৯৩৩	-11.035380363464355
▁বর্জ্য	-11.03555965423584
▁আশায়	-11.035572052001953
ানা	-11.035663604736328
▁পুত্রকে	-11.035822868347168
▁হাস	-11.035869598388672
▁সস্তা	-11.036227226257324
▁ছেলেমেয়ে	-11.036299705505371
▁সিঙ্গাপুরের	-11.036559104919434
▁সীমান্তে	-11.036710739135742
▁আবির্ভাব	-11.037016868591309
▁আইয়ুব	-11.037017822265625
▁প্রোফাইল	-11.037025451660156
▁গাঢ়	-11.0370512008667
▁শোন	-11.037063598632812
▁বাড়ছে	-11.037066459655762
▁ডজন	-11.037389755249023
▁বেইজিং	-11.037454605102539
▁আন্তরিকভাবে	-11.037496566772461
▁আদায়ের	-11.037534713745117
▁বাদশাহ	-11.037775039672852
ক্ষেত্র	-11.037822723388672
▁গোড়ার	-11.037853240966797
▁বিয়ার	-11.03796672821045
▁আশেপাশে	-11.037973403930664
▁নিয়েছিলাম	-11.038121223449707
▁পরিতৃপ্তি	-11.03818416595459
▁দুষ্টতা	-11.038196563720703
▁বৈধতা	-11.038328170776367
▁ব্যাবহার	-11.038468360900879
▁চিংড়ি	-11.038676261901855
▁লোকই	-11.038954734802246
▁দুজনের	-11.038969039916992
▁গভীরতা	-11.03899097442627
▁প্ল্যান	-11.039033889770508
▁হিরো	-11.039064407348633
▁পট	-11.039165496826172
▁ব্যাপারটি	-11.039420127868652
▁কথার	-11.03946304321289
▁মিউজিয়াম	-11.040326118469238
▁দীর্ঘস্থায়ী	-11.040379524230957
▁শুনি	-11.040857315063477
▁মহারাষ্ট্র	-11.04090404510498
▁পড়লে	-11.040971755981445
▁ফো	-11.041038513183594
▁পালনের	-11.041759490966797
▁প্রাপ্তির	-11.041763305664062
▁সম্প্রসারিত	-11.042016983032227
▁রোগীদের	-11.042033195495605
▁একাদশ	-11.042563438415527
▁১৯২৮	-11.042922019958496
ধন	-11.043397903442383
▁কোম্পানীর	-11.043481826782227
▁হুগলি	-11.043661117553711
ঢ	-11.0438871383667
পশ্চিমে	-11.04421615600586
▁কক্ষে	-11.044320106506348
জাই	-11.044857025146484
▁মালিকের	-11.04490852355957
▁বিকাশের	-11.045572280883789
▁৮২	-11.045676231384277
▁ইয়েমেন	-11.045914649963379
▁প্রবেশপথ	-11.04635238647461
াঞ্চল	-11.046639442443848
▁৯৬	-11.046931266784668
▁বাড়ানো	-11.04696273803711
ভঙ্গ	-11.04727840423584
▁আগ্রহজনক	-11.047293663024902
▁স্বার্থপর	-11.047416687011719
▁বর্ষা	-11.047642707824707
▁ফির	-11.047734260559082
▁হিম	-11.047927856445312
▁উপাসকদের	-11.047938346862793
▁উপস্থিতির	-11.048022270202637
▁গেজেটে	-11.048494338989258
স্তান	-11.048582077026367
২০০	-11.04868221282959
▁দেশকে	-11.048776626586914
▁সামর্থ্য	-11.048827171325684
▁রোগী	-11.048998832702637
▁কথাও	-11.049180030822754
▁বসন্ত	-11.04923152923584
▁মুসা	-11.049322128295898
টাও	-11.04936408996582
▁হারায়	-11.049437522888184
▁দেখিয়েছে	-11.049758911132812
▁হাওয়া	-11.050042152404785
▁নিয়ন্ত্রন	-11.05031681060791
▁বিজনেস	-11.050324440002441
স্টা	-11.050552368164062
▁দেখেছিল	-11.050566673278809
▁সাধারন	-11.05068302154541
▁বিছানা	-11.050910949707031
▁হাঁ	-11.050971031188965
বাক্য	-11.051017761230469
▁শার্ট	-11.051229476928711
দেখ	-11.051288604736328
▁মেলে	-11.051444053649902
ল্লি	-11.051628112792969
▁বেকার	-11.051769256591797
▁একদিকে	-11.051863670349121
▁চক্রবর্তী	-11.05202865600586
▁আড্ডা	-11.052033424377441
▁ছুরি	-11.052419662475586
▁ময়লা	-11.052438735961914
থে	-11.052529335021973
পক্ষ	-11.05276870727539
▁সময়েই	-11.052772521972656
▁বিলি	-11.052852630615234
▁ন্যা	-11.052969932556152
▁ভোটার	-11.053152084350586
২০০৪	-11.053422927856445
▁বুকে	-11.053624153137207
▁গৌড়	-11.053749084472656
শ্চ	-11.054994583129883
▁ঈদ	-11.055466651916504
▁পাপী	-11.055549621582031
▁ভবিষ্যত	-11.055633544921875
ৎস	-11.055816650390625
▁গাওয়া	-11.056295394897461
▁ইয়েমেনের	-11.056373596191406
▁বিশ্বকাপে	-11.056607246398926
▁মজুরি	-11.056671142578125
▁বীমাকারী	-11.056951522827148
▁তন্মধ্যে	-11.057035446166992
ইয়ে	-11.057781219482422
সুলভ	-11.058035850524902
▁লেডি	-11.058286666870117
▁নাটকের	-11.058477401733398
▁শীর্ষচরণ	-11.058749198913574
▁ট্রা	-11.058816909790039
▁অপরদিকে	-11.058825492858887
ব্বা	-11.05893325805664
▁আমিই	-11.059030532836914
▁চারটে	-11.05905818939209
▁অবি	-11.059107780456543
হাট	-11.059112548828125
অথবা	-11.059151649475098
ক্ট	-11.060480117797852
▁পরিবেশগত	-11.06052017211914
▁শেখানো	-11.060585021972656
▁পূর্বেই	-11.0606689453125
দয়া	-11.06075382232666
▁শালা	-11.060891151428223
াইড	-11.060958862304688
▁বসানো	-11.061112403869629
▁পড়ল	-11.06122875213623
▁ক্রু	-11.061412811279297
পথে	-11.061546325683594
▁প্রতিভা	-11.061636924743652
▁স্বীয়	-11.061810493469238
▁বিড়াল	-11.06203842163086
▁মাঝারি	-11.062129020690918
▁মন্ত্র	-11.062206268310547
▁ইয়র্কের	-11.062494277954102
▁ক্যাম্পাস	-11.062830924987793
▁জ্ঞানী	-11.063055038452148
▁ফোর্স	-11.063185691833496
▁ফ্যা	-11.063411712646484
▁সেঞ্চুরি	-11.063797950744629
▁কাভারেজের	-11.063813209533691
▁পাসপোর্ট	-11.06383991241455
▁ক্রমে	-11.06446361541748
▁চট্টগ্রামে	-11.064583778381348
াত্মক	-11.0648775100708
▁স্থানীয়ভাবে	-11.06493854522705
▁উঠল	-11.065274238586426
▁যো	-11.065469741821289
▁অস্ট্রেলীয়	-11.065540313720703
▁টাঙ্গাইল	-11.065585136413574
▁বন্টন	-11.06558609008789
▁স্বাস্থ্যসেবা	-11.06562328338623
জাল	-11.065653800964355
▁কুরআন	-11.06566333770752
▁নিষ্কাশন	-11.065666198730469
▁পরপরই	-11.065875053405762
যান	-11.065987586975098
লিপি	-11.066433906555176
েদ	-11.06659984588623
▁বাহরাইন	-11.066651344299316
ধার	-11.06695556640625
▁টেলিভিশনে	-11.066978454589844
▁নিয়েছি	-11.06700611114502
িয়াস	-11.067059516906738
বিভাগ	-11.067317008972168
▁পাল্টা	-11.067343711853027
▁হতেন	-11.067765235900879
▁ভবিষ্যদ্বাণীর	-11.067877769470215
▁ফেলেন	-11.068068504333496
▁তত্ত্বাবধানে	-11.068825721740723
দক্ষিণ	-11.0691556930542
▁মানবজাতিকে	-11.06929874420166
▁অঞ্চলটি	-11.069323539733887
▁ব্রিটিশদের	-11.069374084472656
▁ধার্য	-11.06942081451416
বার্ট	-11.069751739501953
▁এরিক	-11.0697603225708
পাকিস্তান	-11.070133209228516
▁যেতাম	-11.070246696472168
▁ইয়াং	-11.070566177368164
▁সাধু	-11.070585250854492
▁বর্ষসেরা	-11.070618629455566
▁স্বামীকে	-11.07065486907959
▁নেতৃত্বাধীন	-11.070701599121094
▁সমস্যায়	-11.071389198303223
▁নিয়মের	-11.072183609008789
টান	-11.072185516357422
▁ভাগাভাগি	-11.072314262390137
▁নিম্নোক্ত	-11.072331428527832
▁প্রশিক্ষিত	-11.072361946105957
▁শিল্পকর্ম	-11.07248306274414
▁তরুণদের	-11.072635650634766
▁কাকে	-11.072976112365723
▁গতিতে	-11.073495864868164
▁সার্বিক	-11.073504447937012
যুবতীদের	-11.07352066040039
▁গাইড	-11.073670387268066
▁বলতেন	-11.073710441589355
▁৯৮	-11.073859214782715
▁মহাযাজক	-11.074049949645996
▁তাজা	-11.074070930480957
▁ধরেছেন	-11.074092864990234
চল	-11.074185371398926
▁সংস্কৃতিতে	-11.074187278747559
▁মেজাজ	-11.074234962463379
▁অবিশ্বাস্য	-11.074260711669922
▁যুবরাজ	-11.074301719665527
্সের	-11.074371337890625
▁দেখছে	-11.074590682983398
রেন	-11.074918746948242
▁হেসে	-11.075546264648438
▁প্রাণপণ	-11.075782775878906
▁পুরোপুরিভাবে	-11.075785636901855
ট্রা	-11.07603645324707
উপদেশক	-11.076202392578125
▁উন্নয়নশীল	-11.076428413391113
▁ক্লাসে	-11.076789855957031
▁আড়াল	-11.076982498168945
▁বিস্ময়	-11.077044486999512
▁মৌল	-11.07707691192627
মৃত্যু	-11.07732105255127
▁সাদৃশ্য	-11.077375411987305
▁আলোকপাত	-11.077493667602539
গুন	-11.077510833740234
▁স্বচ্ছ	-11.077558517456055
▁উভয়েই	-11.077652931213379
▁দর্শনের	-11.0777587890625
▁প্রমান	-11.077798843383789
াবে	-11.07780647277832
▁খেলেছেন	-11.077824592590332
▁হাসিনা	-11.077963829040527
দেশের	-11.07811450958252
▁উসমানীয়	-11.078219413757324
▁পদ্মা	-11.078304290771484
বিধান	-11.07841682434082
▁স্কোর	-11.078421592712402
▁ব্লকের	-11.07876205444336
▁মামলায়	-11.078871726989746
▁মর্মে	-11.078944206237793
▁শিলালিপি	-11.079014778137207
▁কমেডি	-11.079124450683594
▁জিতে	-11.080111503601074
ঙ্গো	-11.08061408996582
▁মেষপালক	-11.080636978149414
▁দীপ্তি	-11.080672264099121
▁ইজ	-11.080719947814941
সেস	-11.08076000213623
▁জ্যেষ্ঠ	-11.08100414276123
▁আক	-11.081147193908691
▁নিয়োগের	-11.08145523071289
▁ওয়েন	-11.081528663635254
▁অদ্বিতীয়	-11.081711769104004
সিদ্ধ	-11.08176040649414
ড়িয়া	-11.081958770751953
▁সুবিধার	-11.081976890563965
▁নিকটতম	-11.082048416137695
▁মর্	-11.082442283630371
মানব	-11.082730293273926
▁কতখানি	-11.082738876342773
▁গন্তব্য	-11.082817077636719
▁সাংবাদিকতা	-11.082907676696777
▁ব্র্যান্ড	-11.083023071289062
▁ইন্ডিজ	-11.083961486816406
▁ইয়ার	-11.084097862243652
লিস	-11.084118843078613
▁টেক	-11.08419132232666
▁দরখাস্ত	-11.084362983703613
▁ট্যাক্সি	-11.084390640258789
▁লীগে	-11.084709167480469
▁উপাদানের	-11.084768295288086
গম	-11.0847806930542
▁কাগজে	-11.084848403930664
▁সুরক্ষার	-11.084929466247559
▁বিলম্ব	-11.084999084472656
্জ	-11.085017204284668
▁স্টাডিজ	-11.08505630493164
▁যাত্রার	-11.085321426391602
▁পূর্ণরূপে	-11.085686683654785
▁সবকিছুই	-11.085786819458008
▁জাগ	-11.085829734802246
জীবী	-11.085886001586914
▁ট্রাইব্যুনাল	-11.086054801940918
▁পৌরাণিক	-11.086095809936523
▁ঘরবাড়ি	-11.086325645446777
▁কর্ম্ম	-11.086406707763672
বার্গ	-11.086746215820312
প্রথম	-11.086923599243164
▁সেনাবাহিনীতে	-11.086996078491211
▁করিয়াছে	-11.087371826171875
▁লেখায়	-11.08739185333252
▁সংশোধনী	-11.087396621704102
▁কথাগুলোর	-11.088106155395508
▁ভালোবাসেন	-11.08824348449707
সিটি	-11.088371276855469
▁ঘুর	-11.088570594787598
মণি	-11.088930130004883
য়ু	-11.089119911193848
র্দ	-11.089322090148926
▁চাইবে	-11.089408874511719
▁পাঠিয়েছিলেন	-11.089768409729004
▁চল্লিশ	-11.089930534362793
▁বাষ্প	-11.089954376220703
▁বিষয়টাকে	-11.09028434753418
▁প্রস্ত্তত	-11.090666770935059
▁ঘণ্টার	-11.090902328491211
▁পীর	-11.091124534606934
▁মিন	-11.091124534606934
▁পুস্তিকা	-11.0913724899292
র্ধ	-11.091409683227539
বুক	-11.091830253601074
▁বিদ্যুত	-11.092011451721191
▁চাকরির	-11.092016220092773
▁সমুদ্রে	-11.092424392700195
ঙ্গু	-11.092432975769043
▁স্টেডিয়ামে	-11.092571258544922
২০০২	-11.092611312866211
▁শব্দটির	-11.092833518981934
▁মুন	-11.092869758605957
▁ভেদ	-11.092897415161133
াবলি	-11.092930793762207
▁হইলে	-11.092933654785156
▁বেদনাদায়ক	-11.093085289001465
▁শরীফ	-11.09316635131836
▁খে	-11.093379974365234
▁পৃ	-11.093648910522461
পুরে	-11.093660354614258
▁সহবিশ্বাসীদের	-11.093684196472168
▁অত	-11.09382438659668
একটা	-11.094064712524414
▁মাহ	-11.094064712524414
▁খ্রিষ্টাব্দে	-11.094285011291504
মায়েরা	-11.094426155090332
▁আশ	-11.094727516174316
▁আত্মীয়স্বজন	-11.09481430053711
▁দড়ি	-11.094891548156738
▁কাঠামোর	-11.094918251037598
[...]
