<unk>	0.0
<s>	0.0
</s>	0.0
.	-3.193406105041504
▁the	-3.2177090644836426
,	-3.257627487182617
▁of	-3.679600477218628
▁and	-3.963878870010376
s	-3.977787494659424
▁to	-3.991680860519409
▁in	-4.138851165771484
▁a	-4.279409885406494
'	-4.630885601043701
▁is	-4.844376087188721
▁that	-5.041765213012695
-	-5.093103885650635
▁for	-5.10168981552124
▁was	-5.147119998931885
▁"	-5.194180488586426
▁The	-5.286225318908691
▁on	-5.348083019256592
▁I	-5.404189586639404
▁(	-5.435144424438477
▁with	-5.445196628570557
▁as	-5.483548164367676
?	-5.484935760498047
▁you	-5.532116413116455
▁by	-5.55417013168335
▁be	-5.577654838562012
▁are	-5.6350274085998535
)	-5.643909454345703
▁it	-5.660109043121338
:	-5.665011882781982
▁his	-5.6904730796813965
▁from	-5.703207015991211
▁not	-5.778308868408203
▁he	-5.884669780731201
▁have	-5.884831428527832
▁or	-5.906177997589111
▁-	-5.915881633758545
▁at	-5.922255039215088
▁this	-5.962247371673584
t	-6.017395973205566
▁an	-6.032025337219238
ing	-6.0372724533081055
▁we	-6.066906452178955
"	-6.077364444732666
▁In	-6.176122188568115
▁will	-6.198936939239502
▁has	-6.227199077606201
▁were	-6.240495204925537
▁their	-6.247735977172852
ed	-6.2477922439575195
▁	-6.300171852111816
▁who	-6.322571277618408
▁can	-6.355425834655762
▁one	-6.371365547180176
;	-6.378326416015625
▁they	-6.383896827697754
▁He	-6.399079322814941
▁Jehovah	-6.405940055847168
!	-6.4142656326293945
▁had	-6.415956497192383
▁all	-6.419889450073242
▁God	-6.444591045379639
."	-6.477411270141602
▁which	-6.5099616050720215
▁It	-6.544795036315918
d	-6.5561628341674805
▁about	-6.596069812774658
▁also	-6.611317157745361
▁but	-6.6269378662109375
▁our	-6.630865097045898
▁A	-6.634317874908447
▁do	-6.636993885040283
▁people	-6.640538692474365
▁your	-6.653163433074951
a	-6.675293922424316
▁been	-6.679549217224121
▁him	-6.735561370849609
▁what	-6.753042697906494
▁time	-6.760336875915527
▁them	-6.771623134613037
▁me	-6.773377895355225
▁her	-6.779635906219482
▁us	-6.814047813415527
▁other	-6.830935955047607
▁when	-6.850518703460693
▁my	-6.855595588684082
▁out	-6.860689640045166
m	-6.870511531829834
▁up	-6.879038333892822
▁more	-6.900058746337891
▁first	-6.905841827392578
▁would	-6.913629055023193
▁What	-6.926460266113281
▁so	-6.958573818206787
ly	-6.965520858764648
▁there	-6.970062732696533
▁You	-6.971667766571045
▁may	-7.012021541595459
▁Bangladesh	-7.017382621765137
▁some	-7.024136543273926
▁such	-7.035209655761719
▁This	-7.045656681060791
e	-7.057030200958252
▁no	-7.057451248168945
▁Jesus	-7.062376499176025
▁[	-7.076113700866699
▁its	-7.081125259399414
▁'	-7.082111835479736
▁Bible	-7.087531089782715
er	-7.093202114105225
▁into	-7.096883773803711
re	-7.108179569244385
▁We	-7.115504741668701
▁life	-7.131228923797607
▁any	-7.13886022567749
▁than	-7.140493392944336
▁two	-7.144944190979004
▁if	-7.174338340759277
▁under	-7.179182052612305
▁over	-7.184964179992676
▁many	-7.193906307220459
▁like	-7.194382667541504
▁only	-7.200958728790283
▁years	-7.202734470367432
y	-7.204288005828857
▁she	-7.215473175048828
▁after	-7.219423770904541
]	-7.231279373168945
▁did	-7.238682746887207
▁work	-7.299351692199707
▁made	-7.30221700668335
i	-7.307664394378662
▁those	-7.3193440437316895
▁these	-7.329889297485352
▁world	-7.334481716156006
▁But	-7.336256980895996
...	-7.342281341552734
▁said	-7.3678507804870605
▁know	-7.371161460876465
▁India	-7.3737359046936035
▁1	-7.381694316864014
th	-7.38828182220459
▁could	-7.393932342529297
▁how	-7.39594841003418
▁new	-7.425251007080078
▁should	-7.427842140197754
▁They	-7.429558753967285
▁And	-7.433341979980469
▁now	-7.440195560455322
▁government	-7.4529218673706055
▁How	-7.4568095207214355
▁most	-7.468233108520508
▁way	-7.468571186065674
▁make	-7.473461151123047
es	-7.475888729095459
▁good	-7.479115009307861
▁2	-7.493780136108398
▁being	-7.503068923950195
▁man	-7.5056304931640625
▁then	-7.513307571411133
▁day	-7.520148754119873
▁No	-7.530848026275635
al	-7.538545608520508
▁where	-7.539212703704834
▁through	-7.550172328948975
▁She	-7.550224781036377
▁just	-7.557910919189453
in	-7.5607781410217285
▁against	-7.561191082000732
▁As	-7.562714099884033
▁used	-7.563689231872559
▁well	-7.564258575439453
▁help	-7.57293701171875
▁even	-7.581989288330078
▁part	-7.5969367027282715
▁If	-7.596965312957764
▁see	-7.604173183441162
r	-7.60471248626709
/	-7.613574981689453
▁country	-7.617140293121338
I	-7.625713348388672
▁get	-7.6268181800842285
,"	-7.632743835449219
▁between	-7.640902996063232
▁because	-7.642503261566162
▁during	-7.6547136306762695
▁family	-7.655876636505127
ll	-7.658893585205078
▁go	-7.659080505371094
▁right	-7.659602642059326
▁take	-7.662749290466309
▁before	-7.6670427322387695
),	-7.671006202697754
▁very	-7.675374984741211
n	-7.684602737426758
▁need	-7.695437908172607
▁use	-7.703972339630127
▁here	-7.71715784072876
▁name	-7.724650859832764
▁back	-7.743309497833252
▁On	-7.744343280792236
▁year	-7.7444047927856445
S	-7.744575500488281
▁There	-7.749974250793457
▁love	-7.752026557922363
▁three	-7.756846904754639
▁When	-7.758720874786377
▁does	-7.762144088745117
▁For	-7.766374111175537
▁come	-7.771754264831543
▁Bengal	-7.772764205932617
▁want	-7.793808460235596
b	-7.795515060424805
▁So	-7.800045967102051
▁Indian	-7.8204474449157715
▁children	-7.824405193328857
the	-7.824558734893799
▁down	-7.831660270690918
▁own	-7.838557720184326
o	-7.848440170288086
▁number	-7.859152793884277
▁others	-7.859769344329834
The	-7.867281436920166
▁must	-7.873596668243408
▁same	-7.883116245269775
▁things	-7.887606143951416
▁don	-7.890193939208984
▁place	-7.895598888397217
▁That	-7.903956413269043
▁state	-7.907527923583984
▁3	-7.910817623138428
▁person	-7.915866374969482
▁much	-7.919402122497559
ve	-7.923557758331299
▁called	-7.936967849731445
▁known	-7.937845230102539
▁became	-7.947352886199951
▁found	-7.961618423461914
▁shall	-7.965170383453369
an	-7.970486640930176
▁long	-7.971921443939209
▁while	-7.972968578338623
▁After	-7.973010063171387
▁another	-7.9748334884643555
c	-7.986936569213867
▁death	-7.994391441345215
▁city	-7.9949188232421875
▁film	-7.9971723556518555
▁At	-7.998985290527344
▁women	-7.9997687339782715
▁water	-8.018939971923828
▁Dhaka	-8.022921562194824
▁Pakistan	-8.023481369018555
▁human	-8.027379989624023
▁system	-8.028139114379883
▁To	-8.033716201782227
▁home	-8.03381633758545
▁Why	-8.033930778503418
▁University	-8.038925170898438
▁both	-8.039935111999512
▁New	-8.041394233703613
▁each	-8.042412757873535
▁later	-8.044374465942383
▁district	-8.047894477844238
▁say	-8.051667213439941
▁still	-8.052933692932129
A	-8.055700302124023
▁different	-8.064290046691895
▁give	-8.073098182678223
▁become	-8.079545974731445
▁page	-8.083168983459473
▁Paul	-8.085659980773926
▁His	-8.085893630981445
).	-8.091224670410156
▁took	-8.091463088989258
▁came	-8.09826946258545
▁Kingdom	-8.098352432250977
▁men	-8.1051607131958
▁end	-8.105781555175781
▁think	-8.1068754196167
▁Christian	-8.107025146484375
▁World	-8.10843276977539
▁including	-8.108577728271484
▁example	-8.113849639892578
▁Do	-8.12081527709961
▁last	-8.13167953491211
▁power	-8.133877754211426
▁One	-8.134873390197754
▁School	-8.13487720489502
▁population	-8.138178825378418
▁10	-8.13853931427002
▁service	-8.139298439025879
▁However	-8.146392822265625
▁6	-8.14664363861084
▁never	-8.154684066772461
▁century	-8.157705307006836
▁important	-8.15827465057373
▁un	-8.162704467773438
▁5	-8.163939476013184
▁C	-8.164042472839355
▁All	-8.169605255126953
▁every	-8.171255111694336
▁book	-8.17158031463623
▁around	-8.173322677612305
▁since	-8.175701141357422
▁4	-8.17587947845459
▁great	-8.176726341247559
▁find	-8.177701950073242
▁father	-8.178149223327637
▁order	-8.178494453430176
▁John	-8.179825782775879
▁days	-8.180493354797363
▁says	-8.184303283691406
.-	-8.191097259521484
▁15	-8.197283744812012
▁got	-8.200090408325195
▁school	-8.202364921569824
▁area	-8.205845832824707
▁public	-8.207823753356934
▁without	-8.207948684692383
▁set	-8.20796012878418
▁too	-8.214739799499512
E	-8.236384391784668
▁United	-8.237201690673828
▁going	-8.238191604614258
▁E	-8.239738464355469
▁Khan	-8.243440628051758
▁show	-8.248303413391113
▁S	-8.248641967773438
man	-8.251341819763184
▁means	-8.254831314086914
▁among	-8.25764274597168
▁following	-8.260159492492676
▁land	-8.267736434936523
▁earth	-8.268003463745117
k	-8.269857406616211
▁off	-8.275588035583496
▁Christ	-8.279658317565918
▁second	-8.282236099243164
▁war	-8.286776542663574
▁national	-8.291248321533203
▁group	-8.291452407836914
."-	-8.29350757598877
or	-8.294930458068848
▁again	-8.294934272766113
▁Witnesses	-8.299360275268555
▁might	-8.299448013305664
▁political	-8.301321983337402
▁few	-8.305583953857422
▁why	-8.307602882385254
▁20	-8.311944007873535
C	-8.312703132629395
▁news	-8.312917709350586
▁local	-8.31350040435791
▁times	-8.31436538696289
▁away	-8.314811706542969
▁am	-8.314892768859863
▁National	-8.315133094787598
▁four	-8.315540313720703
▁study	-8.317755699157715
▁heart	-8.31791877746582
▁spirit	-8.318047523498535
▁today	-8.321166038513184
▁re	-8.321219444274902
able	-8.324230194091797
▁left	-8.324328422546387
ar	-8.32584285736084
▁started	-8.32856273651123
▁law	-8.335240364074707
ers	-8.337982177734375
▁won	-8.338733673095703
▁Some	-8.340118408203125
▁began	-8.342171669006348
▁B	-8.350622177124023
▁12	-8.351272583007812
▁Al	-8.355225563049316
pur	-8.356304168701172
▁17	-8.35649585723877
▁information	-8.357341766357422
▁words	-8.362942695617676
▁high	-8.363736152648926
▁old	-8.365551948547363
▁young	-8.365623474121094
▁wrote	-8.366586685180664
▁given	-8.36962604522705
h	-8.37000560760498
▁case	-8.370672225952148
▁language	-8.373878479003906
▁house	-8.379145622253418
to	-8.379510879516602
▁faith	-8.384430885314941
▁put	-8.38681697845459
▁Christians	-8.390828132629395
▁keep	-8.394036293029785
▁until	-8.39439868927002
▁age	-8.39523696899414
▁members	-8.395760536193848
▁son	-8.395889282226562
▁May	-8.39770221710205
▁16	-8.399499893188477
▁true	-8.4007568359375
▁social	-8.403050422668457
▁English	-8.403118133544922
▁early	-8.405036926269531
▁million	-8.407805442810059
▁7	-8.408385276794434
▁congregation	-8.40937328338623
▁little	-8.409429550170898
▁#	-8.409576416015625
▁de	-8.41018295288086
▁education	-8.411269187927246
▁...	-8.41130256652832
▁something	-8.411741256713867
▁live	-8.413260459899902
▁hand	-8.416436195373535
ness	-8.41834545135498
ul	-8.418773651123047
▁often	-8.423685073852539
▁College	-8.425413131713867
▁spiritual	-8.432181358337402
▁Act	-8.433706283569336
▁course	-8.43614387512207
▁Government	-8.439233779907227
▁March	-8.441895484924316
▁period	-8.443323135375977
▁himself	-8.445096015930176
▁born	-8.445633888244629
▁several	-8.447599411010742
ic	-8.454039573669434
▁km	-8.461236000061035
?"	-8.462118148803711
ur	-8.465155601501465
▁8	-8.46644115447998
▁let	-8.467098236083984
▁support	-8.467355728149414
▁held	-8.469012260437012
▁British	-8.472821235656738
▁mother	-8.473943710327148
▁Muslim	-8.477556228637695
▁These	-8.483769416809082
",	-8.486198425292969
g	-8.487822532653809
na	-8.492435455322266
▁read	-8.493348121643066
▁look	-8.494636535644531
▁small	-8.498645782470703
▁within	-8.500849723815918
▁South	-8.503886222839355
▁making	-8.505377769470215
▁9	-8.506767272949219
▁My	-8.506914138793945
▁14	-8.508478164672852
▁(1	-8.509156227111816
▁18	-8.511242866516113
▁money	-8.514299392700195
▁non	-8.514307975769043
▁full	-8.514762878417969
▁food	-8.515429496765137
▁five	-8.515701293945312
▁parents	-8.518341064453125
▁feel	-8.518974304199219
▁large	-8.520868301391602
on	-8.520916938781738
▁religious	-8.521907806396484
▁next	-8.52196216583252
▁Peter	-8.5221529006958
▁child	-8.522308349609375
▁along	-8.52241325378418
▁11	-8.523743629455566
ra	-8.527094841003418
▁countries	-8.528462409973145
▁went	-8.530048370361328
▁member	-8.532892227172852
▁able	-8.534515380859375
▁best	-8.535118103027344
▁told	-8.535511016845703
▁result	-8.536639213562012
▁December	-8.536827087402344
l	-8.539069175720215
▁An	-8.539630889892578
▁media	-8.540630340576172
B	-8.5409574508667
▁truth	-8.543437004089355
▁history	-8.546344757080078
▁doing	-8.54777717590332
▁present	-8.548460960388184
▁upon	-8.552253723144531
▁team	-8.554113388061523
▁East	-8.554856300354004
▁West	-8.555526733398438
▁January	-8.556717872619629
▁With	-8.560235023498535
▁development	-8.560263633728027
▁received	-8.562291145324707
▁though	-8.566315650939941
▁word	-8.567181587219238
en	-8.5672025680542
▁War	-8.569409370422363
".	-8.569732666015625
▁U	-8.571500778198242
▁message	-8.57164478302002
▁International	-8.573088645935059
▁13	-8.573322296142578
▁always	-8.573457717895508
▁published	-8.574342727661133
u	-8.575026512145996
▁having	-8.576380729675293
▁taken	-8.57668399810791
▁April	-8.578109741210938
▁established	-8.578535079956055
ta	-8.578863143920898
M	-8.580185890197754
▁free	-8.583273887634277
▁mind	-8.588078498840332
▁form	-8.588882446289062
▁thought	-8.59218978881836
▁High	-8.593384742736816
▁By	-8.593661308288574
▁really	-8.598407745361328
ity	-8.602285385131836
▁open	-8.603326797485352
▁students	-8.603422164916992
▁far	-8.608449935913086
▁video	-8.615327835083008
▁M	-8.615660667419434
la	-8.6181001663208
▁body	-8.61994743347168
▁rate	-8.621682167053223
▁wife	-8.622934341430664
▁woman	-8.629073143005371
▁however	-8.629332542419434
▁post	-8.62979793548584
▁From	-8.632131576538086
▁view	-8.636170387268066
▁police	-8.643314361572266
▁role	-8.644699096679688
▁died	-8.644943237304688
▁together	-8.645349502563477
▁head	-8.64547061920166
▁living	-8.64607048034668
▁ever	-8.647408485412598
▁gave	-8.651147842407227
le	-8.652361869812012
▁August	-8.652798652648926
▁Then	-8.65331745147705
▁done	-8.653610229492188
▁tell	-8.653932571411133
▁various	-8.658515930175781
▁According	-8.661223411560059
▁less	-8.661925315856934
▁@	-8.66256046295166
▁During	-8.663187026977539
▁special	-8.66530704498291
▁better	-8.665457725524902
▁June	-8.66814136505127
▁side	-8.668745994567871
ism	-8.67029857635498
▁change	-8.67129898071289
▁face	-8.673357963562012
▁Now	-8.676451683044434
▁T	-8.681069374084473
▁international	-8.68185806274414
▁named	-8.682271957397461
▁cannot	-8.688398361206055
▁call	-8.689589500427246
▁believe	-8.690521240234375
▁October	-8.693878173828125
▁President	-8.695018768310547
▁Many	-8.6969633102417
▁fact	-8.697455406188965
▁based	-8.69760513305664
▁night	-8.697936058044434
▁brother	-8.69961166381836
▁19	-8.700247764587402
▁O	-8.70347785949707
▁July	-8.703856468200684
▁due	-8.704912185668945
▁Yes	-8.70542049407959
▁using	-8.708552360534668
▁ones	-8.708827018737793
▁main	-8.71196174621582
▁D	-8.713264465332031
▁learn	-8.713980674743652
▁February	-8.714947700500488
▁Israel	-8.718774795532227
▁killed	-8.718945503234863
▁States	-8.72195816040039
▁played	-8.723130226135254
▁American	-8.72620964050293
▁30	-8.72653865814209
▁brothers	-8.726775169372559
▁King	-8.728882789611816
▁near	-8.729548454284668
▁November	-8.731095314025879
▁point	-8.73127555847168
▁K	-8.733941078186035
ation	-8.736204147338867
▁hope	-8.737330436706543
▁rights	-8.74194622039795
▁village	-8.742267608642578
▁asked	-8.742448806762695
▁League	-8.743102073669434
▁general	-8.743938446044922
▁Be	-8.748858451843262
▁include	-8.750092506408691
▁Award	-8.751171112060547
▁September	-8.75406551361084
▁Let	-8.754441261291504
▁Minister	-8.7545747756958
▁seen	-8.755537033081055
▁located	-8.762613296508789
▁control	-8.762885093688965
▁Word	-8.763169288635254
▁knowledge	-8.76480484008789
▁themselves	-8.766327857971191
▁activities	-8.767759323120117
▁David	-8.768746376037598
▁community	-8.769059181213379
▁Our	-8.771076202392578
▁possible	-8.773199081420898
p	-8.777425765991211
▁close	-8.777982711791992
▁already	-8.778487205505371
li	-8.779594421386719
▁company	-8.779635429382324
▁Ali	-8.782238960266113
▁ministry	-8.784457206726074
▁report	-8.785161018371582
▁per	-8.786553382873535
▁areas	-8.792492866516113
▁kind	-8.793196678161621
▁major	-8.793383598327637
T	-8.7988862991333
▁saw	-8.799007415771484
▁health	-8.799768447875977
▁thing	-8.799972534179688
▁army	-8.800753593444824
st	-8.801365852355957
▁building	-8.801432609558105
▁P	-8.805580139160156
▁&	-8.809088706970215
▁matter	-8.810739517211914
▁list	-8.811102867126465
▁average	-8.8128662109375
▁reason	-8.814273834228516
▁min	-8.816035270690918
▁former	-8.816115379333496
at	-8.81635570526123
▁future	-8.817543029785156
▁whole	-8.817761421203613
▁Your	-8.81801986694336
▁China	-8.818963050842285
▁mean	-8.821892738342285
▁common	-8.822712898254395
us	-8.822957038879395
ist	-8.824905395507812
▁F	-8.82570743560791
▁personal	-8.82719612121582
ion	-8.827808380126953
▁s	-8.82848834991455
▁office	-8.829854965209961
born	-8.830573081970215
▁bring	-8.831172943115234
▁female	-8.832737922668457
▁Go	-8.832744598388672
▁once	-8.833925247192383
▁Not	-8.83570384979248
▁District	-8.836138725280762
▁care	-8.837799072265625
▁sent	-8.84204387664795
▁yet	-8.842613220214844
▁peace	-8.843634605407715
▁light	-8.845074653625488
▁field	-8.84537410736084
▁self	-8.846917152404785
▁account	-8.846942901611328
▁marriage	-8.846972465515137
▁region	-8.847213745117188
ma	-8.847221374511719
▁line	-8.848858833312988
▁G	-8.852173805236816
▁real	-8.85279655456543
▁written	-8.8532133102417
▁freedom	-8.853538513183594
▁talk	-8.85385513305664
▁question	-8.855006217956543
▁business	-8.855374336242676
▁series	-8.85594654083252
▁share	-8.858203887939453
▁Ministry	-8.85924243927002
▁military	-8.859450340270996
ment	-8.859549522399902
▁led	-8.860163688659668
▁created	-8.860689163208008
▁situation	-8.863273620605469
ia	-8.866561889648438
▁hard	-8.867292404174805
▁25	-8.867864608764648
▁understand	-8.86803150177002
▁capital	-8.869719505310059
▁Can	-8.870752334594727
▁sure	-8.871861457824707
▁file	-8.873839378356934
▁anything	-8.874004364013672
▁months	-8.874348640441895
▁brought	-8.87683391571045
K	-8.877169609069824
▁Are	-8.878602027893066
▁six	-8.88017749786377
▁purpose	-8.882407188415527
▁movement	-8.883580207824707
▁working	-8.883735656738281
▁modern	-8.889747619628906
▁society	-8.889881134033203
▁taking	-8.890162467956543
▁total	-8.890515327453613
D	-8.894116401672363
less	-8.895965576171875
▁north	-8.898103713989258
▁short	-8.899515151977539
▁lost	-8.900773048400879
▁dead	-8.901415824890137
▁town	-8.901446342468262
▁Cup	-8.902568817138672
il	-8.905969619750977
▁fine	-8.907204627990723
▁General	-8.910110473632812
▁nothing	-8.911227226257324
▁level	-8.91281795501709
▁Who	-8.91423511505127
▁start	-8.914533615112305
▁21	-8.916814804077148
ri	-8.917145729064941
▁worship	-8.91788101196289
▁play	-8.918880462646484
▁etc	-8.920469284057617
▁lives	-8.921186447143555
▁sub	-8.921217918395996
▁party	-8.92131519317627
de	-8.921631813049316
▁rule	-8.924190521240234
▁ask	-8.92431640625
▁Re	-8.924440383911133
▁meeting	-8.92808723449707
▁bad	-8.928634643554688
▁considered	-8.929089546203613
f	-8.931378364562988
da	-8.93160629272461
▁built	-8.932415962219238
▁soon	-8.935604095458984
▁Islam	-8.938370704650879
▁Even	-8.939188003540039
▁literacy	-8.94213581085205
▁past	-8.94311237335205
▁leave	-8.943191528320312
▁someone	-8.943352699279785
▁project	-8.94379711151123
▁interest	-8.94499397277832
ya	-8.945903778076172
2	-8.946829795837402
▁Father	-8.94778060913086
▁provide	-8.947813034057617
▁reading	-8.948342323303223
▁Langdon	-8.949175834655762
▁river	-8.950660705566406
N	-8.950915336608887
▁ancient	-8.95140266418457
te	-8.951695442199707
▁story	-8.95177936553955
▁especially	-8.95228099822998
▁served	-8.953685760498047
▁Satan	-8.953866958618164
▁Asia	-8.954200744628906
▁didn	-8.955999374389648
▁eyes	-8.958351135253906
▁While	-8.960946083068848
▁music	-8.96189022064209
▁Bengali	-8.962945938110352
▁whom	-8.964225769042969
▁Is	-8.964232444763184
▁serve	-8.964334487915039
▁Don	-8.96731948852539
▁Best	-8.967419624328613
▁Africa	-8.967630386352539
▁Since	-8.968328475952148
▁coming	-8.970409393310547
▁State	-8.972432136535645
▁article	-8.972513198852539
▁Corinthians	-8.975851058959961
▁popular	-8.976740837097168
▁al	-8.977460861206055
up	-8.977642059326172
▁blood	-8.979373931884766
▁least	-8.981575965881348
▁24	-8.984837532043457
▁problems	-8.985092163085938
▁Mr	-8.985214233398438
▁single	-8.98807144165039
▁cause	-8.990436553955078
▁Lord	-8.990644454956055
▁works	-8.992141723632812
▁half	-8.992318153381348
▁appointed	-8.992432594299316
▁continue	-8.993019104003906
▁Where	-8.994306564331055
▁available	-8.995110511779785
▁List	-8.995265007019043
▁further	-8.996872901916504
▁saying	-8.998686790466309
▁husband	-8.999671936035156
▁released	-8.999951362609863
per	-9.00001335144043
▁(2	-9.000627517700195
▁Day	-9.001134872436523
▁problem	-9.002115249633789
▁moved	-9.002593994140625
▁week	-9.004740715026855
▁wrong	-9.00693416595459
7	-9.007305145263672
▁Well	-9.00767707824707
▁position	-9.008807182312012
▁research	-9.009324073791504
▁road	-9.011963844299316
▁temple	-9.012975692749023
-19	-9.013903617858887
▁court	-9.016531944274902
▁return	-9.01714038848877
▁experience	-9.017311096191406
▁questions	-9.01736068725586
▁1,	-9.017459869384766
▁US	-9.018768310546875
▁issue	-9.020283699035645
▁felt	-9.021193504333496
ry	-9.02145004272461
▁ago	-9.021648406982422
▁America	-9.02170467376709
▁institutions	-9.021892547607422
▁Although	-9.024541854858398
▁blog	-9.024637222290039
5	-9.024818420410156
▁turn	-9.026228904724121
▁needed	-9.026571273803711
▁act	-9.029335975646973
▁People	-9.030363082885742
▁friends	-9.031235694885254
z	-9.034708023071289
▁whether	-9.036505699157715
▁lead	-9.037064552307129
▁Shah	-9.037176132202148
▁certain	-9.038229942321777
▁Oh	-9.03823471069336
▁final	-9.038655281066895
▁apostle	-9.039029121398926
▁run	-9.040143966674805
▁Because	-9.040366172790527
ka	-9.040655136108398
▁according	-9.04177188873291
▁Matthew	-9.042348861694336
am	-9.042567253112793
▁almost	-9.042781829833984
▁married	-9.043435096740723
▁king	-9.044344902038574
no	-9.045504570007324
▁books	-9.045727729797363
as	-9.047122955322266
▁outside	-9.048260688781738
▁career	-9.048660278320312
▁upazila	-9.05007553100586
▁Bangla	-9.050620079040527
▁co	-9.051519393920898
▁stop	-9.051887512207031
▁formed	-9.051985740661621
▁enough	-9.055418968200684
▁class	-9.057873725891113
▁R	-9.058767318725586
▁North	-9.060239791870117
▁male	-9.062638282775879
▁Union	-9.063451766967773
▁joined	-9.064477920532227
▁similar	-9.067709922790527
▁training	-9.069625854492188
▁Council	-9.071276664733887
3	-9.071494102478027
▁religion	-9.074508666992188
▁station	-9.075096130371094
▁election	-9.075308799743652
Picture	-9.07724666595459
▁official	-9.077542304992676
ni	-9.077826499938965
▁move	-9.078413009643555
▁image	-9.078557014465332
G	-9.078630447387695
▁security	-9.079957962036133
▁current	-9.080146789550781
▁event	-9.080782890319824
▁wanted	-9.081191062927246
▁ways	-9.081533432006836
▁friend	-9.082390785217285
▁third	-9.082695960998535
▁nation	-9.083264350891113
▁Her	-9.086153030395508
▁late	-9.086700439453125
▁City	-9.087644577026367
▁continued	-9.088229179382324
▁consider	-9.090202331542969
▁economic	-9.090569496154785
▁attention	-9.090744018554688
▁east	-9.091309547424316
▁force	-9.091350555419922
▁Of	-9.09259033203125
▁23	-9.092857360839844
▁Please	-9.093341827392578
▁Upazila	-9.095039367675781
P	-9.09504508972168
▁foreign	-9.096001625061035
▁Law	-9.096273422241211
▁provided	-9.098221778869629
▁follow	-9.098817825317383
0	-9.10116195678711
▁strong	-9.101415634155273
▁culture	-9.10304069519043
▁Court	-9.103914260864258
▁president	-9.105743408203125
ne	-9.106587409973145
▁respect	-9.107500076293945
time	-9.107778549194336
▁22	-9.107942581176758
▁J	-9.109538078308105
▁cricket	-9.110457420349121
▁speak	-9.110625267028809
▁across	-9.115233421325684
▁Twitter	-9.115591049194336
▁Hindu	-9.11684513092041
and	-9.117568016052246
▁involved	-9.118332862854004
▁south	-9.119407653808594
▁needs	-9.119483947753906
▁e	-9.120088577270508
▁fellow	-9.120357513427734
O	-9.120453834533691
▁rest	-9.120745658874512
di	-9.120759010314941
▁market	-9.122213363647461
▁private	-9.122633934020996
▁Commission	-9.126501083374023
▁everything	-9.127613067626953
▁L	-9.12762451171875
▁Dr	-9.128485679626465
el	-9.128666877746582
▁holy	-9.129676818847656
▁behind	-9.130104064941406
▁action	-9.132392883300781
▁heard	-9.13333797454834
▁Europe	-9.134105682373047
it	-9.135509490966797
▁try	-9.136295318603516
▁faithful	-9.137226104736328
F	-9.138594627380371
▁higher	-9.139708518981934
▁month	-9.140454292297363
▁fear	-9.141210556030273
!"	-9.142616271972656
▁Most	-9.143305778503418
▁included	-9.143692970275879
▁process	-9.143752098083496
▁hear	-9.144489288330078
▁Psalm	-9.144850730895996
▁value	-9.14527702331543
▁Timothy	-9.146012306213379
20	-9.146551132202148
▁fire	-9.146658897399902
▁Man	-9.147199630737305
▁giving	-9.147991180419922
▁Congress	-9.14905834197998
▁England	-9.149306297302246
▁History	-9.14933967590332
▁decision	-9.150429725646973
▁knew	-9.150443077087402
▁H	-9.151899337768555
▁room	-9.152015686035156
▁groups	-9.152396202087402
▁organization	-9.152921676635742
▁match	-9.154953002929688
▁hours	-9.1564359664917
▁Facebook	-9.15652847290039
▁sense	-9.1565580368042
rs	-9.156721115112305
▁type	-9.15684986114502
▁rather	-9.15700912475586
4	-9.157193183898926
▁season	-9.157934188842773
▁clear	-9.158409118652344
▁front	-9.16014575958252
ian	-9.160557746887207
▁French	-9.164132118225098
ling	-9.165101051330566
▁top	-9.166152000427246
▁Chittagong	-9.168403625488281
▁please	-9.169355392456055
▁turned	-9.169363021850586
▁above	-9.16953182220459
▁happy	-9.172417640686035
▁authority	-9.172492027282715
▁access	-9.173093795776367
▁Department	-9.173603057861328
▁states	-9.17467212677002
un	-9.174707412719727
▁films	-9.175055503845215
▁events	-9.177138328552246
▁Un	-9.177825927734375
▁lot	-9.17812728881836
▁necessary	-9.179826736450195
▁thus	-9.179838180541992
▁Come	-9.179947853088379
▁daughter	-9.180932998657227
ate	-9.181496620178223
ach	-9.1826171875
▁parts	-9.185649871826172
▁literature	-9.186098098754883
▁Bangladeshi	-9.188349723815918
▁Chinese	-9.190032005310059
▁p	-9.190134048461914
▁developed	-9.190279006958008
▁Bank	-9.190760612487793
▁air	-9.19117546081543
▁Calcutta	-9.191947937011719
▁subject	-9.192014694213867
est	-9.192248344421387
▁student	-9.1923828125
▁section	-9.192965507507324
▁term	-9.193174362182617
ting	-9.193404197692871
▁Egypt	-9.193602561950684
▁date	-9.1939058303833
ton	-9.195014953613281
ary	-9.199249267578125
▁York	-9.199721336364746
▁First	-9.199795722961426
▁relationship	-9.200003623962402
▁inside	-9.201397895812988
▁either	-9.202207565307617
▁meetings	-9.202923774719238
day	-9.203607559204102
▁central	-9.204243659973145
▁Just	-9.205317497253418
▁worked	-9.205676078796387
▁material	-9.206255912780762
▁idea	-9.206329345703125
▁happened	-9.20731258392334
▁source	-9.207837104797363
▁services	-9.208102226257324
▁elected	-9.208231925964355
▁forces	-9.208487510681152
▁workers	-9.208822250366211
is	-9.209362983703613
▁sea	-9.210471153259277
▁helped	-9.210503578186035
▁50	-9.211856842041016
▁natural	-9.211949348449707
▁Rahman	-9.212380409240723
▁site	-9.212794303894043
um	-9.213074684143066
▁Party	-9.214293479919434
▁Japan	-9.214599609375
▁shows	-9.214669227600098
w	-9.217204093933105
▁humans	-9.217876434326172
▁ground	-9.218965530395508
▁college	-9.219430923461914
▁(18	-9.221686363220215
▁pay	-9.222628593444824
▁Yeah	-9.22362995147705
▁disciples	-9.223808288574219
▁answer	-9.223893165588379
▁hold	-9.224413871765137
▁trade	-9.224964141845703
▁online	-9.225144386291504
▁hands	-9.225360870361328
▁art	-9.226007461547852
▁N	-9.226964950561523
▁De	-9.227287292480469
▁prayer	-9.230463027954102
▁car	-9.232372283935547
▁preaching	-9.233241081237793
▁toward	-9.23414421081543
▁pre	-9.234729766845703
▁visit	-9.23611068725586
ive	-9.23705005645752
ha	-9.23782730102539
▁program	-9.238926887512207
▁ten	-9.24170970916748
▁difficult	-9.242010116577148
▁Academy	-9.24205493927002
▁Islamic	-9.242971420288086
▁(1)	-9.243119239807129
▁addition	-9.243352890014648
▁poor	-9.244654655456543
▁selected	-9.246171951293945
▁attack	-9.247907638549805
6	-9.248344421386719
▁big	-9.24838638305664
▁morning	-9.250020027160645
▁40	-9.25131607055664
ru	-9.252779006958008
▁comes	-9.252889633178711
ti	-9.25294017791748
▁mentioned	-9.253070831298828
▁followed	-9.253543853759766
▁learned	-9.254339218139648
▁evidence	-9.2572660446167
▁Board	-9.257553100585938
▁beginning	-9.258846282958984
▁policy	-9.260127067565918
▁seven	-9.260933876037598
▁whose	-9.261085510253906
▁largest	-9.261696815490723
▁Jerusalem	-9.262247085571289
▁teaching	-9.262457847595215
co	-9.262513160705566
▁Song	-9.263887405395508
▁meet	-9.266043663024902
ish	-9.266700744628906
▁2016	-9.26702880859375
▁sister	-9.267106056213379
▁university	-9.268519401550293
▁construction	-9.268810272216797
▁Kolkata	-9.269062995910645
H	-9.270018577575684
▁0	-9.27054214477539
▁Institute	-9.270675659179688
▁languages	-9.271862983703613
▁passed	-9.272313117980957
W	-9.273386001586914
▁girl	-9.273900985717773
year	-9.274125099182129
▁River	-9.274129867553711
Matthew	-9.274810791015625
▁production	-9.27665901184082
▁Population	-9.276678085327148
You	-9.277629852294922
▁Son	-9.278104782104492
▁writing	-9.278342247009277
▁data	-9.281618118286133
▁bank	-9.281875610351562
age	-9.2820405960083
▁stay	-9.282376289367676
▁receive	-9.283525466918945
▁door	-9.283807754516602
▁usually	-9.28490161895752
▁black	-9.286500930786133
8	-9.288934707641602
▁getting	-9.290078163146973
▁conduct	-9.290715217590332
▁joy	-9.290724754333496
▁remain	-9.291133880615234
▁text	-9.291447639465332
▁gonna	-9.291961669921875
▁officer	-9.293412208557129
▁leaders	-9.293683052062988
▁28	-9.295539855957031
▁effect	-9.295550346374512
▁television	-9.29567813873291
▁Could	-9.295967102050781
▁create	-9.297053337097168
▁reported	-9.297109603881836
▁percent	-9.298035621643066
▁Committee	-9.29865550994873
▁entire	-9.300328254699707
▁European	-9.300682067871094
▁makes	-9.301494598388672
▁London	-9.301680564880371
▁campaign	-9.301823616027832
▁yourself	-9.302271842956543
▁See	-9.302286148071289
▁key	-9.304563522338867
▁stand	-9.304634094238281
▁Australia	-9.309833526611328
▁trying	-9.310165405273438
▁original	-9.310336112976074
▁throughout	-9.310851097106934
▁decided	-9.31113052368164
▁Ahmed	-9.313374519348145
▁job	-9.314155578613281
ch	-9.316088676452637
▁remember	-9.31821060180664
ous	-9.31837272644043
▁m	-9.320358276367188
▁recent	-9.320499420166016
be	-9.321343421936035
▁La	-9.321844100952148
▁conditions	-9.323208808898926
▁26	-9.323219299316406
do	-9.325981140136719
▁letter	-9.32896900177002
▁boy	-9.329970359802246
▁Division	-9.330065727233887
▁changed	-9.330775260925293
▁servants	-9.33207893371582
▁Those	-9.333459854125977
j	-9.333638191223145
▁tried	-9.334029197692871
▁rural	-9.334330558776855
▁related	-9.334774017333984
▁thinking	-9.335285186767578
▁record	-9.336268424987793
▁offer	-9.336615562438965
▁Yet	-9.337303161621094
▁Prime	-9.337640762329102
▁Or	-9.338364601135254
ro	-9.339237213134766
▁anyone	-9.339858055114746
▁(19	-9.340176582336426
▁2011	-9.34089469909668
▁basis	-9.340961456298828
▁kept	-9.341559410095215
▁Good	-9.341568946838379
▁violence	-9.342416763305664
▁Get	-9.343088150024414
▁James	-9.343411445617676
▁St	-9.344375610351562
▁Main	-9.344460487365723
▁science	-9.345087051391602
▁itself	-9.346920013427734
▁Women	-9.350956916809082
▁legal	-9.35476016998291
▁opened	-9.355793952941895
▁Muhammad	-9.356136322021484
▁famous	-9.356348991394043
out	-9.356578826904297
▁W	-9.356979370117188
▁else	-9.358624458312988
▁game	-9.360617637634277
ir	-9.361047744750977
▁Internet	-9.363547325134277
▁Thus	-9.364398002624512
▁100	-9.36540699005127
▁longer	-9.36566162109375
▁industry	-9.36582088470459
▁Sir	-9.36622142791748
9	-9.366761207580566
▁Me	-9.368331909179688
ful	-9.368374824523926
▁likely	-9.368792533874512
▁Test	-9.36909294128418
▁(2)	-9.369218826293945
R	-9.369414329528809
▁nations	-9.370956420898438
▁looking	-9.371092796325684
▁user	-9.371159553527832
▁trust	-9.371661186218262
▁leader	-9.371772766113281
▁fight	-9.373817443847656
▁Today	-9.375018119812012
▁practice	-9.375185012817383
▁alone	-9.376992225646973
me	-9.378413200378418
▁species	-9.378646850585938
▁produced	-9.378767013549805
▁Society	-9.379523277282715
▁die	-9.380285263061523
▁cases	-9.380772590637207
▁leading	-9.381111145019531
ad	-9.38125991821289
▁allowed	-9.381647109985352
▁physical	-9.381877899169922
▁accept	-9.382047653198242
va	-9.38298511505127
▁El	-9.383578300476074
▁spread	-9.383988380432129
▁serving	-9.384635925292969
▁2014	-9.384941101074219
▁met	-9.385364532470703
x	-9.38605785369873
▁changes	-9.387960433959961
▁Will	-9.38956356048584
▁appeared	-9.390436172485352
▁Here	-9.390575408935547
▁described	-9.390898704528809
▁avoid	-9.392692565917969
▁caused	-9.392848014831543
▁families	-9.394012451171875
▁sin	-9.394075393676758
▁earlier	-9.394312858581543
▁Sri	-9.39468002319336
▁Mo	-9.395894050598145
vi	-9.396810531616211
ty	-9.397146224975586
We	-9.397513389587402
▁daily	-9.397600173950195
▁Like	-9.39828872680664
▁Luke	-9.399260520935059
▁Cricket	-9.399731636047363
▁reports	-9.399761199951172
▁benefit	-9.400036811828613
▁towards	-9.401272773742676
▁debut	-9.401444435119629
▁Later	-9.402730941772461
1	-9.404073715209961
▁matters	-9.404212951660156
ie	-9.404362678527832
▁west	-9.40444278717041
▁low	-9.404740333557129
▁complete	-9.405597686767578
▁census	-9.405997276306152
▁rules	-9.406046867370605
lo	-9.406244277954102
▁primary	-9.407257080078125
▁c	-9.408613204956055
▁loving	-9.40877914428711
▁deep	-9.409801483154297
▁THE	-9.410321235656738
▁everyone	-9.410459518432617
▁write	-9.41063404083252
▁enjoy	-9.41253662109375
▁increase	-9.4132080078125
▁director	-9.413375854492188
▁returned	-9.413679122924805
ized	-9.41423511505127
▁centre	-9.414417266845703
▁medical	-9.415148735046387
▁Greek	-9.415441513061523
▁opportunity	-9.415994644165039
▁Scriptures	-9.416385650634766
▁Did	-9.417301177978516
▁announced	-9.41743278503418
▁mankind	-9.418464660644531
▁27	-9.419312477111816
▁taught	-9.419353485107422
▁degree	-9.419940948486328
▁desire	-9.420927047729492
▁Muslims	-9.423277854919434
V	-9.4235200881958
▁regular	-9.423930168151855
▁2017	-9.424227714538574
▁minister	-9.424345970153809
▁plan	-9.424349784851074
▁Russian	-9.424909591674805
▁address	-9.42558765411377
ja	-9.426608085632324
▁Cor	-9.427638053894043
▁contact	-9.4276704788208
▁influence	-9.428210258483887
▁allow	-9.428318977355957
▁Arab	-9.42914867401123
▁places	-9.429547309875488
▁nature	-9.431462287902832
▁actually	-9.4325590133667
▁sir	-9.432963371276855
▁required	-9.433279991149902
▁voice	-9.433318138122559
▁lack	-9.434945106506348
▁oil	-9.435002326965332
John	-9.435050964355469
▁Film	-9.435101509094238
▁efforts	-9.437459945678711
▁opposition	-9.438471794128418
ce	-9.438994407653809
▁issues	-9.43912410736084
▁individual	-9.439850807189941
▁Global	-9.440394401550293
▁title	-9.440893173217773
ted	-9.441396713256836
▁traditional	-9.441672325134277
▁Another	-9.442878723144531
▁Education	-9.442962646484375
▁elders	-9.443439483642578
▁authorities	-9.443817138671875
▁Their	-9.444145202636719
▁studies	-9.444406509399414
▁writer	-9.445440292358398
se	-9.445657730102539
▁Iran	-9.445924758911133
▁Watchtower	-9.447227478027344
▁sometimes	-9.447652816772461
▁amount	-9.448749542236328
men	-9.45044231414795
▁civil	-9.450797080993652
▁serious	-9.451078414916992
id	-9.451452255249023
▁Central	-9.45171070098877
▁nearly	-9.451980590820312
▁build	-9.45332145690918
▁birth	-9.453810691833496
▁nor	-9.45429515838623
▁AD	-9.455218315124512
▁Isaiah	-9.455317497253418
▁save	-9.45654010772705
▁instead	-9.457347869873047
▁feet	-9.457440376281738
▁seems	-9.459065437316895
▁29	-9.459121704101562
▁Abdul	-9.459551811218262
▁counsel	-9.46019458770752
▁lived	-9.46057415008545
▁gives	-9.460999488830566
▁raised	-9.46158218383789
▁song	-9.46336555480957
ant	-9.464578628540039
▁response	-9.464631080627441
▁chief	-9.46488094329834
▁Service	-9.465490341186523
▁ourselves	-9.465615272521973
▁Army	-9.466060638427734
▁added	-9.468011856079102
▁stage	-9.468301773071289
nd	-9.468470573425293
▁anti	-9.468817710876465
▁Such	-9.469779968261719
▁Two	-9.469902038574219
▁Republic	-9.470062255859375
▁TV	-9.470684051513672
▁Saudi	-9.470751762390137
▁Mosque	-9.47075366973877
▁send	-9.471611976623535
▁Other	-9.472643852233887
com	-9.473069190979004
▁sound	-9.473221778869629
▁Acts	-9.47346019744873
▁meaning	-9.473542213439941
▁greater	-9.474335670471191
▁failed	-9.474397659301758
▁financial	-9.474648475646973
(	-9.475214958190918
▁II	-9.47597885131836
ent	-9.4764986038208
▁fall	-9.476778030395508
ter	-9.477795600891113
▁wisdom	-9.479825019836426
old	-9.480287551879883
he	-9.481406211853027
▁Association	-9.482081413269043
▁protest	-9.483159065246582
▁simply	-9.483694076538086
im	-9.484025001525879
▁success	-9.484033584594727
▁eight	-9.485891342163086
▁although	-9.48669147491455
▁blogger	-9.486898422241211
▁urban	-9.489106178283691
▁sign	-9.490133285522461
▁laws	-9.490349769592285
▁Proverbs	-9.49133014678955
▁2013	-9.491414070129395
▁songs	-9.491769790649414
▁V	-9.4924955368042
▁powerful	-9.49313735961914
▁31	-9.493216514587402
▁constituency	-9.495821952819824
land	-9.495896339416504
▁kill	-9.49627685546875
▁Photo	-9.49655818939209
▁individuals	-9.498883247375488
▁deal	-9.49905014038086
▁terms	-9.499733924865723
▁Afghanistan	-9.500155448913574
▁facilities	-9.500449180603027
▁effort	-9.50119400024414
ba	-9.501338958740234
▁computer	-9.502391815185547
▁sexual	-9.504167556762695
▁heaven	-9.50475025177002
▁independent	-9.504820823669434
▁France	-9.504969596862793
▁couple	-9.50515079498291
▁regarding	-9.505319595336914
▁Delhi	-9.506158828735352
▁German	-9.50704574584961
▁Asian	-9.509564399719238
▁declared	-9.509815216064453
▁ready	-9.510200500488281
▁release	-9.511370658874512
L	-9.511444091796875
▁arrested	-9.512201309204102
▁phone	-9.51253604888916
et	-9.513693809509277
▁g	-9.514015197753906
▁Assembly	-9.514460563659668
_	-9.515623092651367
▁reach	-9.517022132873535
tic	-9.518598556518555
▁educational	-9.518941879272461
▁speech	-9.51978588104248
ies	-9.519810676574707
▁responsibility	-9.520526885986328
▁cities	-9.522281646728516
▁active	-9.52330207824707
ca	-9.523308753967285
▁Hey	-9.524330139160156
In	-9.528766632080078
▁cultural	-9.528971672058105
▁prison	-9.531332969665527
▁quite	-9.531776428222656
▁magazine	-9.534570693969727
▁space	-9.53512954711914
It	-9.535158157348633
▁stories	-9.53518009185791
▁Under	-9.535663604736328
▁Have	-9.537187576293945
▁Great	-9.537810325622559
▁San	-9.538005828857422
▁reached	-9.53815746307373
▁perhaps	-9.538290977478027
▁folder	-9.539278030395508
▁quality	-9.54113483428955
▁white	-9.541913986206055
▁b	-9.542092323303223
▁union	-9.542619705200195
▁moment	-9.54262924194336
▁principles	-9.542823791503906
son	-9.543396949768066
ak	-9.544332504272461
ah	-9.544595718383789
▁eat	-9.546344757080078
▁website	-9.546507835388184
▁completed	-9.547135353088379
▁Life	-9.547247886657715
▁mosque	-9.547950744628906
ke	-9.548239707946777
▁introduced	-9.548355102539062
▁Moses	-9.548711776733398
v	-9.549187660217285
▁growth	-9.549226760864258
▁results	-9.55136489868164
▁command	-9.552851676940918
▁direction	-9.555070877075195
▁showed	-9.557087898254395
▁writes	-9.557398796081543
go	-9.557784080505371
▁2010	-9.558097839355469
▁relations	-9.558097839355469
▁minutes	-9.558866500854492
▁2.	-9.559698104858398
U	-9.560346603393555
▁window	-9.560394287109375
▁management	-9.562716484069824
▁gold	-9.563746452331543
▁elections	-9.564510345458984
▁strength	-9.564542770385742
▁remained	-9.565510749816895
▁Show	-9.56564712524414
▁status	-9.56794261932373
▁Chief	-9.568459510803223
▁rich	-9.568587303161621
▁cost	-9.568893432617188
▁win	-9.569003105163574
▁Russia	-9.569280624389648
▁Year	-9.569540977478027
▁Mark	-9.569880485534668
em	-9.57056999206543
ga	-9.570635795593262
▁Ma	-9.571474075317383
▁particular	-9.573073387145996
▁Voices	-9.573480606079102
▁therefore	-9.57474422454834
▁increased	-9.574925422668457
sh	-9.574969291687012
▁sex	-9.575543403625488
▁stated	-9.575759887695312
▁d	-9.575830459594727
▁fully	-9.57598876953125
▁thousands	-9.576674461364746
▁teach	-9.577937126159668
▁forward	-9.578673362731934
▁wise	-9.57968807220459
▁railway	-9.579727172851562
▁Jews	-9.581809997558594
kar	-9.582202911376953
▁recorded	-9.582874298095703
▁direct	-9.583511352539062
▁Revelation	-9.583747863769531
▁Hall	-9.585309028625488
ine	-9.586462020874023
▁Parliament	-9.5880126953125
▁energy	-9.588760375976562
▁reasons	-9.590360641479492
▁sq	-9.59156608581543
▁justice	-9.592175483703613
▁carry	-9.592365264892578
▁kingdom	-9.592546463012695
▁hospital	-9.592674255371094
▁activity	-9.593534469604492
▁branch	-9.593634605407715
▁protect	-9.594016075134277
os	-9.594682693481445
▁agricultural	-9.594990730285645
amp	-9.595697402954102
▁version	-9.59717082977295
▁below	-9.59777545928955
based	-9.598883628845215
▁2012	-9.599559783935547
▁users	-9.599559783935547
▁commercial	-9.59985637664795
▁responsible	-9.600358009338379
▁believed	-9.60129451751709
▁character	-9.601512908935547
▁administration	-9.603689193725586
▁schools	-9.603808403015137
▁train	-9.60384464263916
▁territory	-9.604025840759277
▁listen	-9.604087829589844
▁directed	-9.604978561401367
▁pro	-9.605116844177246
▁Director	-9.60519790649414
▁includes	-9.605851173400879
▁doubt	-9.606067657470703
▁Would	-9.607057571411133
ence	-9.608702659606934
▁independence	-9.609631538391113
▁spent	-9.610313415527344
▁particularly	-9.610568046569824
▁animals	-9.611250877380371
pa	-9.611645698547363
▁attitude	-9.612971305847168
▁2015	-9.613360404968262
▁suffering	-9.613789558410645
▁Okay	-9.614455223083496
▁highest	-9.614816665649414
▁disease	-9.615238189697266
▁easy	-9.615853309631348
▁goal	-9.616621971130371
▁condition	-9.61704158782959
▁lower	-9.617047309875488
▁search	-9.617064476013184
bar	-9.617188453674316
pe	-9.617229461669922
▁beautiful	-9.61755084991455
Psalm	-9.618833541870117
one	-9.619035720825195
▁Sa	-9.619128227233887
▁Roman	-9.619172096252441
▁thousand	-9.61941909790039
▁comments	-9.619828224182129
▁doesn	-9.620722770690918
▁politics	-9.621245384216309
▁Bar	-9.62126636505127
▁centuries	-9.621847152709961
▁feelings	-9.621858596801758
▁Name	-9.6218900680542
▁followers	-9.622199058532715
▁environment	-9.622932434082031
▁pain	-9.623270034790039
▁carried	-9.62369441986084
▁finally	-9.623875617980957
fa	-9.62480354309082
▁Job	-9.624897003173828
ating	-9.625673294067383
▁provides	-9.626238822937012
▁heavenly	-9.627371788024902
▁maintain	-9.627824783325195
▁offered	-9.628219604492188
▁middle	-9.628593444824219
led	-9.629178047180176
▁false	-9.629571914672852
ated	-9.629956245422363
▁limited	-9.630255699157715
▁red	-9.630317687988281
▁wicked	-9.632194519042969
▁showing	-9.632744789123535
▁citizens	-9.633430480957031
▁application	-9.633598327636719
▁teacher	-9.636222839355469
▁transport	-9.63633918762207
▁tree	-9.63720703125
▁More	-9.63773250579834
har	-9.6385498046875
▁communication	-9.638666152954102
▁pressure	-9.64004135131836
▁circumstances	-9.64128589630127
▁inspired	-9.642104148864746
▁concerned	-9.643082618713379
▁Development	-9.643403053283691
▁looked	-9.643683433532715
▁display	-9.643811225891113
▁households	-9.645528793334961
ana	-9.64604663848877
▁Look	-9.646099090576172
▁Pakistani	-9.648173332214355
▁points	-9.648385047912598
▁Human	-9.648740768432617
ge	-9.649572372436523
J	-9.650238037109375
▁bloggers	-9.650496482849121
▁develop	-9.651825904846191
▁Professor	-9.651873588562012
▁shown	-9.652148246765137
▁break	-9.65217113494873
▁o	-9.652957916259766
▁females	-9.652998924255371
▁Germany	-9.65305233001709
▁founded	-9.653189659118652
▁beyond	-9.654130935668945
▁perfect	-9.655428886413574
▁center	-9.65582275390625
▁stone	-9.655862808227539
mo	-9.656352996826172
▁discussion	-9.656722068786621
▁playing	-9.656865119934082
▁Israelites	-9.65745735168457
▁property	-9.657695770263672
▁walk	-9.657804489135742
▁watch	-9.658676147460938
▁happiness	-9.659165382385254
▁gone	-9.660076141357422
▁2009	-9.660268783569336
▁probably	-9.660394668579102
▁anointed	-9.660547256469727
▁wait	-9.662034034729004
▁teachers	-9.66224479675293
▁officers	-9.662768363952637
▁proper	-9.663421630859375
▁wide	-9.663773536682129
▁takes	-9.664017677307129
za	-9.664810180664062
▁messages	-9.664944648742676
ganj	-9.665224075317383
▁i	-9.666088104248047
▁draw	-9.666359901428223
▁church	-9.66640853881836
▁Early	-9.666631698608398
Acts	-9.667062759399414
▁immediately	-9.66731071472168
▁test	-9.667826652526855
▁African	-9.668364524841309
▁Ram	-9.668963432312012
▁importance	-9.66937255859375
▁paper	-9.66955852508545
ally	-9.671030044555664
▁cover	-9.671058654785156
▁mass	-9.671224594116211
▁4.	-9.67188549041748
▁creation	-9.672191619873047
▁Does	-9.672425270080566
▁Sheikh	-9.672578811645508
▁picture	-9.67270565032959
▁quickly	-9.673013687133789
▁Jewish	-9.673715591430664
▁Solomon	-9.674424171447754
▁code	-9.6746826171875
▁2008	-9.675012588500977
ji	-9.675024032592773
▁accepted	-9.675024032592773
▁simple	-9.676491737365723
▁gain	-9.677087783813477
▁successful	-9.677186965942383
▁significant	-9.67743968963623
▁manner	-9.679409980773926
▁fish	-9.679530143737793
▁shared	-9.679678916931152
▁talking	-9.680233001708984
▁parties	-9.680580139160156
▁content	-9.680957794189453
▁myself	-9.68167781829834
▁accounts	-9.68193244934082
▁sons	-9.682849884033203
▁happen	-9.68292236328125
▁wants	-9.683110237121582
▁round	-9.68317985534668
ki	-9.683411598205566
▁size	-9.68348217010498
▁mainly	-9.683611869812012
sha	-9.685386657714844
▁demand	-9.685508728027344
▁majority	-9.686071395874023
▁northern	-9.686323165893555
▁Before	-9.687250137329102
▁Adam	-9.687454223632812
▁Science	-9.68912410736084
▁understanding	-9.689427375793457
▁Co	-9.691630363464355
▁House	-9.692131996154785
▁persons	-9.692835807800293
▁western	-9.693320274353027
ize	-9.693665504455566
▁technology	-9.693965911865234
uddin	-9.694095611572266
▁separate	-9.694805145263672
▁wall	-9.695261001586914
der	-9.695708274841309
▁Club	-9.696345329284668
▁apply	-9.696352005004883
▁soul	-9.696446418762207
▁cut	-9.696842193603516
▁plant	-9.697051048278809
▁Ka	-9.697200775146484
▁recently	-9.697304725646973
▁older	-9.69936752319336
▁determined	-9.700043678283691
▁Mary	-9.703315734863281
▁sources	-9.70350456237793
▁supply	-9.703718185424805
▁step	-9.70431900024414
▁Literacy	-9.704438209533691
▁Open	-9.704707145690918
▁ability	-9.705009460449219
▁supported	-9.705061912536621
▁statement	-9.705967903137207
▁style	-9.706064224243164
▁Read	-9.70682144165039
▁network	-9.706855773925781
▁Image	-9.707707405090332
▁grow	-9.707950592041016
▁currently	-9.708219528198242
▁Awards	-9.708423614501953
▁Tom	-9.710287094116211
▁press	-9.710809707641602
con	-9.711204528808594
ab	-9.711771011352539
He	-9.712238311767578
▁provisions	-9.713977813720703
▁professional	-9.715311050415039
▁runs	-9.7160062789917
▁60	-9.716117858886719
ial	-9.716226577758789
▁opening	-9.717353820800781
▁Romans	-9.717442512512207
▁girls	-9.717494010925293
ci	-9.718281745910645
▁soldiers	-9.718669891357422
▁battle	-9.718949317932129
▁Su	-9.718973159790039
▁eye	-9.720168113708496
What	-9.720617294311523
▁becoming	-9.721630096435547
▁Nations	-9.722355842590332
▁dis	-9.722752571105957
▁treatment	-9.723039627075195
▁club	-9.72311019897461
▁choose	-9.723637580871582
▁presence	-9.723718643188477
▁noted	-9.723908424377441
▁worldwide	-9.72424602508545
▁Empire	-9.7245454788208
▁goes	-9.724552154541016
▁Company	-9.72496223449707
▁Consider	-9.725006103515625
▁Road	-9.725427627563477
iya	-9.72551441192627
▁honor	-9.725810050964355
▁border	-9.725842475891113
ud	-9.72585678100586
▁newspaper	-9.726458549499512
▁sacrifice	-9.726874351501465
▁Bo	-9.7272367477417
▁charge	-9.727553367614746
▁income	-9.727811813354492
▁progress	-9.728914260864258
▁port	-9.729279518127441
▁global	-9.729839324951172
▁2018	-9.731108665466309
wa	-9.731302261352539
▁Con	-9.731452941894531
▁focus	-9.731626510620117
▁running	-9.73176097869873
▁Abraham	-9.732064247131348
▁secret	-9.733185768127441
▁pages	-9.733419418334961
▁divided	-9.734074592590332
▁3.	-9.734445571899414
▁gas	-9.73489761352539
▁Water	-9.735651969909668
▁learning	-9.735698699951172
▁Sam	-9.736154556274414
▁price	-9.737055778503418
▁companies	-9.737058639526367
▁hundred	-9.73708724975586
▁placed	-9.7371187210083
▁positive	-9.737895011901855
▁specific	-9.738330841064453
bi	-9.739340782165527
▁Only	-9.74064826965332
▁About	-9.740941047668457
▁associated	-9.740951538085938
▁Syria	-9.741750717163086
▁author	-9.74178695678711
▁structure	-9.741933822631836
▁sector	-9.742382049560547
▁Western	-9.742621421813965
▁tax	-9.742948532104492
▁Though	-9.7435302734375
▁weeks	-9.743598937988281
▁Among	-9.74383544921875
▁Church	-9.744236946105957
Luke	-9.744478225708008
▁Japanese	-9.744778633117676
▁loss	-9.745073318481445
ut	-9.745538711547852
▁referred	-9.745565414428711
▁matches	-9.745692253112793
▁generally	-9.746338844299316
▁promise	-9.746421813964844
▁officials	-9.746774673461914
▁33	-9.747414588928223
▁complex	-9.747503280639648
▁expression	-9.747955322265625
▁eventually	-9.748109817504883
ang	-9.748453140258789
▁bodies	-9.750160217285156
▁check	-9.750229835510254
▁board	-9.75027084350586
▁Over	-9.750343322753906
▁heavy	-9.751041412353516
▁spoke	-9.751824378967285
▁launched	-9.752813339233398
▁award	-9.753135681152344
▁join	-9.753697395324707
▁Ni	-9.754377365112305
▁football	-9.75463581085205
▁location	-9.75489616394043
▁Daniel	-9.75521183013916
"?	-9.755305290222168
bo	-9.755764961242676
▁bar	-9.7557954788208
▁pass	-9.756196022033691
▁forms	-9.756254196166992
▁paid	-9.756433486938477
ck	-9.756829261779785
▁document	-9.757408142089844
▁witness	-9.758198738098145
▁tournament	-9.758401870727539
mi	-9.75853443145752
▁basic	-9.758666038513184
▁Public	-9.759002685546875
▁model	-9.759088516235352
▁radio	-9.759333610534668
▁seem	-9.759449005126953
cha	-9.75959587097168
▁fast	-9.760860443115234
▁island	-9.760992050170898
▁Buddhist	-9.761938095092773
▁sorry	-9.762565612792969
ner	-9.76274299621582
▁resources	-9.763134956359863
▁protection	-9.763243675231934
▁constitute	-9.763496398925781
▁journalist	-9.764239311218262
ization	-9.766204833984375
ance	-9.766357421875
▁Soviet	-9.766975402832031
▁feeling	-9.767867088317871
▁annual	-9.76816177368164
▁plays	-9.7686128616333
nagar	-9.769001007080078
▁names	-9.769006729125977
▁youth	-9.769926071166992
▁server	-9.770197868347168
▁alive	-9.770923614501953
▁hour	-9.7710542678833
▁districts	-9.77119255065918
▁sisters	-9.772252082824707
▁Samuel	-9.77340030670166
▁standard	-9.77425765991211
▁Thank	-9.774868965148926
▁hit	-9.776318550109863
▁interests	-9.776440620422363
▁till	-9.77657699584961
▁certainly	-9.777082443237305
▁directly	-9.77713394165039
▁interested	-9.778223991394043
▁previous	-9.778572082519531
▁Health	-9.78126049041748
▁en	-9.78197956085205
▁eastern	-9.782381057739258
.*	-9.782468795776367
▁remains	-9.783307075500488
▁Bazar	-9.783495903015137
▁appropriate	-9.784346580505371
▁completely	-9.784811973571777
▁operation	-9.786101341247559
▁t	-9.786422729492188
▁clean	-9.786500930786133
▁Chandra	-9.788111686706543
▁Park	-9.788469314575195
▁baptized	-9.788779258728027
▁evening	-9.789109230041504
▁%	-9.789144515991211
▁pioneer	-9.790801048278809
▁divine	-9.7909517288208
▁Time	-9.791427612304688
▁speaking	-9.791799545288086
▁surface	-9.79238510131836
▁produce	-9.7958984375
▁awarded	-9.79651927947998
▁sun	-9.797075271606445
▁actions	-9.797149658203125
▁Sabha	-9.79726791381836
▁attend	-9.79918384552002
▁miles	-9.79920768737793
▁Pak	-9.799842834472656
▁Persian	-9.800086975097656
▁task	-9.80031967163086
▁province	-9.801088333129883
▁Chowdhury	-9.801191329956055
ph	-9.801915168762207
▁moral	-9.802498817443848
▁committee	-9.80258560180664
▁seat	-9.802824020385742
▁pray	-9.802833557128906
▁Mar	-9.803825378417969
▁economy	-9.804328918457031
▁sheep	-9.804637908935547
▁Se	-9.805032730102539
▁dwelling	-9.805325508117676
▁forced	-9.806841850280762
▁Joseph	-9.80693531036377
▁Mohammad	-9.807348251342773
▁32	-9.807543754577637
▁assembly	-9.80845832824707
den	-9.80869197845459
ov	-9.80909252166748
▁clearly	-9.80926513671875
▁goods	-9.809313774108887
▁Egyptian	-9.810009956359863
▁products	-9.8102445602417
▁attended	-9.810417175292969
▁concern	-9.810515403747559
▁Love	-9.811908721923828
▁box	-9.813211441040039
▁despite	-9.813801765441895
▁types	-9.81406307220459
ina	-9.814630508422852
▁loved	-9.816713333129883
▁(@	-9.81959342956543
▁Memorial	-9.820167541503906
▁issued	-9.820572853088379
▁arrived	-9.820619583129883
▁gift	-9.820799827575684
▁truly	-9.82107925415039
▁prophet	-9.8211669921875
▁explains	-9.82126235961914
▁expressed	-9.821342468261719
ran	-9.822145462036133
▁permission	-9.822891235351562
▁Despite	-9.822906494140625
▁prepared	-9.822932243347168
▁Take	-9.823929786682129
▁via	-9.824196815490723
▁standing	-9.824917793273926
▁southern	-9.825655937194824
lu	-9.826321601867676
▁1980	-9.826404571533203
▁George	-9.827829360961914
▁studied	-9.828411102294922
ol	-9.828824043273926
▁powers	-9.82895278930664
▁affected	-9.829001426696777
ier	-9.829691886901855
▁Games	-9.829752922058105
▁electricity	-9.829845428466797
▁bit	-9.829916954040527
▁images	-9.830227851867676
▁entered	-9.830282211303711
▁discovered	-9.831283569335938
▁contains	-9.832490921020508
▁safe	-9.832667350769043
No	-9.83292007446289
▁opinion	-9.83305835723877
▁2,	-9.8330659866333
▁features	-9.83353042602539
▁block	-9.83653736114502
▁crops	-9.836938858032227
▁Earth	-9.837230682373047
▁begin	-9.837650299072266
▁inter	-9.838141441345215
Do	-9.839390754699707
▁color	-9.83961296081543
▁risk	-9.839691162109375
▁visited	-9.839757919311523
▁convention	-9.839895248413086
▁destroyed	-9.83996868133545
▁wish	-9.839981079101562
▁existence	-9.841073036193848
▁2004	-9.841350555419922
▁wonderful	-9.842069625854492
Y	-9.842329978942871
▁Spanish	-9.84329605102539
▁ahead	-9.8439359664917
▁instance	-9.844023704528809
line	-9.844212532043457
class	-9.84471321105957
dy	-9.844764709472656
▁Sea	-9.84483528137207
▁establishment	-9.845565795898438
ex	-9.847734451293945
▁rise	-9.847735404968262
▁slave	-9.848278999328613
▁Air	-9.849069595336914
▁except	-9.85025691986084
ler	-9.850747108459473
▁rice	-9.85094165802002
gi	-9.85111141204834
▁Research	-9.853313446044922
of	-9.853692054748535
▁enter	-9.853806495666504
ities	-9.854063034057617
▁Singh	-9.85499382019043
▁square	-9.85554027557373
▁trial	-9.855611801147461
▁occasion	-9.855774879455566
▁Demographics	-9.855917930603027
▁growing	-9.855942726135254
▁Iranian	-9.856711387634277
▁calendar	-9.856863975524902
▁object	-9.857112884521484
ley	-9.857269287109375
▁mostly	-9.857563972473145
▁Robert	-9.858053207397461
▁signed	-9.858214378356934
ko	-9.859326362609863
▁(3)	-9.860940933227539
ik	-9.861359596252441
▁protests	-9.861419677734375
▁street	-9.862398147583008
▁forever	-9.862863540649414
▁collection	-9.86330509185791
▁conflict	-9.864151954650879
▁master	-9.864171981811523
▁Ar	-9.864377975463867
▁equal	-9.866209983825684
for	-9.86623477935791
▁vital	-9.866393089294434
ten	-9.866815567016602
▁Hebrews	-9.866983413696289
▁Group	-9.867829322814941
▁designed	-9.868231773376465
▁seek	-9.868513107299805
▁error	-9.868704795837402
▁experienced	-9.868711471557617
▁rivers	-9.868820190429688
▁standards	-9.868945121765137
▁administrative	-9.869261741638184
▁prove	-9.869463920593262
▁qualities	-9.869721412658691
▁range	-9.86983871459961
▁effective	-9.870230674743652
▁chapter	-9.87052059173584
▁association	-9.871007919311523
▁killing	-9.871540069580078
▁crime	-9.87155532836914
by	-9.87202262878418
▁performed	-9.872247695922852
▁editor	-9.872418403625488
like	-9.872544288635254
▁choice	-9.872902870178223
▁regularly	-9.873102188110352
▁evil	-9.873265266418457
▁houses	-9.87328052520752
que	-9.873502731323242
▁huge	-9.873589515686035
▁performance	-9.873967170715332
▁notice	-9.87398624420166
▁Police	-9.874103546142578
▁domestic	-9.87499713897705
▁defeated	-9.875527381896973
▁proved	-9.875961303710938
▁leaving	-9.875970840454102
▁appear	-9.877367973327637
op	-9.87744140625
▁crowd	-9.877631187438965
▁exist	-9.87767219543457
▁explained	-9.878710746765137
▁Nepal	-9.878865242004395
-18	-9.879000663757324
▁mid	-9.879073143005371
▁thoughts	-9.879451751708984
▁sleep	-9.879465103149414
If	-9.879712104797363
▁table	-9.881088256835938
▁copy	-9.881149291992188
▁nine	-9.882084846496582
▁systems	-9.882475852966309
▁soil	-9.882729530334473
▁greatest	-9.884774208068848
▁billion	-9.884908676147461
▁lands	-9.885283470153809
▁composed	-9.886300086975098
▁Mughal	-9.887417793273926
▁theory	-9.887751579284668
▁photo	-9.888126373291016
▁Red	-9.889838218688965
▁holding	-9.890457153320312
▁forest	-9.89162540435791
ite	-9.892724990844727
▁Canno	-9.893085479736328
▁righteous	-9.894380569458008
Matt	-9.894700050354004
▁Genesis	-9.895062446594238
▁Am	-9.895380020141602
▁division	-9.897017478942871
▁Kumar	-9.897189140319824
▁Creator	-9.898411750793457
▁request	-9.898420333862305
▁design	-9.898533821105957
▁mail	-9.898731231689453
▁agreement	-9.900397300720215
▁Eastern	-9.900988578796387
▁con	-9.901106834411621
▁praise	-9.901461601257324
▁70	-9.90231990814209
▁X	-9.902981758117676
▁examples	-9.902997970581055
▁organisation	-9.90527629852295
▁Awami	-9.9054594039917
ists	-9.90560531616211
▁poet	-9.905627250671387
▁Corporation	-9.905831336975098
▁communities	-9.905831336975098
▁Li	-9.906763076782227
▁appears	-9.906950950622559
▁historical	-9.909112930297852
section	-9.90932846069336
▁Hat	-9.909375190734863
▁comfort	-9.909799575805664
▁posted	-9.910717010498047
▁steps	-9.911130905151367
▁Bi	-9.911423683166504
▁tradition	-9.912264823913574
du	-9.91246223449707
▁prevent	-9.91252613067627
ber	-9.912689208984375
▁measures	-9.912775993347168
▁actress	-9.913277626037598
▁Secretary	-9.913945198059082
▁firm	-9.913971900939941
▁fell	-9.91421890258789
▁exchange	-9.914413452148438
ey	-9.915201187133789
▁okay	-9.915319442749023
▁Rights	-9.915324211120605
▁articles	-9.915511131286621
▁race	-9.915997505187988
▁Sylhet	-9.916387557983398
tra	-9.917218208312988
▁bear	-9.917902946472168
ani	-9.918848037719727
▁5.	-9.91948413848877
▁knows	-9.919877052307129
▁expected	-9.921052932739258
▁Every	-9.921873092651367
▁decisions	-9.921881675720215
▁animal	-9.922575950622559
▁Still	-9.922906875610352
ship	-9.923178672790527
▁Instead	-9.923203468322754
▁chance	-9.923285484313965
▁Abu	-9.92346477508545
▁lose	-9.924467086791992
▁politician	-9.924732208251953
▁1972	-9.925286293029785
▁ex	-9.927209854125977
▁Lanka	-9.927485466003418
▁buy	-9.928153991699219
▁Watch	-9.92820930480957
▁hearts	-9.9286527633667
▁shot	-9.928668022155762
▁factory	-9.928869247436523
▁Canada	-9.929085731506348
▁2006	-9.929767608642578
▁publication	-9.930188179016113
▁Sultan	-9.930356979370117
▁regard	-9.93058967590332
▁behalf	-9.9308500289917
▁Whether	-9.9310302734375
▁Korea	-9.93181324005127
▁assigned	-9.932415962219238
▁Middle	-9.932538032531738
ology	-9.932838439941406
po	-9.933574676513672
hu	-9.93364143371582
▁calls	-9.933669090270996
▁files	-9.933914184570312
▁base	-9.934807777404785
▁calling	-9.935148239135742
30	-9.935639381408691
hi	-9.93608283996582
▁camp	-9.936752319335938
▁purposes	-9.937182426452637
▁confidence	-9.937278747558594
▁90	-9.937437057495117
▁UN	-9.938654899597168
▁Ho	-9.938929557800293
▁ideas	-9.939565658569336
▁Hebrew	-9.940237998962402
▁presented	-9.940709114074707
▁Through	-9.940813064575195
▁ill	-9.941301345825195
▁asking	-9.941662788391113
war	-9.943766593933105
▁connection	-9.944066047668457
▁advice	-9.944328308105469
▁length	-9.944912910461426
▁Tim	-9.945154190063477
▁generation	-9.945199966430664
ram	-9.945359230041504
min	-9.945858001708984
▁meant	-9.945892333984375
▁whatever	-9.945920944213867
▁forget	-9.946052551269531
▁sit	-9.94755744934082
▁regime	-9.9495267868042
▁destruction	-9.950542449951172
▁News	-9.951104164123535
▁Vi	-9.951509475708008
▁dark	-9.951746940612793
▁normal	-9.95199203491211
▁Ha	-9.952284812927246
▁Ra	-9.952789306640625
▁millions	-9.952933311462402
▁2001,	-9.953164100646973
work	-9.953725814819336
Read	-9.953944206237793
▁aid	-9.95457649230957
▁explain	-9.954901695251465
▁mobile	-9.955760955810547
▁unique	-9.95637321472168
▁discuss	-9.956446647644043
▁activists	-9.956683158874512
▁tea	-9.957159042358398
▁represented	-9.957189559936523
▁2001	-9.957287788391113
if	-9.957784652709961
▁drama	-9.959001541137695
rd	-9.959094047546387
▁secretary	-9.959111213684082
▁spiritually	-9.959521293640137
▁judge	-9.959639549255371
▁approach	-9.960108757019043
▁method	-9.960304260253906
▁providing	-9.960464477539062
▁acting	-9.960731506347656
▁35	-9.961214065551758
▁baby	-9.961546897888184
▁audience	-9.961563110351562
▁ship	-9.96158504486084
▁victory	-9.962081909179688
▁covered	-9.962604522705078
ee	-9.962761878967285
▁Ne	-9.963407516479492
▁feature	-9.963738441467285
▁dance	-9.963886260986328
▁hair	-9.963922500610352
25	-9.965092658996582
▁Arabic	-9.96517276763916
▁session	-9.965774536132812
▁Second	-9.965813636779785
▁moving	-9.96583366394043
▁practical	-9.965899467468262
▁:	-9.966585159301758
▁2007	-9.967340469360352
10	-9.967412948608398
40	-9.967631340026855
▁Authority	-9.96843433380127
ise	-9.968503952026367
▁floor	-9.968667030334473
▁Roy	-9.969098091125488
▁Le	-9.969115257263184
▁1960	-9.969165802001953
▁band	-9.969270706176758
▁seemed	-9.969969749450684
▁organized	-9.970521926879883
▁committed	-9.971049308776855
▁functions	-9.971131324768066
▁Liberation	-9.9715576171875
▁helping	-9.971633911132812
▁path	-9.97237777709961
▁highly	-9.972491264343262
dar	-9.97387409210205
les	-9.975115776062012
▁widely	-9.97547721862793
▁challenge	-9.97563362121582
▁secondary	-9.976350784301758
▁Rather	-9.97700023651123
▁Medical	-9.977442741394043
▁waiting	-9.977459907531738
▁actor	-9.977774620056152
▁1.	-9.977871894836426
▁Land	-9.978108406066895
▁continues	-9.978167533874512
▁airport	-9.978324890136719
▁occurred	-9.978503227233887
▁mouth	-9.978716850280762
▁numerous	-9.980076789855957
ard	-9.980255126953125
ong	-9.980644226074219
▁claim	-9.980709075927734
▁Both	-9.980969429016113
ho	-9.981145858764648
▁prepare	-9.981816291809082
▁Lu	-9.98193645477295
▁survey	-9.982453346252441
▁era	-9.982928276062012
▁Ba	-9.984212875366211
▁institution	-9.984234809875488
▁di	-9.985013008117676
▁ran	-9.985615730285645
her	-9.985848426818848
▁express	-9.986259460449219
▁spend	-9.987411499023438
▁cricketer	-9.987466812133789
▁fruit	-9.987629890441895
▁planning	-9.987658500671387
▁Ja	-9.988227844238281
▁Therefore	-9.988764762878418
▁Its	-9.989055633544922
▁Bureau	-9.989216804504395
▁strike	-9.989782333374023
▁Study	-9.990838050842285
▁note	-9.991263389587402
▁easily	-9.99191665649414
▁ended	-9.992634773254395
▁revealed	-9.993096351623535
▁struggle	-9.994436264038086
yan	-9.994587898254395
▁credit	-9.994699478149414
▁Besides	-9.994808197021484
▁Pro	-9.995254516601562
para	-9.99541187286377
▁Home	-9.996456146240234
▁Myanmar	-9.996877670288086
▁prophecy	-9.997347831726074
▁variety	-9.997347831726074
▁Pa	-9.997427940368652
▁Arabia	-9.998266220092773
▁Center	-9.999173164367676
▁channel	-10.000182151794434
▁projects	-10.000640869140625
▁prayers	-10.000909805297852
ron	-10.000923156738281
▁Hossain	-10.001712799072266
▁promised	-10.001891136169434
▁invited	-10.001967430114746
▁Ki	-10.00233268737793
▁links	-10.002344131469727
▁Use	-10.002408981323242
▁games	-10.00252914428711
▁William	-10.002679824829102
▁exercise	-10.002723693847656
▁cold	-10.005606651306152
▁unit	-10.00617790222168
▁sort	-10.006217956542969
▁wood	-10.006998062133789
▁Sha	-10.007037162780762
▁elder	-10.007460594177246
▁lies	-10.00854206085205
shi	-10.01010799407959
▁add	-10.010140419006348
▁Da	-10.010251998901367
▁worth	-10.010931015014648
▁claimed	-10.011926651000977
▁Catholic	-10.011935234069824
▁dedicated	-10.012490272521973
▁Information	-10.012895584106445
▁lines	-10.014616966247559
▁travel	-10.014862060546875
▁privilege	-10.015019416809082
▁details	-10.016074180603027
▁additional	-10.016568183898926
▁software	-10.0171537399292
▁1950	-10.017535209655762
▁doctor	-10.01768970489502
chi	-10.01771354675293
▁stopped	-10.017793655395508
▁encouraged	-10.017990112304688
▁conducted	-10.01833724975586
Proverbs	-10.018617630004883
12	-10.018696784973145
tu	-10.019134521484375
▁assistance	-10.019405364990234
▁carrying	-10.01967716217041
▁Make	-10.019758224487305
▁1990	-10.020062446594238
▁situated	-10.020482063293457
▁correct	-10.0208101272583
▁encourage	-10.022848129272461
▁Local	-10.023292541503906
▁hot	-10.023656845092773
▁setting	-10.024093627929688
▁organizations	-10.024291038513184
▁grew	-10.02441692352295
▁acts	-10.024469375610352
▁constitution	-10.024831771850586
si	-10.02509880065918
▁buildings	-10.025528907775879
▁fighters	-10.025689125061035
▁Select	-10.025897026062012
▁becomes	-10.026744842529297
▁sharing	-10.02682876586914
19	-10.027680397033691
▁keeping	-10.027828216552734
▁Following	-10.028735160827637
00	-10.029523849487305
▁Hi	-10.029851913452148
▁trees	-10.030008316040039
▁Moreover	-10.030046463012695
▁observed	-10.030400276184082
off	-10.030540466308594
▁values	-10.03079605102539
▁ha	-10.030805587768555
▁victims	-10.03110408782959
50	-10.031550407409668
▁expect	-10.031892776489258
▁rent	-10.032149314880371
▁activist	-10.032378196716309
▁distance	-10.032915115356445
▁remove	-10.033105850219727
▁impact	-10.033483505249023
▁7.	-10.033549308776855
ised	-10.033706665039062
▁respond	-10.03416919708252
▁Book	-10.034348487854004
▁poverty	-10.035077095031738
▁YouTube	-10.035642623901367
▁staff	-10.035755157470703
▁stood	-10.036216735839844
▁answers	-10.0364408493042
▁conversation	-10.036456108093262
▁Technology	-10.036774635314941
▁imitate	-10.037342071533203
▁route	-10.037832260131836
▁scored	-10.038147926330566
lan	-10.038172721862793
▁plants	-10.038447380065918
▁movie	-10.038748741149902
▁commission	-10.039032936096191
▁goals	-10.039928436279297
▁la	-10.040242195129395
▁Governor	-10.040413856506348
▁Mother	-10.04153823852539
▁publishers	-10.041773796081543
▁Line	-10.042571067810059
▁prominent	-10.042659759521484
▁Chairman	-10.042675971984863
▁Also	-10.042925834655762
▁Devil	-10.043529510498047
▁sold	-10.043771743774414
This	-10.043789863586426
▁reality	-10.0442476272583
▁cross	-10.044519424438477
▁attacks	-10.044535636901855
▁star	-10.045637130737305
▁everlasting	-10.045949935913086
▁Keep	-10.046055793762207
▁judgment	-10.046972274780273
▁web	-10.047133445739746
▁willing	-10.047480583190918
▁increasing	-10.047895431518555
▁Cultural	-10.048168182373047
▁sacred	-10.048271179199219
▁Mexico	-10.048273086547852
▁numbers	-10.048640251159668
▁indeed	-10.048835754394531
▁Give	-10.049354553222656
▁Raj	-10.049437522888184
ble	-10.04944896697998
▁improve	-10.050058364868164
▁Statistics	-10.050461769104004
ative	-10.05081558227539
▁fair	-10.05096435546875
▁loyal	-10.051173210144043
han	-10.052067756652832
▁reign	-10.05426025390625
▁obtained	-10.05440616607666
▁Singapore	-10.05444049835205
▁green	-10.055898666381836
▁streets	-10.057083129882812
▁Sen	-10.057132720947266
▁establish	-10.058220863342285
▁murder	-10.05832576751709
▁hall	-10.058658599853516
▁teams	-10.058696746826172
▁department	-10.058772087097168
▁corruption	-10.059386253356934
gu	-10.05954647064209
▁capacity	-10.059773445129395
▁refused	-10.060333251953125
▁god	-10.060741424560547
▁citizen	-10.060945510864258
▁agree	-10.061234474182129
▁parent	-10.061307907104492
▁2000	-10.061563491821289
▁headquarters	-10.062005996704102
Genesis	-10.06247329711914
▁internet	-10.063213348388672
tan	-10.06379222869873
▁initiative	-10.063942909240723
well	-10.063983917236328
▁minute	-10.064165115356445
▁Ben	-10.064166069030762
▁resurrection	-10.064400672912598
▁Na	-10.064423561096191
▁industrial	-10.064643859863281
▁appreciate	-10.064675331115723
▁attempt	-10.06489372253418
▁anger	-10.065112113952637
▁competition	-10.06576156616211
▁Lo	-10.066609382629395
▁Retriev	-10.066670417785645
My	-10.067289352416992
▁dream	-10.067402839660645
▁Perhaps	-10.067920684814453
▁faced	-10.067953109741211
▁appreciation	-10.0684232711792
▁crisis	-10.069010734558105
▁nominated	-10.069814682006836
uk	-10.070428848266602
▁flag	-10.070845603942871
▁disc	-10.070996284484863
*	-10.072113990783691
▁arrest	-10.072144508361816
▁bed	-10.073171615600586
▁villages	-10.074065208435059
▁favor	-10.074332237243652
▁Royal	-10.074360847473145
▁Others	-10.075055122375488
▁Males	-10.075267791748047
▁player	-10.07555103302002
▁foot	-10.075948715209961
▁traffic	-10.077261924743652
▁FIFA	-10.077820777893066
we	-10.078845024108887
▁Kong	-10.079683303833008
▁card	-10.08035945892334
▁cell	-10.080434799194336
▁fourth	-10.08100414276123
▁Help	-10.081567764282227
▁Hong	-10.082167625427246
▁difference	-10.082489967346191
▁afraid	-10.08255386352539
▁incident	-10.08336067199707
▁sites	-10.083441734313965
▁estimated	-10.083462715148926
▁brain	-10.083555221557617
▁realize	-10.083756446838379
pi	-10.084150314331055
▁Census	-10.084928512573242
▁lie	-10.084996223449707
▁coverage	-10.085664749145508
▁Sub	-10.085774421691895
▁relief	-10.0861177444458
▁spoken	-10.086301803588867
▁recognition	-10.086712837219238
God	-10.086772918701172
▁recognized	-10.086810111999512
▁sports	-10.08702278137207
gan	-10.08741283416748
▁perform	-10.087457656860352
▁materials	-10.087736129760742
▁Scriptural	-10.087904930114746
▁professor	-10.08796215057373
▁Peace	-10.088068008422852
▁Right	-10.088134765625
▁sick	-10.088581085205078
ING	-10.088793754577637
mer	-10.089298248291016
▁map	-10.089737892150879
▁appearance	-10.089838027954102
▁extended	-10.090386390686035
▁Three	-10.090404510498047
▁identified	-10.090604782104492
▁Holy	-10.091009140014648
▁Children	-10.091012954711914
▁ensure	-10.091882705688477
▁figure	-10.092129707336426
▁saved	-10.092386245727539
▁drinking	-10.092652320861816
▁memory	-10.092745780944824
▁6.	-10.092887878417969
▁Rajshahi	-10.093955993652344
▁removed	-10.094183921813965
▁Spain	-10.096382141113281
▁host	-10.096709251403809
ow	-10.09675407409668
▁1970	-10.096901893615723
▁translation	-10.09719467163086
▁chosen	-10.097335815429688
▁drink	-10.098429679870605
▁promises	-10.098448753356934
▁adopted	-10.099447250366211
▁liberation	-10.099980354309082
14	-10.100220680236816
▁critical	-10.100676536560059
▁wonder	-10.100852012634277
▁Port	-10.101067543029785
▁rain	-10.101634979248047
▁potential	-10.10319995880127
▁tells	-10.103215217590332
▁proposed	-10.103781700134277
▁busy	-10.104168891906738
▁vote	-10.104999542236328
▁ban	-10.105755805969238
▁apostles	-10.105839729309082
▁ruling	-10.105982780456543
▁empty	-10.106027603149414
▁TO	-10.106287956237793
▁Brother	-10.10644817352295
▁academic	-10.10655689239502
▁raise	-10.106925964355469
▁Airport	-10.107812881469727
▁studying	-10.108027458190918
▁rock	-10.109051704406738
▁revenue	-10.110188484191895
▁entitled	-10.110212326049805
▁Railway	-10.110708236694336
io	-10.11147403717041
pt	-10.111566543579102
▁Pra	-10.111668586730957
▁Pet	-10.111712455749512
▁Once	-10.111872673034668
way	-10.112189292907715
▁flesh	-10.11301040649414
century	-10.113231658935547
▁starting	-10.113300323486328
tar	-10.113382339477539
▁Indonesia	-10.11393928527832
▁closed	-10.114028930664062
▁blessing	-10.114073753356934
▁Civil	-10.116267204284668
▁practices	-10.116402626037598
▁wind	-10.116543769836426
▁benefits	-10.116598129272461
▁neither	-10.116936683654785
▁Source	-10.118202209472656
▁videos	-10.118505477905273
▁exactly	-10.118650436401367
▁behavior	-10.118778228759766
izing	-10.11951732635498
▁3,	-10.119561195373535
▁Paris	-10.119958877563477
▁marked	-10.120619773864746
▁Centre	-10.120713233947754
▁silver	-10.121261596679688
▁guy	-10.12149429321289
▁reflect	-10.121503829956055
▁conscience	-10.121862411499023
▁Family	-10.121919631958008
ek	-10.122173309326172
▁origin	-10.12219524383545
▁Was	-10.122349739074707
▁Indeed	-10.122488021850586
▁filled	-10.122528076171875
▁leadership	-10.122589111328125
Z	-10.123348236083984
▁36	-10.123600006103516
▁photos	-10.124448776245117
▁blessings	-10.124475479125977
▁programme	-10.124505996704102
▁2005	-10.124685287475586
▁integrity	-10.124945640563965
▁Up	-10.12556266784668
▁dangerous	-10.125646591186523
▁milk	-10.125692367553711
▁piece	-10.125971794128418
▁aware	-10.12601089477539
▁plans	-10.126245498657227
]:	-10.126656532287598
▁arms	-10.12665843963623
▁industries	-10.126803398132324
ura	-10.12714958190918
▁identity	-10.127423286437988
▁journey	-10.127423286437988
law	-10.127569198608398
▁Last	-10.127881050109863
▁helps	-10.12826156616211
▁younger	-10.128544807434082
▁damage	-10.128769874572754
▁cast	-10.12912368774414
▁executive	-10.1293306350708
ors	-10.129561424255371
▁originally	-10.12960433959961
▁mere	-10.13004207611084
▁Ahmad	-10.130110740661621
▁approval	-10.130528450012207
▁welfare	-10.130528450012207
▁Social	-10.130706787109375
▁recognize	-10.13100814819336
▁isn	-10.131033897399902
▁45	-10.13112735748291
▁examination	-10.131531715393066
▁courage	-10.131770133972168
▁Grand	-10.132399559020996
▁Hence	-10.132857322692871
▁digital	-10.132872581481934
▁decades	-10.13320255279541
tro	-10.133552551269531
▁abuse	-10.133566856384277
▁80	-10.13386344909668
▁Ko	-10.134260177612305
▁nuclear	-10.134267807006836
▁assignment	-10.13459587097168
▁Free	-10.135823249816895
▁ethnic	-10.136680603027344
▁squad	-10.136723518371582
▁glory	-10.13676929473877
▁organisations	-10.136853218078613
▁Raja	-10.13692569732666
▁suffer	-10.137282371520996
▁Rome	-10.137445449829102
▁Museum	-10.138021469116211
bari	-10.138140678405762
▁2011.	-10.138232231140137
▁Area	-10.138348579406738
▁affairs	-10.138911247253418
▁accused	-10.138937950134277
▁Jeremiah	-10.139159202575684
▁preach	-10.139837265014648
▁safety	-10.14001750946045
13	-10.140318870544434
▁seeing	-10.140318870544434
▁bill	-10.1405029296875
▁Week	-10.142316818237305
▁uses	-10.142645835876465
▁mental	-10.1430082321167
▁affect	-10.14331340789795
▁precious	-10.143782615661621
▁8.	-10.144112586975098
▁scientific	-10.144336700439453
▁Young	-10.145466804504395
▁15,	-10.146062850952148
▁congregations	-10.146878242492676
▁chairman	-10.147019386291504
▁Zealand	-10.147467613220215
▁Street	-10.147538185119629
▁theatre	-10.147591590881348
my	-10.148396492004395
▁Miss	-10.149014472961426
▁38	-10.150155067443848
▁causes	-10.150394439697266
▁Ex	-10.150681495666504
▁Latin	-10.150832176208496
How	-10.150858879089355
▁Mal	-10.150870323181152
▁Any	-10.151131629943848
▁occur	-10.152436256408691
▁extent	-10.152551651000977
▁Pe	-10.152815818786621
▁bridge	-10.152948379516602
▁Ro	-10.153314590454102
▁lay	-10.154525756835938
mar	-10.154677391052246
▁subjects	-10.15493106842041
80	-10.15514850616455
▁joint	-10.155548095703125
▁newly	-10.155966758728027
▁records	-10.156047821044922
che	-10.156055450439453
▁Fa	-10.156270980834961
▁Per	-10.156322479248047
▁2011,	-10.156325340270996
▁walls	-10.157177925109863
▁employment	-10.157228469848633
▁novel	-10.157692909240723
red	-10.15774917602539
▁fighting	-10.15787410736084
▁Black	-10.157910346984863
▁promote	-10.158042907714844
18	-10.15811538696289
▁finished	-10.158292770385742
▁Twenty	-10.15892219543457
▁Tu	-10.159173011779785
▁festival	-10.159671783447266
▁summer	-10.159881591796875
▁Dad	-10.160077095031738
▁publications	-10.160630226135254
▁mode	-10.161541938781738
Jehovah	-10.16154670715332
▁net	-10.161853790283203
▁distribution	-10.162132263183594
▁revolution	-10.162156105041504
▁destroy	-10.162327766418457
▁Old	-10.162415504455566
▁suffered	-10.162808418273926
▁Mi	-10.162906646728516
▁Championship	-10.162983894348145
▁severe	-10.163678169250488
▁mark	-10.164220809936523
▁Times	-10.164891242980957
▁Engineering	-10.165068626403809
▁earned	-10.165143013000488
▁opportunities	-10.165342330932617
▁Syrian	-10.165910720825195
▁34	-10.166178703308105
▁4,	-10.166748046875
▁Total	-10.166901588439941
▁Assam	-10.166912078857422
▁Justice	-10.167393684387207
▁relative	-10.167473793029785
▁multi	-10.16756820678711
▁Supreme	-10.167922019958496
11	-10.168439865112305
▁True	-10.168835639953613
house	-10.1696138381958
▁guard	-10.169771194458008
▁regions	-10.170392036437988
▁hundreds	-10.170512199401855
▁arrangement	-10.17092514038086
▁existing	-10.171104431152344
▁experiences	-10.171258926391602
▁mill	-10.17171859741211
ff	-10.17236042022705
gar	-10.172390937805176
ator	-10.172728538513184
▁initial	-10.172823905944824
▁criminal	-10.173559188842773
▁servant	-10.173622131347656
▁Pradesh	-10.173759460449219
▁Car	-10.174224853515625
▁track	-10.17426872253418
▁developing	-10.174508094787598
▁programs	-10.174598693847656
▁enjoyed	-10.174609184265137
▁Art	-10.174810409545898
▁notes	-10.174887657165527
ver	-10.1749267578125
▁deeply	-10.175108909606934
▁Australian	-10.175148963928223
ung	-10.175270080566406
▁notable	-10.176104545593262
known	-10.176127433776855
▁treat	-10.176287651062012
▁provision	-10.177138328552246
▁scholars	-10.177620887756348
▁applied	-10.177656173706055
▁harm	-10.17780876159668
▁walking	-10.178390502929688
▁200	-10.17839527130127
▁drawn	-10.178511619567871
▁garden	-10.1788969039917
▁personality	-10.179101943969727
▁Men	-10.181028366088867
nath	-10.181124687194824
▁trouble	-10.181233406066895
▁Thailand	-10.18161678314209
▁ruler	-10.181869506835938
▁principal	-10.181950569152832
▁principle	-10.182076454162598
▁function	-10.182174682617188
▁engaged	-10.18248176574707
▁negative	-10.182613372802734
▁literary	-10.182894706726074
▁armed	-10.184496879577637
▁w	-10.184809684753418
▁Hospital	-10.184855461120605
▁climate	-10.184855461120605
▁quick	-10.1854248046875
▁Star	-10.185582160949707
▁operations	-10.186111450195312
▁Library	-10.186169624328613
ari	-10.186450004577637
▁Ya	-10.186491966247559
▁parliament	-10.186712265014648
▁singer	-10.186751365661621
▁failure	-10.186904907226562
%	-10.187322616577148
▁Administration	-10.187512397766113
▁wild	-10.187655448913574
▁semi	-10.187779426574707
▁larger	-10.188132286071777
▁duties	-10.188157081604004
▁wealth	-10.188780784606934
▁harmony	-10.18881893157959
▁Kings	-10.190546035766602
▁BC	-10.191080093383789
▁measure	-10.192686080932617
▁translated	-10.193172454833984
all	-10.19355297088623
▁Awake	-10.194096565246582
▁1971	-10.194131851196289
▁fields	-10.194133758544922
75	-10.194221496582031
▁Foreign	-10.194805145263672
▁contain	-10.194808959960938
▁Po	-10.194877624511719
▁review	-10.195319175720215
▁Festival	-10.195420265197754
▁laid	-10.195669174194336
az	-10.196459770202637
▁pictures	-10.196638107299805
▁documents	-10.196748733520508
▁Major	-10.196843147277832
▁Work	-10.197062492370605
▁wasn	-10.197212219238281
▁Constitution	-10.197290420532227
▁enemies	-10.197413444519043
▁senior	-10.197413444519043
▁Olympic	-10.197555541992188
▁forth	-10.197872161865234
▁wear	-10.198305130004883
▁views	-10.198509216308594
▁Stop	-10.198512077331543
▁Brazil	-10.198662757873535
▁Foundation	-10.198809623718262
▁sweet	-10.198820114135742
our	-10.19906997680664
mon	-10.19918441772461
▁homes	-10.199461936950684
▁replaced	-10.199554443359375
▁realized	-10.19997501373291
▁sight	-10.200605392456055
▁specified	-10.2007474899292
▁Mir	-10.200820922851562
▁hearing	-10.200956344604492
▁En	-10.201088905334473
▁philosophy	-10.20144271850586
▁methods	-10.201555252075195
▁slow	-10.201833724975586
▁Britain	-10.202081680297852
▁Sun	-10.202718734741211
▁library	-10.20274829864502
15	-10.203051567077637
ical	-10.203845977783203
▁remaining	-10.203978538513184
ita	-10.204127311706543
q	-10.204666137695312
▁offering	-10.20477294921875
▁compared	-10.204792976379395
▁Punjab	-10.205205917358398
▁hurt	-10.205437660217285
▁regional	-10.206024169921875
ullah	-10.206067085266113
")	-10.206291198730469
▁otherwise	-10.206429481506348
▁overseer	-10.206547737121582
▁effects	-10.2069091796875
-17	-10.206978797912598
▁transfer	-10.207487106323242
▁enemy	-10.208111763000488
iv	-10.208545684814453
▁obtain	-10.208890914916992
ster	-10.20889949798584
▁discipline	-10.209403991699219
°	-10.209650993347168
▁contrast	-10.210164070129395
tor	-10.210306167602539
ac	-10.210677146911621
▁sides	-10.210738182067871
wan	-10.21097183227539
▁danger	-10.211161613464355
▁Force	-10.211701393127441
▁council	-10.211965560913086
ze	-10.211977005004883
▁2012,	-10.211991310119629
▁Province	-10.212153434753418
▁relatives	-10.213496208190918
▁speed	-10.214386940002441
ning	-10.21493148803711
▁Char	-10.215075492858887
▁rose	-10.215251922607422
▁medicine	-10.215436935424805
▁agreed	-10.215832710266113
▁requires	-10.216086387634277
▁mine	-10.216178894042969
▁native	-10.216221809387207
▁indigenous	-10.216243743896484
▁kindness	-10.21665096282959
▁unless	-10.217283248901367
▁Prayer	-10.217302322387695
▁mountain	-10.217633247375488
ig	-10.217890739440918
▁registered	-10.21792984008789
05	-10.218188285827637
▁Ray	-10.218255043029785
▁foundation	-10.218347549438477
▁Special	-10.218374252319336
▁double	-10.218875885009766
▁8,	-10.219526290893555
▁Project	-10.219623565673828
▁10.	-10.220020294189453
▁receiving	-10.221004486083984
▁levels	-10.221007347106934
▁Te	-10.221806526184082
▁contained	-10.222311019897461
.'"	-10.22270393371582
▁vision	-10.223407745361328
▁impossible	-10.223706245422363
▁gun	-10.223947525024414
▁Noah	-10.224797248840332
▁background	-10.22481918334961
▁Har	-10.224876403808594
bu	-10.225576400756836
▁Out	-10.225822448730469
▁reference	-10.225876808166504
▁appeal	-10.226334571838379
For	-10.226723670959473
07	-10.226921081542969
▁symbol	-10.227303504943848
▁duty	-10.227853775024414
▁protesters	-10.2283353805542
▁aspects	-10.22855281829834
▁gods	-10.228972434997559
▁accurate	-10.229086875915527
▁height	-10.229310035705566
▁strengthen	-10.229558944702148
▁folk	-10.22961139678955
▁Di	-10.229669570922852
▁closer	-10.229945182800293
▁Du	-10.229949951171875
▁warm	-10.230011940002441
▁imagine	-10.230510711669922
▁context	-10.23055648803711
▁telling	-10.231040954589844
▁Prize	-10.231266975402832
▁album	-10.231412887573242
▁Master	-10.231526374816895
▁prime	-10.231732368469238
▁elements	-10.232050895690918
▁determine	-10.232098579406738
▁connected	-10.232243537902832
▁refer	-10.232324600219727
▁Chi	-10.232368469238281
abad	-10.232558250427246
▁*	-10.233407974243164
▁mate	-10.233490943908691
▁weight	-10.233778953552246
▁touch	-10.23539924621582
▁contract	-10.236017227172852
▁worker	-10.236164093017578
Ps	-10.236994743347168
▁Without	-10.237329483032227
▁boys	-10.237689971923828
▁skin	-10.23786449432373
▁gained	-10.238038063049316
▁broke	-10.238177299499512
▁describes	-10.238194465637207
▁store	-10.239404678344727
▁Malaysia	-10.23949146270752
▁Nawab	-10.239692687988281
▁drive	-10.24001693725586
▁household	-10.240177154541016
▁believers	-10.240375518798828
▁engineering	-10.24072265625
▁Bay	-10.240921020507812
▁Far	-10.242439270019531
▁View	-10.242656707763672
ries	-10.24299430847168
▁warning	-10.243029594421387
▁Iraq	-10.243183135986328
▁dry	-10.243378639221191
▁granted	-10.244266510009766
▁stars	-10.244281768798828
▁dear	-10.24448299407959
When	-10.244661331176758
▁labor	-10.245264053344727
▁banks	-10.245293617248535
▁residents	-10.245944023132324
▁platform	-10.246200561523438
▁Bethel	-10.246482849121094
▁twenty	-10.246591567993164
▁jail	-10.246742248535156
▁pure	-10.247069358825684
▁refers	-10.247075080871582
▁lesson	-10.247148513793945
▁stations	-10.24718952178955
▁hell	-10.247374534606934
▁unable	-10.248432159423828
▁offence	-10.248835563659668
▁attacked	-10.248895645141602
▁essential	-10.249189376831055
Let	-10.250301361083984
▁tour	-10.250638961791992
Romans	-10.251359939575195
end	-10.251395225524902
▁Order	-10.251546859741211
▁Eve	-10.252068519592285
▁Sunday	-10.252197265625
▁Z	-10.252439498901367
ham	-10.252667427062988
▁beliefs	-10.252754211425781
▁fill	-10.253582000732422
▁flow	-10.253883361816406
▁Pre	-10.25400161743164
▁boat	-10.254094123840332
▁1947	-10.25412368774414
▁exists	-10.254436492919922
▁55	-10.254467010498047
17	-10.25451946258545
▁Jordan	-10.254776000976562
▁Syed	-10.254859924316406
▁cinema	-10.2548828125
▁traveling	-10.255106925964355
▁roles	-10.255330085754395
▁advantage	-10.255419731140137
▁approved	-10.255459785461426
▁vast	-10.256010055541992
▁respectively	-10.25605583190918
▁Hill	-10.256160736083984
▁Ga	-10.256351470947266
Isaiah	-10.256573677062988
▁Soon	-10.256606101989746
▁candidate	-10.257616996765137
▁scene	-10.257625579833984
▁posts	-10.257833480834961
▁prior	-10.258195877075195
▁letters	-10.258206367492676
▁unity	-10.258222579956055
ip	-10.258379936218262
▁blue	-10.258541107177734
▁Das	-10.258562088012695
▁link	-10.258810043334961
▁Witness	-10.259194374084473
▁42	-10.259278297424316
See	-10.259502410888672
▁Ke	-10.26034927368164
▁appointment	-10.261226654052734
▁machine	-10.261251449584961
▁violent	-10.261947631835938
▁1997	-10.262396812438965
ng	-10.262563705444336
lin	-10.262739181518555
▁couldn	-10.262870788574219
▁employees	-10.263799667358398
▁Prince	-10.265124320983887
▁bus	-10.265144348144531
▁worry	-10.265280723571777
▁5,	-10.26556396484375
▁IN	-10.265658378601074
▁successfully	-10.265827178955078
▁interview	-10.265850067138672
06	-10.26585865020752
kh	-10.265902519226074
▁Say	-10.26594066619873
▁abroad	-10.266241073608398
▁belief	-10.266341209411621
▁ICC	-10.267247200012207
▁escape	-10.267691612243652
▁weak	-10.268082618713379
28	-10.26864242553711
▁discussed	-10.268860816955566
▁royal	-10.26909065246582
▁Afghan	-10.269530296325684
▁founder	-10.269657135009766
▁password	-10.269828796386719
▁9.	-10.270295143127441
▁Michael	-10.270598411560059
90	-10.270657539367676
ped	-10.270872116088867
▁leaves	-10.271252632141113
▁Golden	-10.2712984085083
▁Media	-10.271631240844727
▁Remember	-10.27220630645752
▁managed	-10.272371292114258
▁k	-10.272602081298828
▁punishment	-10.272713661193848
▁37	-10.273055076599121
▁Matt	-10.273118019104004
▁Charles	-10.273442268371582
▁Kar	-10.274075508117676
▁broken	-10.275459289550781
▁Hindi	-10.275792121887207
▁seeking	-10.276159286499023
▁Power	-10.27646255493164
istic	-10.27660083770752
mp	-10.276707649230957
▁Sanskrit	-10.277050018310547
▁illegal	-10.277490615844727
▁items	-10.277531623840332
▁Par	-10.277624130249023
▁Google	-10.277774810791016
▁priest	-10.27808666229248
▁ransom	-10.278433799743652
▁trials	-10.279200553894043
▁sitting	-10.280016899108887
60	-10.28016185760498
▁classes	-10.280393600463867
ions	-10.280537605285645
▁knowing	-10.280790328979492
▁challenges	-10.28179931640625
▁Olympics	-10.28188419342041
ping	-10.282122611999512
▁mis	-10.282130241394043
▁Has	-10.282505989074707
▁stock	-10.283039093017578
▁looks	-10.283082008361816
▁formation	-10.28377914428711
▁brings	-10.283811569213867
▁beauty	-10.284213066101074
22	-10.284323692321777
▁scale	-10.284729957580566
▁Noted	-10.28534984588623
▁closely	-10.285520553588867
▁threat	-10.28585147857666
▁orders	-10.285928726196289
▁constructed	-10.286269187927246
▁prescribed	-10.28654956817627
▁Pat	-10.286840438842773
au	-10.287069320678711
nt	-10.28726863861084
ap	-10.287650108337402
▁ka	-10.287803649902344
04	-10.287924766540527
▁da	-10.28967571258545
▁influenced	-10.28972053527832
▁nice	-10.289926528930664
▁highway	-10.29015064239502
▁("	-10.290365219116211
▁Hu	-10.290369033813477
mal	-10.290410041809082
▁sat	-10.290610313415527
▁adult	-10.290663719177246
ot	-10.291024208068848
▁rulers	-10.291378021240234
▁creating	-10.291495323181152
▁2013,	-10.291885375976562
▁teachings	-10.292038917541504
▁39	-10.292106628417969
▁universe	-10.292226791381836
▁upper	-10.292343139648438
▁ruled	-10.292661666870117
▁export	-10.292665481567383
ible	-10.292746543884277
▁blind	-10.293048858642578
▁Gaza	-10.29334545135498
▁secular	-10.293521881103516
▁guidance	-10.29368782043457
ring	-10.293700218200684
▁namely	-10.294120788574219
▁treated	-10.294395446777344
▁factors	-10.29439640045166
▁caught	-10.29443359375
▁righteousness	-10.294880867004395
▁governor	-10.295145034790039
ini	-10.295302391052246
▁Similarly	-10.295371055603027
▁grown	-10.295491218566895
▁permanent	-10.296422004699707
▁Really	-10.296956062316895
▁primarily	-10.297356605529785
Be	-10.297445297241211
26	-10.297769546508789
▁heavens	-10.298428535461426
▁consideration	-10.298651695251465
▁fixed	-10.299236297607422
▁wickets	-10.299310684204102
▁Pan	-10.299534797668457
To	-10.300576210021973
08	-10.300609588623047
▁bin	-10.30092716217041
▁zone	-10.301261901855469
▁labour	-10.30159854888916
▁journalists	-10.301633834838867
▁thank	-10.301665306091309
▁shut	-10.302162170410156
▁examine	-10.30262565612793
▁Ta	-10.303522109985352
▁interesting	-10.303618431091309
king	-10.304039001464844
▁Security	-10.304734230041504
▁sins	-10.304747581481934
▁previously	-10.304937362670898
▁technical	-10.30534553527832
▁Finally	-10.305891036987305
▁latter	-10.306254386901855
fi	-10.306611061096191
▁mention	-10.306658744812012
▁Post	-10.306848526000977
▁Music	-10.306931495666504
▁Mount	-10.306950569152832
Ma	-10.306962013244629
▁description	-10.307177543640137
fe	-10.30732536315918
▁handle	-10.308008193969727
-16	-10.308091163635254
▁godly	-10.308915138244629
ku	-10.309752464294434
▁clothes	-10.309903144836426
▁valuable	-10.309930801391602
▁bringing	-10.309932708740234
▁storm	-10.310110092163086
▁import	-10.310139656066895
▁winter	-10.310192108154297
▁demonstrate	-10.310253143310547
▁ball	-10.310754776000977
▁resulted	-10.310791015625
▁Movement	-10.310809135437012
ns	-10.310832977294922
▁nearby	-10.310929298400879
▁represent	-10.311351776123047
▁Tell	-10.311402320861816
▁survive	-10.311500549316406
▁sky	-10.311639785766602
09	-10.312285423278809
▁writers	-10.312334060668945
▁approximately	-10.312405586242676
▁seats	-10.312413215637207
▁Language	-10.312520980834961
▁humble	-10.312920570373535
▁f	-10.31395149230957
▁Tower	-10.314538955688477
16	-10.315009117126465
▁mission	-10.315141677856445
▁chose	-10.315488815307617
gram	-10.3154935836792
▁Press	-10.315714836120605
▁Y	-10.315921783447266
▁medium	-10.316031455993652
▁disaster	-10.316157341003418
▁comment	-10.316347122192383
▁park	-10.316571235656738
▁Jacob	-10.316652297973633
▁baptism	-10.317401885986328
jan	-10.317407608032227
There	-10.318302154541016
▁regulations	-10.318465232849121
▁artist	-10.318587303161621
▁horse	-10.318989753723145
▁2002	-10.319021224975586
▁Pacific	-10.319120407104492
▁drug	-10.319863319396973
▁carefully	-10.319876670837402
▁missionary	-10.321259498596191
ft	-10.321830749511719
▁format	-10.322111129760742
▁magazines	-10.322542190551758
responsibilities	-10.322665214538574
▁suggested	-10.323534965515137
▁ca	-10.324077606201172
rat	-10.324490547180176
▁twice	-10.324929237365723
▁Temple	-10.324933052062988
▁Actress	-10.325052261352539
▁earthly	-10.325428009033203
▁reform	-10.326013565063477
▁captain	-10.326108932495117
▁fruits	-10.326590538024902
▁commonly	-10.326859474182129
▁gradually	-10.327385902404785
01	-10.327531814575195
ile	-10.327532768249512
▁players	-10.327775955200195
▁figures	-10.32785701751709
▁2019	-10.328102111816406
▁Office	-10.328178405761719
▁circuit	-10.328753471374512
▁obey	-10.328998565673828
▁brief	-10.330058097839355
ika	-10.3307466506958
▁tomb	-10.331368446350098
▁missing	-10.331502914428711
ny	-10.331682205200195
▁concept	-10.332498550415039
ward	-10.333086013793945
▁waste	-10.333200454711914
▁counter	-10.333431243896484
▁unknown	-10.33360767364502
▁Krishna	-10.333944320678711
▁Nevertheless	-10.334037780761719
tha	-10.334173202514648
▁2014,	-10.334623336791992
▁balance	-10.335043907165527
▁Death	-10.335057258605957
▁solution	-10.336222648620605
▁Korean	-10.336705207824707
▁Density	-10.337093353271484
▁1930	-10.337637901306152
▁Captain	-10.338042259216309
▁happens	-10.338420867919922
ium	-10.338712692260742
▁41	-10.339133262634277
Re	-10.339338302612305
▁Ri	-10.339388847351074
▁understood	-10.339388847351074
esh	-10.339666366577148
▁ma	-10.339999198913574
▁planned	-10.340235710144043
▁Saul	-10.340239524841309
▁wedding	-10.3406343460083
▁Bad	-10.340840339660645
▁iron	-10.341694831848145
▁pleasure	-10.341719627380371
66	-10.34229850769043
▁Sar	-10.34240436553955
ash	-10.3424711227417
▁Ephesians	-10.343032836914062
▁root	-10.344048500061035
▁2003	-10.344138145446777
▁captured	-10.344156265258789
▁super	-10.344810485839844
▁consists	-10.344815254211426
▁investigation	-10.344857215881348
wi	-10.34490966796875
▁offers	-10.346039772033691
▁centres	-10.34605884552002
▁scholar	-10.346137046813965
33	-10.346278190612793
▁Female	-10.346314430236816
▁sad	-10.347677230834961
▁participate	-10.347992897033691
▁Jo	-10.34835147857666
▁extinct	-10.348470687866211
▁gathered	-10.348523139953613
▁worse	-10.348564147949219
▁Revolution	-10.348627090454102
▁guys	-10.349390983581543
▁upazilas	-10.34957218170166
▁trained	-10.350065231323242
▁herself	-10.350460052490234
▁guide	-10.351377487182617
isation	-10.351394653320312
▁Vice	-10.351446151733398
▁entertainment	-10.351765632629395
▁arranged	-10.351927757263184
▁units	-10.352198600769043
jo	-10.352359771728516
▁passing	-10.352943420410156
▁diseases	-10.353028297424316
▁supposed	-10.353700637817383
▁foretold	-10.3540620803833
▁Ten	-10.354077339172363
▁initially	-10.354403495788574
▁extra	-10.35508918762207
▁straight	-10.35511302947998
▁connect	-10.355423927307129
24	-10.356390953063965
▁fresh	-10.356390953063965
▁Personal	-10.35651683807373
▁patient	-10.356624603271484
▁Students	-10.35715103149414
▁Agriculture	-10.357177734375
▁Shi	-10.357353210449219
▁limit	-10.357964515686035
▁flood	-10.357972145080566
▁belong	-10.358185768127441
▁fit	-10.359247207641602
gra	-10.359491348266602
▁Bihar	-10.359789848327637
▁manager	-10.35988712310791
▁winning	-10.35993766784668
pan	-10.36029052734375
▁Italy	-10.360404014587402
▁certificate	-10.360678672790527
▁frequently	-10.360761642456055
▁reaction	-10.360807418823242
zi	-10.360860824584961
▁decide	-10.360867500305176
▁putting	-10.361063003540039
70	-10.361588478088379
▁48	-10.361851692199707
▁Che	-10.361859321594238
not	-10.361893653869629
▁fun	-10.362887382507324
▁weapons	-10.363043785095215
ations	-10.363149642944336
▁united	-10.36347770690918
▁representative	-10.365459442138672
▁(3	-10.366050720214844
▁yes	-10.366131782531738
▁participated	-10.366448402404785
ned	-10.366601943969727
iz	-10.367301940917969
▁tomorrow	-10.367330551147461
▁license	-10.367435455322266
▁careful	-10.367527961730957
over	-10.367583274841309
▁attending	-10.367637634277344
▁tools	-10.367823600769043
▁wheat	-10.368292808532715
▁surprise	-10.368329048156738
▁Back	-10.368678092956543
▁advance	-10.368705749511719
▁covenant	-10.368951797485352
55	-10.369282722473145
▁listed	-10.369367599487305
▁12.	-10.369382858276367
▁heritage	-10.369741439819336
▁operating	-10.369778633117676
dha	-10.370251655578613
▁kings	-10.370540618896484
▁Federation	-10.37054443359375
ju	-10.370553016662598
▁Rural	-10.370580673217773
▁tweeted	-10.370628356933594
▁hide	-10.371088027954102
▁conference	-10.371125221252441
▁satellite	-10.371140480041504
now	-10.37141227722168
▁Move	-10.372753143310547
45	-10.372804641723633
▁option	-10.372883796691895
with	-10.373176574707031
▁OF	-10.373647689819336
▁angels	-10.3738374710083
▁shares	-10.374039649963379
▁2007.	-10.374052047729492
▁eating	-10.37408447265625
▁settled	-10.374533653259277
▁Trust	-10.374673843383789
▁headed	-10.375683784484863
ib	-10.375807762145996
▁owner	-10.375895500183105
▁edition	-10.375997543334961
44	-10.376055717468262
port	-10.376435279846191
▁follows	-10.376872062683105
29	-10.377189636230469
Hebrews	-10.377406120300293
▁Sal	-10.377506256103516
▁secure	-10.377861022949219
▁shape	-10.379121780395508
▁consequences	-10.37926959991455
▁ba	-10.380324363708496
▁adds	-10.380455017089844
-12	-10.380852699279785
▁Hindus	-10.381604194641113
ker	-10.381888389587402
▁/	-10.382181167602539
▁Kha	-10.38235092163086
▁universities	-10.382465362548828
▁Israeli	-10.38262939453125
▁pointed	-10.383649826049805
tin	-10.384139060974121
▁peaceful	-10.384661674499512
▁Maybe	-10.38532543182373
▁Mumbai	-10.385762214660645
▁supporting	-10.385774612426758
▁personally	-10.386048316955566
35	-10.3862943649292
▁(4)	-10.386483192443848
▁Italian	-10.387289047241211
▁democracy	-10.387499809265137
▁settlement	-10.38821792602539
▁hill	-10.388346672058105
▁roof	-10.388901710510254
▁Christianity	-10.389062881469727
▁welcome	-10.38908863067627
▁bread	-10.389269828796387
so	-10.390686988830566
▁11.	-10.390789031982422
▁oldest	-10.391284942626953
▁Next	-10.391308784484863
▁contribution	-10.391406059265137
▁43	-10.391500473022461
▁transferred	-10.392163276672363
▁jute	-10.392181396484375
▁fulfillment	-10.392236709594727
▁coins	-10.392285346984863
▁l	-10.392332077026367
▁1988	-10.3927640914917
▁device	-10.39309024810791
▁vice	-10.39310359954834
▁refugees	-10.393136024475098
▁artists	-10.39356517791748
93	-10.393744468688965
▁Dis	-10.393817901611328
▁Us	-10.393951416015625
▁ordered	-10.394282341003418
27	-10.394794464111328
▁Ca	-10.395157814025879
▁endure	-10.395197868347168
▁defined	-10.395296096801758
▁UK	-10.395620346069336
▁reduced	-10.395878791809082
-1	-10.396770477294922
▁Christmas	-10.397111892700195
▁14.	-10.397140502929688
);	-10.397324562072754
ding	-10.397331237792969
▁urged	-10.397586822509766
▁concerns	-10.39767074584961
▁Listen	-10.398484230041504
▁environmental	-10.398694038391113
▁salvation	-10.399415016174316
▁criticism	-10.400300979614258
▁tongue	-10.400568962097168
▁blogs	-10.400747299194336
▁ibn	-10.401081085205078
▁qualified	-10.402012825012207
▁cash	-10.402271270751953
▁massive	-10.402876853942871
▁(17	-10.403101921081543
▁2010,	-10.403729438781738
▁corner	-10.403876304626465
▁possibly	-10.404361724853516
▁Kali	-10.404568672180176
▁Call	-10.40461254119873
▁conclusion	-10.404728889465332
▁load	-10.405139923095703
▁grave	-10.405769348144531
▁encouragement	-10.406156539916992
van	-10.406304359436035
▁grand	-10.406518936157227
▁require	-10.406533241271973
▁opposite	-10.407588005065918
▁offices	-10.408029556274414
▁Save	-10.408868789672852
▁Khulna	-10.40933895111084
▁Island	-10.409366607666016
▁coast	-10.409431457519531
▁Village	-10.409632682800293
▁hotel	-10.40988540649414
Sa	-10.409955978393555
Na	-10.4103422164917
▁Member	-10.410415649414062
▁portion	-10.41083812713623
03	-10.41092300415039
▁fail	-10.41158676147461
▁Maha	-10.411630630493164
▁observe	-10.412693977355957
▁Kan	-10.41272258758545
▁owned	-10.412764549255371
▁charges	-10.412850379943848
▁Yemen	-10.413097381591797
▁trip	-10.413355827331543
▁Portuguese	-10.413407325744629
All	-10.4135103225708
▁involves	-10.415386199951172
▁Meeting	-10.415541648864746
▁residence	-10.415837287902832
▁Town	-10.415955543518066
Revelation	-10.416448593139648
▁commerce	-10.416810035705566
▁kids	-10.416845321655273
vin	-10.416887283325195
▁47	-10.417007446289062
▁decade	-10.417301177978516
▁ceremony	-10.417485237121582
▁familiar	-10.417485237121582
▁remote	-10.417488098144531
▁troops	-10.41779613494873
▁properly	-10.417813301086426
▁CPI	-10.418505668640137
▁musical	-10.418575286865234
▁claims	-10.41871166229248
ban	-10.418858528137207
▁relating	-10.419144630432129
▁Col	-10.419157981872559
▁Turkey	-10.419157981872559
▁Should	-10.419254302978516
▁useful	-10.419599533081055
▁happening	-10.419954299926758
▁Affairs	-10.419975280761719
let	-10.420574188232422
kin	-10.420580863952637
kha	-10.421225547790527
▁internal	-10.421585083007812
▁stick	-10.421834945678711
▁medal	-10.421849250793457
▁weather	-10.422228813171387
▁Put	-10.422607421875
▁fuel	-10.422747611999512
▁Ju	-10.423101425170898
▁suddenly	-10.423884391784668
▁fought	-10.424147605895996
af	-10.42503547668457
▁institute	-10.425235748291016
▁Ad	-10.42531681060791
▁sentence	-10.425494194030762
▁1920	-10.425538063049316
▁product	-10.425637245178223
▁Washington	-10.425809860229492
▁Failed	-10.426055908203125
▁formal	-10.426750183105469
▁Pi	-10.427489280700684
▁fundamental	-10.42911148071289
▁California	-10.429157257080078
▁identify	-10.429290771484375
▁reasonable	-10.429312705993652
long	-10.429557800292969
38	-10.429862022399902
▁introduction	-10.4299955368042
▁Begum	-10.430045127868652
▁n	-10.4306640625
▁target	-10.430791854858398
▁YOU	-10.431357383728027
▁Congregation	-10.431675910949707
▁Error	-10.431675910949707
▁largely	-10.432097434997559
-20	-10.432397842407227
▁genuine	-10.432422637939453
▁farmers	-10.432539939880371
▁13.	-10.432659149169922
▁victim	-10.433392524719238
tri	-10.433605194091797
▁debate	-10.433746337890625
▁wouldn	-10.434094429016113
▁mercy	-10.434202194213867
▁Real	-10.434216499328613
▁sell	-10.434347152709961
▁facing	-10.43440055847168
▁vegetables	-10.434444427490234
23	-10.435009956359863
▁assistant	-10.435222625732422
▁glass	-10.435588836669922
▁mo	-10.435882568359375
▁Sophie	-10.435888290405273
pro	-10.436308860778809
▁kinds	-10.436344146728516
▁Commissioner	-10.436545372009277
▁Philippines	-10.436644554138184
▁temporary	-10.436737060546875
net	-10.436779022216797
▁Babylon	-10.436823844909668
▁pattern	-10.436871528625488
▁dress	-10.437372207641602
▁1940	-10.437845230102539
▁screen	-10.438370704650879
▁Meanwhile	-10.43842601776123
▁Organization	-10.43844985961914
▁watching	-10.438533782958984
▁catch	-10.43867301940918
▁demands	-10.439501762390137
tter	-10.439591407775879
▁printing	-10.439695358276367
▁Wait	-10.439704895019531
▁assist	-10.439745903015137
▁bi	-10.440011024475098
▁hate	-10.440011024475098
▁birds	-10.440610885620117
▁Ban	-10.440688133239746
▁seed	-10.441048622131348
lam	-10.44115924835205
▁65	-10.44246768951416
▁cancer	-10.442660331726074
▁Girls	-10.442665100097656
▁emotional	-10.442743301391602
▁Municipality	-10.442755699157715
▁museum	-10.442964553833008
▁rare	-10.443325996398926
▁ice	-10.443562507629395
▁insurance	-10.443611145019531
▁taste	-10.444043159484863
om	-10.444238662719727
▁Va	-10.444700241088867
98	-10.445182800292969
▁invitation	-10.445575714111328
▁opposed	-10.445900917053223
▁2009,	-10.445964813232422
▁moon	-10.446049690246582
Ha	-10.446077346801758
▁empire	-10.446415901184082
▁instruction	-10.446566581726074
▁Arts	-10.446615219116211
ER	-10.446616172790527
▁1992	-10.44714641571045
▁prize	-10.447722434997559
▁Station	-10.447746276855469
▁entry	-10.447805404663086
▁holds	-10.448027610778809
-14	-10.44823932647705
▁Ti	-10.448628425598145
▁imprisonment	-10.44864273071289
cus	-10.449506759643555
▁aircraft	-10.449517250061035
▁6,	-10.449554443359375
ger	-10.44974136352539
▁Video	-10.449790000915527
▁reduce	-10.449875831604004
▁metres	-10.450139045715332
▁religions	-10.450418472290039
▁injured	-10.450461387634277
▁innings	-10.450719833374023
▁priests	-10.450889587402344
▁maybe	-10.451406478881836
▁launch	-10.451582908630371
▁Football	-10.452061653137207
▁suicide	-10.452069282531738
▁gets	-10.452430725097656
▁dynasty	-10.452917098999023
▁none	-10.4530668258667
▁Male	-10.453144073486328
▁audio	-10.453367233276367
▁titled	-10.453587532043457
ara	-10.453622817993164
▁confirmed	-10.45362377166748
▁broad	-10.45388126373291
▁officially	-10.454030990600586
▁indicate	-10.454534530639648
▁wives	-10.45463752746582
▁narrow	-10.454643249511719
▁covering	-10.454673767089844
▁educated	-10.455252647399902
▁White	-10.45530891418457
▁blessed	-10.455723762512207
▁Several	-10.456357955932617
▁2018,	-10.456482887268066
can	-10.456635475158691
▁meat	-10.45775032043457
▁lawyer	-10.457847595214844
▁allows	-10.457963943481445
▁Report	-10.458550453186035
▁throne	-10.458969116210938
▁collected	-10.459030151367188
▁300	-10.45905590057373
▁Super	-10.459446907043457
▁latrines	-10.459613800048828
▁56	-10.459659576416016
99	-10.459938049316406
▁Jan	-10.460329055786133
▁pieces	-10.460543632507324
▁fucking	-10.46059513092041
▁absence	-10.460676193237305
▁spring	-10.460861206054688
▁Set	-10.460987091064453
▁investment	-10.46134090423584
▁Part	-10.461734771728516
ali	-10.461971282958984
▁begins	-10.461973190307617
▁63	-10.4620361328125
▁beat	-10.462056159973145
▁earthquake	-10.46216106414795
▁participation	-10.462408065795898
ub	-10.462413787841797
bha	-10.462418556213379
▁sovereignty	-10.462441444396973
aj	-10.462950706481934
▁overcome	-10.463495254516602
▁1996	-10.463507652282715
▁contributed	-10.463629722595215
▁54	-10.463717460632324
▁greatly	-10.463778495788574
▁phase	-10.463950157165527
▁guess	-10.464149475097656
▁palace	-10.46418285369873
av	-10.46430492401123
▁characters	-10.464445114135742
▁rejected	-10.464694023132324
▁smaller	-10.464800834655762
▁BY	-10.464832305908203
▁seriously	-10.464978218078613
▁pride	-10.465914726257324
▁admitted	-10.465932846069336
▁wave	-10.466188430786133
▁printed	-10.466768264770508
▁burning	-10.4668607711792
▁Abdullah	-10.46699333190918
▁considering	-10.467453002929688
▁flight	-10.467499732971191
right	-10.467514991760254
▁causing	-10.467632293701172
▁proof	-10.468079566955566
▁listening	-10.468110084533691
52	-10.468391418457031
▁innocent	-10.468497276306152
▁Gandhi	-10.468538284301758
Pictures	-10.468966484069824
ability	-10.469927787780762
▁prisoners	-10.47041130065918
▁achieve	-10.470440864562988
▁Pala	-10.470563888549805
▁Political	-10.471198081970215
▁devotion	-10.471203804016113
▁entirely	-10.471502304077148
▁latest	-10.47192096710205
▁44	-10.47194766998291
▁Dutch	-10.472099304199219
▁_	-10.472464561462402
34	-10.472476959228516
▁viewed	-10.472617149353027
dal	-10.472733497619629
▁Jack	-10.472979545593262
▁Ps	-10.473133087158203
▁motion	-10.473906517028809
▁roads	-10.474346160888672
▁bound	-10.474437713623047
▁agriculture	-10.474618911743164
gen	-10.474637985229492
▁banned	-10.474665641784668
▁fund	-10.474808692932129
68	-10.474916458129883
▁Long	-10.474983215332031
▁surrounding	-10.47512149810791
▁Actor	-10.475310325622559
32	-10.475464820861816
39	-10.475539207458496
▁pick	-10.475543975830078
▁maintained	-10.475581169128418
▁Hello	-10.476704597473145
▁sought	-10.47684383392334
ably	-10.47688102722168
▁Daily	-10.477569580078125
▁angry	-10.478140830993652
▁cabinet	-10.478153228759766
▁2015,	-10.479972839355469
46	-10.480621337890625
▁apparently	-10.48125171661377
▁Thana	-10.481314659118652
lal	-10.481651306152344
▁tonight	-10.481785774230957
-15	-10.482155799865723
▁paradise	-10.482548713684082
89	-10.483019828796387
set	-10.483196258544922
CC	-10.483470916748047
uri	-10.48351001739502
▁Za	-10.48433780670166
▁500	-10.484368324279785
▁mixed	-10.484428405761719
▁16.	-10.484586715698242
▁equipment	-10.485237121582031
▁66	-10.48542594909668
▁policies	-10.486981391906738
▁visible	-10.487314224243164
▁sending	-10.48741626739502
nu	-10.487885475158691
▁53	-10.488068580627441
▁suggest	-10.48809814453125
▁partition	-10.48828125
La	-10.489027976989746
▁extend	-10.489187240600586
she	-10.489477157592773
▁Navy	-10.489933967590332
▁skills	-10.490067481994629
▁arm	-10.490527153015137
▁Business	-10.490614891052246
▁gender	-10.490666389465332
iest	-10.490947723388672
▁organised	-10.490981101989746
▁valid	-10.491273880004883
X	-10.49134349822998
▁Messiah	-10.49144172668457
As	-10.491707801818848
▁schedule	-10.49180793762207
▁Je	-10.49233627319336
▁Executive	-10.492363929748535
▁agency	-10.492393493652344
▁solid	-10.492549896240234
ps	-10.492838859558105
▁biggest	-10.493220329284668
49	-10.493355751037598
▁agent	-10.493646621704102
▁architecture	-10.494131088256836
▁Sometimes	-10.494291305541992
▁r	-10.49454402923584
▁mud	-10.494589805603027
field	-10.494806289672852
▁Dan	-10.495227813720703
▁branches	-10.495542526245117
▁scheduled	-10.49561595916748
▁tribulation	-10.495966911315918
su	-10.496089935302734
thi	-10.496786117553711
▁desires	-10.497021675109863
▁answered	-10.497368812561035
▁focused	-10.497416496276855
▁contemporary	-10.497700691223145
▁budget	-10.49770450592041
▁Bridge	-10.497759819030762
47	-10.497831344604492
▁Officer	-10.497861862182617
▁awards	-10.498268127441406
48	-10.49842643737793
▁Ward	-10.499221801757812
▁copies	-10.499526977539062
▁proud	-10.49960994720459
▁selection	-10.499771118164062
▁lying	-10.500195503234863
▁Radio	-10.500299453735352
ua	-10.50063419342041
▁objective	-10.501025199890137
sen	-10.501047134399414
ising	-10.501099586486816
ious	-10.501219749450684
▁funds	-10.50136947631836
cu	-10.501818656921387
▁theme	-10.502532005310059
▁apart	-10.502853393554688
87	-10.502877235412598
69	-10.503314018249512
▁turning	-10.503572463989258
▁achieved	-10.50365924835205
▁acquired	-10.5040922164917
een	-10.504762649536133
▁calm	-10.504962921142578
▁Urdu	-10.505136489868164
▁County	-10.505165100097656
▁acted	-10.505167961120605
51	-10.505816459655762
▁Ask	-10.505945205688477
▁75	-10.505977630615234
▁Queen	-10.506027221679688
▁clinic	-10.50611400604248
96	-10.506476402282715
▁forgive	-10.506476402282715
▁10,	-10.506484985351562
ai	-10.507688522338867
▁mu	-10.508234024047852
gg	-10.508354187011719
▁serves	-10.50842571258545
▁reveal	-10.508468627929688
▁featured	-10.509150505065918
▁mountains	-10.509214401245117
▁External	-10.509444236755371
▁Web	-10.509482383728027
▁Tamil	-10.510472297668457
▁minor	-10.510753631591797
85	-10.510835647583008
car	-10.5110445022583
▁partner	-10.511086463928223
▁Premier	-10.511281967163086
▁flat	-10.51257610321045
▁Cha	-10.513298034667969
▁Being	-10.513312339782715
▁2014.	-10.513792037963867
▁plain	-10.513806343078613
▁delivered	-10.514055252075195
▁presentation	-10.51492977142334
▁lo	-10.51509952545166
▁rank	-10.515122413635254
7,	-10.515260696411133
▁sand	-10.515616416931152
▁miss	-10.515642166137695
▁57	-10.51577091217041
▁metal	-10.516046524047852
▁daughters	-10.516301155090332
▁v	-10.516361236572266
▁imperfect	-10.516563415527344
▁kid	-10.516643524169922
▁na	-10.517163276672363
▁collect	-10.517369270324707
▁Gal	-10.517481803894043
▁intended	-10.51760482788086
▁salt	-10.517970085144043
▁readers	-10.518006324768066
Vidhan	-10.518223762512207
63	-10.518882751464844
▁angel	-10.518982887268066
▁Bahrain	-10.51906967163086
▁ra	-10.519115447998047
language	-10.51945972442627
▁flock	-10.51952075958252
▁dog	-10.519556999206543
▁Turkish	-10.519645690917969
▁accident	-10.519701957702637
▁meal	-10.521209716796875
▁planet	-10.521228790283203
▁1974	-10.52147388458252
56	-10.52153205871582
▁presidential	-10.521567344665527
▁cultivate	-10.521756172180176
▁extremely	-10.522231101989746
▁pretty	-10.52227783203125
▁fulfilled	-10.522295951843262
▁dollars	-10.5223388671875
▁analysis	-10.522369384765625
▁Which	-10.522407531738281
▁drop	-10.522424697875977
but	-10.522467613220215
▁describe	-10.52270221710205
▁Martin	-10.523223876953125
▁System	-10.523246765136719
ture	-10.523316383361816
36	-10.523950576782227
▁programmes	-10.523969650268555
▁encouraging	-10.525012016296387
▁defeat	-10.5253267288208
▁Nobel	-10.525378227233887
ay	-10.525503158569336
▁darkness	-10.525532722473145
med	-10.52669620513916
▁Hasan	-10.526725769042969
37	-10.52679443359375
▁persecution	-10.526860237121582
▁64	-10.527361869812012
▁Bill	-10.527541160583496
side	-10.527931213378906
▁alternative	-10.527972221374512
65	-10.529335021972656
term	-10.529620170593262
▁friendship	-10.529977798461914
▁Summer	-10.530601501464844
▁volume	-10.531789779663086
▁Geography	-10.532435417175293
95	-10.53244400024414
▁paragraph	-10.53255844116211
ev	-10.53270149230957
▁(4	-10.532784461975098
▁awareness	-10.533699989318848
▁deliver	-10.533880233764648
▁painting	-10.533928871154785
ery	-10.534136772155762
lic	-10.534344673156738
▁Born	-10.534533500671387
▁Wa	-10.534608840942383
▁heat	-10.534998893737793
▁capable	-10.535367965698242
▁bottom	-10.53538703918457
▁classical	-10.535554885864258
ira	-10.535665512084961
▁wine	-10.535820960998535
▁Four	-10.535977363586426
▁cup	-10.536423683166504
ye	-10.536806106567383
▁ring	-10.53693962097168
▁reward	-10.537069320678711
▁Thanks	-10.537423133850098
▁newspapers	-10.537490844726562
▁pen	-10.537988662719727
▁default	-10.53807544708252
▁shit	-10.538273811340332
cent	-10.538381576538086
dic	-10.538398742675781
▁suit	-10.53864860534668
▁payment	-10.538816452026367
97	-10.538877487182617
▁Ireland	-10.53896427154541
▁Battle	-10.539013862609863
▁ships	-10.539204597473145
▁Qa	-10.539483070373535
▁Henry	-10.53989315032959
▁Review	-10.539937019348145
▁Stadium	-10.540826797485352
▁1998	-10.541318893432617
▁Friday	-10.541866302490234
▁signs	-10.541956901550293
▁drugs	-10.541964530944824
eg	-10.542215347290039
ED	-10.542581558227539
62	-10.542815208435059
▁Si	-10.542881965637207
▁1958	-10.543508529663086
▁disciple	-10.543617248535156
▁fault	-10.54387378692627
▁thanks	-10.544390678405762
▁15.	-10.544424057006836
▁warned	-10.544835090637207
▁fulfill	-10.544939994812012
-13	-10.545207977294922
▁tweets	-10.545340538024902
▁spot	-10.545418739318848
▁medieval	-10.545525550842285
eh	-10.545642852783203
ez	-10.546366691589355
▁Communist	-10.546545028686523
▁7,	-10.546649932861328
▁Mu	-10.54666805267334
▁script	-10.547313690185547
▁publisher	-10.54747200012207
▁2017.	-10.547958374023438
▁category	-10.548356056213379
▁cry	-10.5486478805542
▁Nothing	-10.549513816833496
▁celebrate	-10.549783706665039
▁Alam	-10.549928665161133
▁email	-10.550323486328125
▁Chicago	-10.550359725952148
-11	-10.55144214630127
▁networks	-10.551480293273926
▁cool	-10.551509857177734
▁marry	-10.551725387573242
▁pioneers	-10.551810264587402
▁Gar	-10.552020072937012
▁2008,	-10.552035331726074
▁quiet	-10.552408218383789
▁Create	-10.5526762008667
▁convinced	-10.55279541015625
▁multiple	-10.552834510803223
▁subsequently	-10.552852630615234
▁buried	-10.553095817565918
▁outstanding	-10.553447723388672
67	-10.553512573242188
▁surrounded	-10.553531646728516
▁pursue	-10.553579330444336
raj	-10.553604125976562
▁temperature	-10.55363941192627
2,	-10.553726196289062
▁shelter	-10.554041862487793
▁se	-10.55439281463623
▁extreme	-10.555008888244629
31	-10.555018424987793
▁aside	-10.555075645446777
▁tribes	-10.555563926696777
▁objects	-10.555787086486816
▁affection	-10.556353569030762
▁End	-10.556642532348633
▁bag	-10.55678653717041
▁banking	-10.556876182556152
ple	-10.55722713470459
82	-10.557394981384277
▁1991	-10.5574951171875
▁print	-10.557608604431152
▁Studies	-10.557849884033203
▁atmosphere	-10.557849884033203
▁Comilla	-10.557859420776367
▁colonial	-10.557981491088867
▁loyalty	-10.557985305786133
▁Gold	-10.558354377746582
▁submit	-10.558733940124512
▁Body	-10.558985710144043
▁registration	-10.559022903442383
▁Blog	-10.559235572814941
lar	-10.559276580810547
▁regarded	-10.559532165527344
▁Ottoman	-10.559792518615723
-2	-10.560526847839355
ef	-10.561249732971191
▁heads	-10.561358451843262
bed	-10.561594009399414
▁Management	-10.561694145202637
▁scientists	-10.561704635620117
▁inhabitants	-10.56283950805664
ena	-10.562917709350586
▁Head	-10.563363075256348
▁bought	-10.563608169555664
▁containing	-10.564146041870117
▁poems	-10.564841270446777
▁emerged	-10.565023422241211
▁emergency	-10.565510749816895
▁forests	-10.565718650817871
76	-10.565853118896484
An	-10.56624698638916
▁psalmist	-10.566513061523438
▁abandoned	-10.566634178161621
nal	-10.567139625549316
▁colour	-10.567221641540527
▁Lake	-10.567370414733887
▁select	-10.567413330078125
▁Palestinian	-10.567464828491211
53	-10.567825317382812
▁Limited	-10.568180084228516
▁represents	-10.568182945251465
▁easier	-10.568394660949707
▁invite	-10.56887149810791
▁Search	-10.569051742553711
▁contrary	-10.569377899169922
▁Joshua	-10.569632530212402
▁leg	-10.569721221923828
▁celebrated	-10.56983470916748
▁Note	-10.569840431213379
▁signal	-10.569841384887695
▁soft	-10.569938659667969
▁52	-10.570247650146484
▁1979	-10.570420265197754
21	-10.571054458618164
▁illness	-10.571126937866211
▁missionaries	-10.571310997009277
▁arrangements	-10.571799278259277
▁expansion	-10.572257995605469
▁terminal	-10.572264671325684
94	-10.572919845581055
▁situations	-10.573108673095703
▁relation	-10.573171615600586
Why	-10.573359489440918
▁Him	-10.57345199584961
▁noticed	-10.575154304504395
und	-10.575366020202637
▁Tk	-10.575540542602539
▁Argentina	-10.576190948486328
▁Thomas	-10.576221466064453
2)	-10.576706886291504
74	-10.576759338378906
▁succeeded	-10.576904296875
▁Mela	-10.576971054077148
▁Team	-10.576993942260742
▁UEFA	-10.577107429504395
▁cells	-10.577264785766602
▁doctors	-10.577346801757812
▁deemed	-10.577503204345703
▁USA	-10.578007698059082
▁singing	-10.5784273147583
SA	-10.578455924987793
use	-10.578845024108887
▁Richard	-10.578993797302246
▁14,	-10.579033851623535
▁Jatiya	-10.579063415527344
▁illustration	-10.579099655151367
▁Subject	-10.580050468444824
▁actual	-10.580181121826172
77	-10.58022403717041
▁superior	-10.580887794494629
▁Secondary	-10.581191062927246
Go	-10.581319808959961
pp	-10.581439971923828
▁imp	-10.581853866577148
▁infrastructure	-10.582136154174805
5,	-10.582870483398438
▁Having	-10.582991600036621
▁150	-10.583584785461426
▁mistake	-10.583632469177246
▁Bose	-10.583945274353027
▁Judah	-10.583952903747559
qui	-10.5853853225708
▁supporters	-10.58544635772705
▁graduated	-10.585756301879883
▁defense	-10.58600902557373
vo	-10.586149215698242
▁Green	-10.586165428161621
▁elderly	-10.586579322814941
▁witnessing	-10.587418556213379
▁minds	-10.58763599395752
▁2012.	-10.587925910949707
64	-10.587939262390137
▁producer	-10.588172912597656
gal	-10.588601112365723
▁camera	-10.589022636413574
▁Questions	-10.58938217163086
▁sa	-10.58988094329834
back	-10.590330123901367
▁journal	-10.590436935424805
43	-10.590457916259766
▁hidden	-10.590825080871582
▁islands	-10.590958595275879
▁throw	-10.591290473937988
ag	-10.591650009155273
▁feed	-10.59172248840332
De	-10.591748237609863
▁Military	-10.591798782348633
AL	-10.592513084411621
86	-10.592674255371094
▁Northern	-10.59285831451416
ila	-10.5934476852417
71	-10.59352970123291
▁displayed	-10.593789100646973
▁extensive	-10.593829154968262
▁childhood	-10.593935012817383
▁strange	-10.594118118286133
fr	-10.594305992126465
▁diplomatic	-10.594473838806152
▁Dar	-10.59455680847168
▁49	-10.594629287719727
▁custom	-10.594741821289062
▁Tri	-10.594982147216797
▁finish	-10.595441818237305
▁score	-10.595677375793457
▁emperor	-10.59575366973877
▁occupied	-10.595941543579102
▁employed	-10.595945358276367
▁tons	-10.596025466918945
▁Sadar	-10.596070289611816
▁weekly	-10.596372604370117
▁Paradise	-10.596744537353516
era	-10.59675407409668
And	-10.596957206726074
▁males	-10.597063064575195
▁poetry	-10.59714126586914
▁12,	-10.59714412689209
ola	-10.597874641418457
▁haven	-10.598074913024902
▁46	-10.598196029663086
ging	-10.598206520080566
▁tool	-10.59848403930664
▁Legislative	-10.598764419555664
▁Frank	-10.598779678344727
▁facts	-10.599153518676758
81	-10.599404335021973
▁gathering	-10.599427223205566
▁movements	-10.599507331848145
▁advanced	-10.6000337600708
54	-10.600086212158203
called	-10.600682258605957
▁replied	-10.600740432739258
rai	-10.600760459899902
▁plane	-10.600991249084473
▁visiting	-10.601055145263672
58	-10.60155963897705
▁pair	-10.601749420166016
▁2013.	-10.602446556091309
▁Training	-10.602558135986328
▁verse	-10.602612495422363
▁Gu	-10.60268783569336
▁finding	-10.602713584899902
▁guilty	-10.603053092956543
▁51	-10.603097915649414
dia	-10.60336685180664
▁vi	-10.603644371032715
▁thick	-10.604226112365723
▁silence	-10.604716300964355
▁cloth	-10.60480785369873
adi	-10.60494613647461
▁retired	-10.605046272277832
eb	-10.605062484741211
▁stands	-10.605325698852539
▁1987	-10.60554027557373
zz	-10.605658531188965
▁BBC	-10.605862617492676
▁contribute	-10.605874061584473
▁leads	-10.605913162231445
02	-10.605998039245605
▁par	-10.606156349182129
83	-10.606196403503418
▁distributed	-10.606364250183105
-10	-10.606452941894531
▁clay	-10.606781959533691
▁evident	-10.606879234313965
▁Tan	-10.607003211975098
▁le	-10.607027053833008
84	-10.607059478759766
▁Play	-10.607205390930176
They	-10.60721206665039
oc	-10.607582092285156
▁crop	-10.607643127441406
▁ordinary	-10.607829093933105
▁concerning	-10.607972145080566
part	-10.608006477355957
▁fat	-10.608019828796387
92	-10.60825252532959
▁controlled	-10.608503341674805
▁prayed	-10.609000205993652
▁CD	-10.609591484069824
▁Extinct	-10.609719276428223
▁Kashmir	-10.609874725341797
▁cat	-10.609953880310059
ure	-10.610047340393066
▁Official	-10.610724449157715
▁Food	-10.610793113708496
▁Check	-10.610989570617676
▁tap	-10.611069679260254
had	-10.611734390258789
▁considerable	-10.611831665039062
▁fifth	-10.611902236938477
▁""	-10.612112045288086
59	-10.612342834472656
▁threatened	-10.612345695495605
dis	-10.612723350524902
▁1999	-10.613430976867676
▁Mc	-10.613529205322266
▁File	-10.61384105682373
▁Harry	-10.61420726776123
73	-10.614238739013672
▁1954	-10.614285469055176
▁lessons	-10.61435604095459
▁grateful	-10.614850044250488
▁alongside	-10.614978790283203
▁instructions	-10.615437507629395
▁bird	-10.61587142944336
▁2016.	-10.615887641906738
▁arrival	-10.616776466369629
▁commander	-10.616801261901855
▁properties	-10.616828918457031
▁Karachi	-10.61686897277832
Mo	-10.61705207824707
▁covers	-10.617682456970215
ological	-10.617830276489258
▁hunger	-10.618334770202637
sar	-10.618382453918457
▁shoot	-10.618523597717285
▁earliest	-10.618806838989258
▁silent	-10.618892669677734
▁suitable	-10.619063377380371
▁responded	-10.619203567504883
▁customs	-10.619489669799805
▁sale	-10.61952018737793
▁drawing	-10.619621276855469
▁asks	-10.619783401489258
▁cooperation	-10.620315551757812
▁eternal	-10.620830535888672
▁agencies	-10.620869636535645
▁Rangpur	-10.620908737182617
wood	-10.621106147766113
78	-10.621572494506836
▁ministers	-10.621731758117676
▁excellent	-10.621848106384277
▁chemical	-10.621927261352539
▁reply	-10.622217178344727
▁Teach	-10.62238883972168
▁Sangsad	-10.622869491577148
▁Saturday	-10.62293529510498
▁talks	-10.623469352722168
▁$	-10.62348747253418
▁reactions	-10.623510360717773
▁Chand	-10.623579978942871
▁1976	-10.62391185760498
▁protected	-10.62415885925293
▁suggestions	-10.624253273010254
▁reputation	-10.62490177154541
▁NGO	-10.624942779541016
▁crimes	-10.62536334991455
▁engage	-10.625389099121094
79	-10.625707626342773
▁proposal	-10.625840187072754
▁Theocratic	-10.625922203063965
▁denied	-10.62592887878418
▁accordance	-10.625958442687988
▁reaching	-10.626374244689941
hal	-10.626437187194824
▁Add	-10.626484870910645
tal	-10.626655578613281
illa	-10.626930236816406
▁Religious	-10.626984596252441
des	-10.627156257629395
72	-10.627336502075195
board	-10.627578735351562
▁surprised	-10.6277494430542
▁Very	-10.627912521362305
▁governments	-10.627955436706543
▁2010.	-10.628015518188477
▁promoted	-10.628173828125
▁Para	-10.62846565246582
▁representatives	-10.62846565246582
▁divorce	-10.62860107421875
▁Communication	-10.628983497619629
head	-10.629524230957031
▁allowing	-10.62972354888916
▁habit	-10.629777908325195
▁khan	-10.629794120788574
▁app	-10.62986946105957
tive	-10.630489349365234
Al	-10.630528450012207
▁58	-10.630609512329102
3,	-10.631000518798828
▁Ru	-10.631365776062012
▁politicians	-10.631513595581055
▁11,	-10.631855964660645
▁scheme	-10.632096290588379
▁Inter	-10.63219928741455
Prov	-10.633064270019531
▁72	-10.633578300476074
▁wearing	-10.633749961853027
▁favour	-10.633879661560059
▁remarkable	-10.634176254272461
▁Vietnam	-10.634180068969727
▁grandfather	-10.634254455566406
▁Maria	-10.634257316589355
▁MA	-10.634406089782715
▁widow	-10.634417533874512
▁writings	-10.634554862976074
▁torture	-10.634781837463379
Q	-10.634793281555176
▁sentenced	-10.634830474853516
▁Holmes	-10.635161399841309
▁dealing	-10.635306358337402
▁coastal	-10.635817527770996
▁topic	-10.635942459106445
▁el	-10.636207580566406
▁liberal	-10.636305809020996
▁Pu	-10.6370849609375
▁resistance	-10.63726806640625
▁59.5%:	-10.637404441833496
▁gather	-10.637446403503418
ada	-10.637682914733887
▁onto	-10.637725830078125
▁bamboo	-10.638248443603516
▁maximum	-10.638265609741211
▁sword	-10.638513565063477
▁gate	-10.63867473602295
▁belongs	-10.63901424407959
▁universal	-10.639448165893555
▁Economic	-10.639497756958008
▁Nazrul	-10.640321731567383
Footnote	-10.640491485595703
▁su	-10.64078140258789
▁broadcast	-10.640841484069824
▁texts	-10.640849113464355
▁blame	-10.641101837158203
▁Think	-10.641146659851074
▁micro	-10.641536712646484
▁occurs	-10.64244270324707
▁Ku	-10.64251708984375
▁react	-10.642782211303711
▁Ji	-10.642844200134277
cho	-10.643247604370117
ged	-10.643309593200684
▁changing	-10.643431663513184
▁59	-10.643987655639648
ual	-10.644193649291992
▁Access	-10.644436836242676
▁visits	-10.644820213317871
▁encounter	-10.644940376281738
▁aim	-10.645627975463867
▁62	-10.646201133728027
ok	-10.646222114562988
▁prices	-10.646510124206543
▁anymore	-10.647027969360352
▁accompanied	-10.647217750549316
-9	-10.647521018981934
▁Bur	-10.647594451904297
▁Literature	-10.647594451904297
▁sacrifices	-10.648014068603516
▁acid	-10.648053169250488
▁17.	-10.648097038269043
▁fly	-10.648462295532227
light	-10.648487091064453
▁manage	-10.648677825927734
mit	-10.64897632598877
kan	-10.649463653564453
▁bond	-10.649836540222168
▁Never	-10.650206565856934
▁immediate	-10.65084171295166
91	-10.65102767944336
▁walked	-10.651716232299805
▁humility	-10.651778221130371
Ka	-10.652039527893066
▁1984	-10.652135848999023
▁Mom	-10.652421951293945
khali	-10.652536392211914
▁1919	-10.653138160705566
▁Chronicles	-10.653328895568848
▁ends	-10.653502464294434
▁1948	-10.653719902038574
▁Elijah	-10.653877258300781
▁1973	-10.654152870178223
▁Live	-10.654568672180176
cing	-10.65463638305664
Ephesians	-10.655162811279297
▁lady	-10.655258178710938
▁directory	-10.655433654785156
▁treasure	-10.655935287475586
▁Primary	-10.655976295471191
▁occasions	-10.656024932861328
▁constant	-10.65609359741211
▁coal	-10.65660572052002
▁restored	-10.657186508178711
▁item	-10.657383918762207
▁slowly	-10.657447814941406
pre	-10.657934188842773
▁desert	-10.658302307128906
▁Non	-10.658907890319824
hir	-10.658931732177734
▁terrible	-10.659137725830078
▁lock	-10.659601211547852
▁mi	-10.659878730773926
▁dedication	-10.660209655761719
▁courses	-10.660229682922363
▁Moscow	-10.660295486450195
▁Madrasa	-10.660639762878418
▁Article	-10.66089916229248
▁publishing	-10.661290168762207
▁selling	-10.661324501037598
akh	-10.66136646270752
▁bearing	-10.661489486694336
▁contributions	-10.662187576293945
▁widespread	-10.662317276000977
3)	-10.662375450134277
▁Welcome	-10.662440299987793
▁requirements	-10.662586212158203
▁Due	-10.66269588470459
some	-10.662859916687012
▁inner	-10.663162231445312
▁leaf	-10.663651466369629
▁honest	-10.663808822631836
▁BA	-10.664067268371582
▁compassion	-10.664356231689453
▁Prov	-10.664831161499023
▁du	-10.664875984191895
▁neighbor	-10.664932250976562
▁1966	-10.665172576904297
▁stayed	-10.665705680847168
▁entrance	-10.66619873046875
das	-10.666399002075195
0,000	-10.66653060913086
▁Hussain	-10.666552543640137
▁burden	-10.666552543640137
▁deputy	-10.666617393493652
ala	-10.667022705078125
▁(15	-10.66723346710205
▁Square	-10.667616844177246
▁execution	-10.667616844177246
▁candidates	-10.667780876159668
▁Modern	-10.667787551879883
▁grant	-10.668192863464355
ath	-10.668474197387695
▁accomplish	-10.668540954589844
▁jurisdiction	-10.669747352600098
▁differences	-10.669905662536621
▁Ganges	-10.670404434204102
▁patients	-10.670486450195312
▁Mor	-10.670541763305664
▁Thessalonians	-10.670814514160156
▁22,	-10.670870780944824
▁degrees	-10.671112060546875
▁Ch	-10.671239852905273
▁smile	-10.671581268310547
gaon	-10.671638488769531
▁quarter	-10.671952247619629
▁Control	-10.671954154968262
▁towns	-10.67202091217041
▁(10	-10.67215633392334
wal	-10.672318458557129
▁provincial	-10.673013687133789
▁Kenya	-10.673395156860352
garh	-10.673552513122559
▁preparation	-10.673778533935547
ever	-10.673822402954102
▁combined	-10.67386531829834
▁van	-10.673998832702637
▁minimum	-10.674036026000977
▁tears	-10.674104690551758
air	-10.674398422241211
▁2015.	-10.674578666687012
▁occupation	-10.674847602844238
▁succeed	-10.675079345703125
▁Flickr	-10.675094604492188
▁designated	-10.675407409667969
▁afternoon	-10.676169395446777
▁sing	-10.676673889160156
ula	-10.67673397064209
▁Yu	-10.676739692687988
▁uncle	-10.67700481414795
▁2)	-10.677239418029785
▁Greece	-10.677242279052734
og	-10.677740097045898
▁Blogger	-10.678285598754883
▁youths	-10.678775787353516
▁sake	-10.678839683532715
▁Philippians	-10.679106712341309
▁attached	-10.679178237915039
nce	-10.679189682006836
ep	-10.679423332214355
▁indicated	-10.680082321166992
▁delight	-10.68040657043457
▁extension	-10.680479049682617
▁Zia	-10.681436538696289
▁overall	-10.681503295898438
▁creative	-10.681550025939941
▁elevation	-10.681550025939941
▁bounded	-10.681756973266602
▁solve	-10.682284355163574
▁Ge	-10.6832275390625
▁perspective	-10.683711051940918
▁discreet	-10.683789253234863
▁aspect	-10.683799743652344
▁1949	-10.683915138244629
▁Indies	-10.68408203125
▁external	-10.684793472290039
▁intelligence	-10.684837341308594
▁parliamentary	-10.685047149658203
▁indicates	-10.685317039489746
▁economics	-10.685486793518066
▁sincere	-10.685504913330078
▁2006,	-10.68553638458252
▁campus	-10.685638427734375
▁Plan	-10.685652732849121
ria	-10.685717582702637
▁Isaac	-10.68591022491455
▁jobs	-10.686609268188477
▁rising	-10.68702220916748
▁arts	-10.687908172607422
▁traditions	-10.687943458557129
8%	-10.687993049621582
▁2018.	-10.68830394744873
▁Hand	-10.688394546508789
▁Bal	-10.688980102539062
▁corrupt	-10.689313888549805
▁stream	-10.689546585083008
▁Kho	-10.689596176147461
▁Sorry	-10.690332412719727
ification	-10.690338134765625
▁glad	-10.690378189086914
▁Child	-10.690415382385254
But	-10.690481185913086
▁distinct	-10.690739631652832
88	-10.691171646118164
▁brochure	-10.691402435302734
▁democratic	-10.691459655761719
42	-10.691558837890625
▁surely	-10.69162368774414
Rom	-10.69178581237793
▁commanded	-10.691841125488281
od	-10.691864013671875
ris	-10.692132949829102
▁61	-10.692493438720703
chandra	-10.69251537322998
US	-10.693388938903809
▁Network	-10.693510055541992
▁combination	-10.693564414978027
▁Valley	-10.693585395812988
▁archive	-10.694924354553223
▁positions	-10.69515609741211
▁stress	-10.695296287536621
▁visitors	-10.695303916931152
▁acceptable	-10.695487976074219
▁Gen	-10.69551944732666
▁stadium	-10.695680618286133
▁Light	-10.695775985717773
▁returning	-10.69636344909668
▁Deputy	-10.696776390075684
▁implementation	-10.69693660736084
▁Everyone	-10.697281837463379
▁pa	-10.6978120803833
▁possession	-10.698150634765625
▁soils	-10.699110984802246
▁hardly	-10.699307441711426
2.	-10.699679374694824
▁Gi	-10.700555801391602
▁Abul	-10.700860023498535
▁struck	-10.701349258422852
▁16,	-10.701458930969238
7)	-10.701510429382324
par	-10.70244026184082
▁Mission	-10.702632904052734
▁71	-10.702722549438477
▁constituted	-10.702801704406738
▁bazars	-10.702887535095215
act	-10.70301342010498
▁cope	-10.70361328125
ney	-10.703632354736328
▁belonging	-10.703676223754883
▁2007,	-10.70410442352295
▁pan	-10.704140663146973
▁netizens	-10.704485893249512
▁Barisal	-10.704565048217773
▁Theatre	-10.705609321594238
▁Freedom	-10.705826759338379
ue	-10.706192970275879
▁honour	-10.706226348876953
▁telephone	-10.70669174194336
▁fashion	-10.706733703613281
▁everywhere	-10.706809997558594
▁Number	-10.707050323486328
▁suggests	-10.707486152648926
▁faces	-10.708330154418945
▁fairs	-10.708368301391602
▁cent	-10.708581924438477
57	-10.708677291870117
8)	-10.708891868591309
▁Youth	-10.709555625915527
down	-10.710061073303223
nk	-10.71009349822998
▁bomb	-10.710164070129395
▁1985	-10.710176467895508
▁factor	-10.710893630981445
▁exposed	-10.711196899414062
▁creatures	-10.711231231689453
▁Deuteronomy	-10.711301803588867
gh	-10.711302757263184
▁Exodus	-10.711355209350586
ora	-10.7115478515625
run	-10.712258338928223
▁Gupta	-10.712342262268066
▁Ph	-10.713170051574707
▁drew	-10.713397026062012
▁passengers	-10.713476181030273
▁Bara	-10.713958740234375
▁turns	-10.714301109313965
▁Furthermore	-10.714479446411133
▁Katherine	-10.714548110961914
▁Los	-10.714787483215332
ory	-10.715055465698242
▁gifts	-10.715166091918945
▁Five	-10.71528434753418
▁Mirza	-10.715483665466309
▁Folder	-10.715595245361328
▁Editor	-10.715819358825684
▁judicial	-10.715843200683594
Ra	-10.716257095336914
▁grounds	-10.716387748718262
Gen	-10.716629981994629
▁rape	-10.716681480407715
▁Independence	-10.716777801513672
▁wake	-10.717055320739746
6)	-10.71718692779541
▁weapon	-10.717266082763672
▁pond	-10.717787742614746
▁1955	-10.718057632446289
dan	-10.718058586120605
▁89	-10.718186378479004
mat	-10.718337059020996
▁territories	-10.718937873840332
▁provinces	-10.719194412231445
▁associate	-10.719229698181152
▁agents	-10.719961166381836
▁1956	-10.720052719116211
▁anniversary	-10.72005844116211
▁yesterday	-10.72005844116211
▁losing	-10.720114707946777
sk	-10.720232963562012
▁enabled	-10.720344543457031
▁Career	-10.720534324645996
▁Visit	-10.721161842346191
▁league	-10.721339225769043
▁2009.	-10.721464157104492
ide	-10.721595764160156
row	-10.721858024597168
▁1959	-10.721963882446289
▁informed	-10.722013473510742
▁enable	-10.722139358520508
▁rebellion	-10.722306251525879
▁Starting	-10.722493171691895
▁electronic	-10.722554206848145
▁renamed	-10.722764015197754
▁loan	-10.722827911376953
▁separated	-10.72287368774414
▁attempts	-10.723065376281738
▁Find	-10.723261833190918
▁strive	-10.723440170288086
▁fled	-10.723444938659668
making	-10.72344970703125
fer	-10.7236909866333
▁burn	-10.723953247070312
ray	-10.724236488342285
▁prefer	-10.72454833984375
▁yourselves	-10.724559783935547
▁whereas	-10.724574089050293
▁resist	-10.724688529968262
made	-10.724964141845703
▁rooms	-10.72645378112793
▁18.	-10.726762771606445
▁worst	-10.726811408996582
▁sugar	-10.726856231689453
▁9,	-10.727397918701172
ick	-10.727466583251953
▁dying	-10.727987289428711
▁Run	-10.728316307067871
Box	-10.728559494018555
ven	-10.728658676147461
▁preserve	-10.728767395019531
▁assumed	-10.729073524475098
▁Sp	-10.729406356811523
ama	-10.729762077331543
▁historic	-10.729846954345703
▁Uttar	-10.729960441589355
qu	-10.729969024658203
▁evolution	-10.730119705200195
je	-10.730145454406738
▁Lebanon	-10.730371475219727
▁row	-10.73046588897705
▁driver	-10.730684280395508
▁poem	-10.731047630310059
▁91	-10.731284141540527
▁Palestine	-10.731491088867188
▁farm	-10.732131004333496
▁websites	-10.732619285583496
▁1953	-10.732675552368164
most	-10.733014106750488
▁Ham	-10.7330904006958
▁del	-10.733412742614746
▁demonstrated	-10.733489036560059
▁speaks	-10.73357105255127
▁tract	-10.733771324157715
▁Armenian	-10.733845710754395
▁devoted	-10.734050750732422
shan	-10.734353065490723
▁demonstration	-10.734474182128906
▁Han	-10.734764099121094
▁Within	-10.734782218933105
▁Democratic	-10.734871864318848
▁Ah	-10.734925270080566
▁stuff	-10.735004425048828
▁Code	-10.735304832458496
▁participants	-10.735380172729492
oon	-10.735542297363281
▁Netherlands	-10.73588752746582
▁tribal	-10.736063003540039
nes	-10.736310005187988
far	-10.736649513244629
▁rescue	-10.736771583557129
▁Emperor	-10.737027168273926
▁preparing	-10.737027168273926
▁Madrid	-10.737041473388672
61	-10.737553596496582
▁executed	-10.737741470336914
▁notification	-10.73776626586914
▁scriptures	-10.737959861755371
▁Lee	-10.738476753234863
▁Block	-10.738691329956055
▁divisions	-10.738723754882812
▁shop	-10.739081382751465
ky	-10.73930549621582
▁charged	-10.73977279663086
▁commented	-10.739952087402344
▁injustice	-10.73995304107666
▁impressed	-10.740023612976074
▁Tagore	-10.740461349487305
▁Type	-10.74050521850586
▁Close	-10.740509986877441
▁lake	-10.740898132324219
▁Forest	-10.740998268127441
▁Ezekiel	-10.740999221801758
▁Colossians	-10.74135971069336
▁para	-10.74139404296875
▁involving	-10.741601943969727
▁Mass	-10.741692543029785
▁mature	-10.741692543029785
▁Apart	-10.742108345031738
▁tender	-10.742497444152832
▁manifest	-10.74269962310791
cy	-10.742827415466309
▁profit	-10.743215560913086
uz	-10.743271827697754
▁sufficient	-10.743276596069336
▁helpful	-10.74416732788086
chan	-10.744415283203125
ified	-10.744498252868652
▁cultures	-10.744564056396484
▁typically	-10.744659423828125
▁unions	-10.744771957397461
▁intellectual	-10.745052337646484
SE	-10.745277404785156
▁insight	-10.745315551757812
▁harvest	-10.745342254638672
1,	-10.745553016662598
▁cart	-10.745601654052734
endra	-10.745640754699707
▁Fund	-10.745990753173828
▁comedy	-10.746076583862305
▁Change	-10.746323585510254
▁Kal	-10.746392250061035
▁quit	-10.74725341796875
▁concluded	-10.747347831726074
▁Lahore	-10.74734878540039
sq	-10.747614860534668
mu	-10.747714042663574
▁gram	-10.747806549072266
▁earn	-10.747944831848145
ction	-10.748189926147461
▁cultivation	-10.748501777648926
▁relevant	-10.748501777648926
▁1983	-10.748567581176758
ons	-10.748883247375488
:1	-10.749032020568848
▁courts	-10.749326705932617
▁Bahadur	-10.74966049194336
▁submitted	-10.749759674072266
also	-10.750043869018555
▁rejoice	-10.750639915466309
▁parallel	-10.751970291137695
▁Mymensingh	-10.752077102661133
▁Sciences	-10.752077102661133
▁Mah	-10.75225830078125
▁handed	-10.752406120300293
aka	-10.75244426727295
500	-10.753092765808105
▁historian	-10.753202438354492
▁reflected	-10.753252983093262
▁representing	-10.753347396850586
▁birthday	-10.753499031066895
ency	-10.753644943237305
▁demanded	-10.754067420959473
▁replace	-10.754079818725586
▁Qatar	-10.754178047180176
▁endeavor	-10.754289627075195
▁Bhutan	-10.754297256469727
▁Conference	-10.754305839538574
▁driving	-10.754305839538574
▁resurrected	-10.754804611206055
▁edited	-10.755059242248535
▁Fire	-10.755393028259277
▁Ibrahim	-10.755450248718262
▁Parishad	-10.755498886108398
▁producing	-10.755626678466797
Ta	-10.75563907623291
▁exports	-10.75572681427002
hand	-10.7557373046875
▁purchase	-10.756364822387695
▁vehicles	-10.75666332244873
ush	-10.756673812866211
▁Convention	-10.75667667388916
8,	-10.756704330444336
▁procedure	-10.75675106048584
▁assured	-10.757177352905273
▁healthy	-10.757177352905273
▁Bha	-10.75773811340332
vis	-10.757856369018555
Man	-10.758296012878418
▁Edward	-10.758383750915527
▁blow	-10.758988380432129
▁Age	-10.759078025817871
▁blocked	-10.759100914001465
▁GOD	-10.759145736694336
▁flowers	-10.759196281433105
ens	-10.759795188903809
▁finance	-10.76005744934082
▁raising	-10.760153770446777
▁constantly	-10.761147499084473
▁attendance	-10.761427879333496
▁camps	-10.761432647705078
water	-10.761770248413086
▁tired	-10.761862754821777
-5	-10.762435913085938
▁dignity	-10.762447357177734
▁confident	-10.76276683807373
don	-10.763543128967285
▁votes	-10.76414680480957
IS	-10.764473915100098
▁capture	-10.76457405090332
▁Page	-10.764723777770996
▁dropped	-10.764835357666016
▁sharp	-10.765606880187988
▁Agricultural	-10.76596450805664
▁anxiety	-10.76596450805664
▁Edmond	-10.76610279083252
▁increasingly	-10.766706466674805
▁reject	-10.767468452453613
6,	-10.76803970336914
▁Bat	-10.768097877502441
▁Alexander	-10.768324851989746
▁signature	-10.768712043762207
▁Mon	-10.768731117248535
▁depth	-10.769012451171875
▁begun	-10.769021987915039
▁=	-10.769064903259277
▁ni	-10.76933479309082
▁Average	-10.76949405670166
▁Gilead	-10.769497871398926
▁romantic	-10.769502639770508
▁exact	-10.77087116241455
▁prospect	-10.771017074584961
▁brick	-10.771160125732422
ties	-10.771209716796875
▁pull	-10.771211624145508
▁button	-10.771489143371582
bazar	-10.77157211303711
▁Television	-10.771856307983398
▁pe	-10.772012710571289
▁snow	-10.77210521697998
▁ja	-10.77212905883789
▁Medal	-10.772205352783203
▁cards	-10.772281646728516
▁dust	-10.772360801696777
ates	-10.772379875183105
▁installed	-10.77261734008789
▁1942	-10.77270793914795
▁1943	-10.77277946472168
▁split	-10.772942543029785
▁Indo	-10.772977828979492
▁Akbar	-10.773256301879883
▁1957	-10.773309707641602
▁witnessed	-10.773601531982422
▁Islands	-10.773736953735352
▁88	-10.774145126342773
▁Sho	-10.77419376373291
▁monthly	-10.774260520935059
▁Until	-10.774317741394043
▁difficulties	-10.77457332611084
▁%1	-10.774690628051758
▁Anti	-10.77491569519043
▁deeds	-10.77497673034668
▁Wi	-10.775125503540039
yn	-10.775154113769531
▁Obama	-10.775498390197754
▁74	-10.775846481323242
▁march	-10.77588176727295
▁Sarah	-10.776043891906738
▁sang	-10.776313781738281
citation	-10.776570320129395
▁plot	-10.776590347290039
▁Galatians	-10.776599884033203
▁Hari	-10.776611328125
▁Buddha	-10.77664852142334
▁Haque	-10.776716232299805
ius	-10.776839256286621
▁determination	-10.776875495910645
▁argument	-10.777107238769531
▁Highway	-10.77750015258789
▁coach	-10.777779579162598
▁HIV	-10.777817726135254
▁seconds	-10.777825355529785
▁trend	-10.777957916259766
▁Start	-10.778250694274902
▁(;	-10.778546333312988
win	-10.778627395629883
▁ta	-10.778702735900879
▁Kazi	-10.77932357788086
▁gotta	-10.779443740844727
▁--	-10.78005599975586
▁shortly	-10.780322074890137
▁Forces	-10.780909538269043
stone	-10.780997276306152
▁67	-10.781010627746582
▁hatred	-10.781384468078613
▁Mac	-10.781625747680664
uc	-10.782196044921875
▁Little	-10.782832145690918
▁tend	-10.782936096191406
▁improved	-10.783090591430664
▁Whatever	-10.783903121948242
▁Cross	-10.783949851989746
41	-10.783967018127441
▁Clearly	-10.784228324890137
bul	-10.784351348876953
▁circle	-10.78457260131836
▁Way	-10.784836769104004
▁hashtag	-10.78493595123291
▁consisting	-10.785127639770508
▁Lok	-10.785265922546387
▁string	-10.786041259765625
iness	-10.786314010620117
▁Sh	-10.787549018859863
▁celebration	-10.788060188293457
▁Sad	-10.788104057312012
▁wars	-10.788375854492188
▁patience	-10.788531303405762
bra	-10.78853702545166
▁satisfaction	-10.788590431213379
Mark	-10.788695335388184
▁ne	-10.789566993713379
▁Culture	-10.789716720581055
▁establishing	-10.789868354797363
▁Using	-10.790111541748047
▁pollution	-10.790936470031738
▁1971,	-10.791194915771484
▁1963	-10.791324615478516
▁quoted	-10.791376113891602
ES	-10.791400909423828
▁Bas	-10.791560173034668
▁Govern	-10.791587829589844
▁resolve	-10.791934967041016
▁famine	-10.792155265808105
▁papers	-10.792201042175293
▁coup	-10.792224884033203
▁68	-10.792536735534668
val	-10.792551040649414
Job	-10.792831420898438
▁friendly	-10.792841911315918
▁Em	-10.793230056762695
▁wanna	-10.793377876281738
▁impression	-10.7935152053833
Ba	-10.794088363647461
Yes	-10.79410457611084
▁channels	-10.794315338134766
▁Min	-10.79439926147461
▁fool	-10.794506072998047
▁strongly	-10.794795989990234
▁decline	-10.795600891113281
▁Ghosh	-10.795807838439941
▁derived	-10.796035766601562
▁memo	-10.79648494720459
gon	-10.796770095825195
hari	-10.797015190124512
rin	-10.797337532043457
book	-10.797418594360352
log	-10.797740936279297
▁virus	-10.798077583312988
▁maintenance	-10.798187255859375
▁Chapter	-10.798208236694336
▁Metro	-10.79835319519043
▁preserved	-10.798550605773926
▁palm	-10.798601150512695
lon	-10.798795700073242
▁characteristics	-10.798990249633789
zo	-10.799230575561523
▁emphasis	-10.799400329589844
5)	-10.799829483032227
▁offline	-10.80007266998291
▁linked	-10.800271987915039
cal	-10.800695419311523
▁soldier	-10.800996780395508
9%	-10.801011085510254
▁Hats	-10.801042556762695
lor	-10.801177978515625
rid	-10.80126667022705
▁structures	-10.801502227783203
bb	-10.801558494567871
▁judges	-10.801583290100098
▁declaration	-10.80183219909668
▁doors	-10.80201244354248
▁Staff	-10.80211067199707
▁temples	-10.802152633666992
▁Ab	-10.80219554901123
▁sample	-10.802882194519043
▁mad	-10.80296802520752
▁yellow	-10.803093910217285
▁pilot	-10.803192138671875
▁alcohol	-10.803875923156738
▁Cho	-10.80408763885498
▁announcement	-10.80417537689209
▁maintaining	-10.80465316772461
▁Action	-10.804655075073242
▁chain	-10.804947853088379
nch	-10.805188179016113
▁luck	-10.805207252502441
▁Further	-10.805476188659668
▁neck	-10.806047439575195
IC	-10.806431770324707
gle	-10.806478500366211
▁Version	-10.806732177734375
▁69	-10.80684757232666
▁publish	-10.806904792785645
▁alert	-10.807053565979004
▁Rev	-10.807162284851074
hood	-10.807275772094727
▁Devi	-10.807680130004883
▁Hold	-10.808158874511719
▁rates	-10.8082275390625
NC	-10.808698654174805
▁1995	-10.808765411376953
▁Wikipedia	-10.809164047241211
ight	-10.809354782104492
ica	-10.809555053710938
bit	-10.809621810913086
tes	-10.809649467468262
▁movies	-10.809807777404785
▁Ecclesiastes	-10.810454368591309
▁nobody	-10.810696601867676
▁distress	-10.811001777648926
▁requested	-10.811479568481445
▁Thai	-10.811537742614746
▁vehicle	-10.811565399169922
▁restore	-10.811625480651855
xi	-10.81170654296875
▁rival	-10.811750411987305
▁thirty	-10.812021255493164
▁profession	-10.81233024597168
▁burned	-10.812498092651367
▁AS	-10.812559127807617
▁personnel	-10.813056945800781
▁passage	-10.81317138671875
▁Azerbaijan	-10.813596725463867
▁Mohammed	-10.813807487487793
▁zeal	-10.813993453979492
▁remembered	-10.814014434814453
▁existed	-10.814043998718262
▁twelve	-10.814080238342285
▁explanation	-10.814114570617676
▁copyright	-10.814151763916016
▁rally	-10.814194679260254
▁Election	-10.814200401306152
▁rapid	-10.81442928314209
▁possibility	-10.815312385559082
▁Mahmud	-10.815320014953613
▁Supporting	-10.815373420715332
▁detailed	-10.815753936767578
▁initiated	-10.815797805786133
▁Mrs	-10.81611156463623
▁declare	-10.816447257995605
▁documentary	-10.816838264465332
▁attain	-10.816985130310059
▁colleges	-10.817192077636719
▁fix	-10.817359924316406
SC	-10.817742347717285
▁liquid	-10.817745208740234
▁societies	-10.81778335571289
ade	-10.817832946777344
▁Buddhism	-10.817834854125977
▁Dinajpur	-10.817907333374023
▁Kamal	-10.817934036254883
▁1964	-10.818354606628418
▁ideal	-10.818416595458984
▁Ocean	-10.818424224853516
▁stupid	-10.818838119506836
▁Ze	-10.818864822387695
▁popularity	-10.81893539428711
▁obedience	-10.819021224975586
▁defend	-10.819479942321777
▁dad	-10.819629669189453
▁Translation	-10.820267677307129
▁flower	-10.820433616638184
uni	-10.821130752563477
yo	-10.821148872375488
▁1971.	-10.82133674621582
▁tear	-10.821625709533691
SP	-10.822071075439453
▁applications	-10.822366714477539
rural	-10.822463035583496
▁performing	-10.822728157043457
▁significance	-10.82274341583252
gue	-10.822815895080566
▁18,	-10.823202133178711
▁delay	-10.823552131652832
▁depends	-10.823585510253906
lia	-10.823785781860352
tion	-10.82414436340332
▁Talk	-10.824243545532227
▁estate	-10.82429313659668
▁(16	-10.824329376220703
▁slaves	-10.824397087097168
see	-10.824663162231445
▁Sports	-10.824687957763672
▁subsequent	-10.825544357299805
▁sales	-10.826107025146484
▁conducting	-10.82629108428955
▁Commons	-10.826669692993164
▁locally	-10.826757431030273
▁Educational	-10.827348709106445
▁Md	-10.827521324157715
▁attempted	-10.828092575073242
▁starred	-10.82813549041748
vert	-10.828259468078613
▁domain	-10.828280448913574
▁discovery	-10.828319549560547
▁Building	-10.82840633392334
▁fate	-10.828653335571289
ati	-10.828673362731934
▁gross	-10.828767776489258
▁dispute	-10.829106330871582
▁te	-10.829300880432129
▁Fort	-10.829377174377441
▁potato	-10.829648971557617
▁reporting	-10.82978630065918
▁departments	-10.829975128173828
asa	-10.830821990966797
▁Cambodia	-10.83089542388916
▁wing	-10.830921173095703
▁Tar	-10.831625938415527
▁register	-10.832074165344238
AR	-10.83255672454834
▁Morocco	-10.83273696899414
▁Isa	-10.832961082458496
▁smoke	-10.833032608032227
▁120	-10.833038330078125
ou	-10.833219528198242
▁verses	-10.8334321975708
▁85	-10.833468437194824
rate	-10.833600044250488
▁Maldives	-10.833992958068848
▁dam	-10.834061622619629
▁1944	-10.83426570892334
▁expanded	-10.834534645080566
▁1982	-10.834566116333008
▁starts	-10.8346529006958
▁Bangabandhu	-10.83525276184082
▁Imagine	-10.835339546203613
▁totally	-10.835659980773926
▁petition	-10.835693359375
8.	-10.83580493927002
▁demanding	-10.836459159851074
▁speaker	-10.836657524108887
tel	-10.836997985839844
Who	-10.837556838989258
▁Schedule	-10.837618827819824
▁favorite	-10.838027000427246
▁truths	-10.838513374328613
▁paying	-10.83862018585205
▁converted	-10.83908748626709
▁freely	-10.839093208312988
▁currency	-10.839115142822266
▁Ver	-10.839848518371582
▁inform	-10.840084075927734
bad	-10.840255737304688
4,	-10.8410062789917
▁imprisoned	-10.841774940490723
▁adults	-10.841797828674316
▁forgiveness	-10.841877937316895
▁profile	-10.841891288757324
▁beside	-10.84225845336914
▁core	-10.842472076416016
▁afford	-10.84259033203125
▁beloved	-10.842838287353516
▁contest	-10.842982292175293
▁NGOs	-10.842991828918457
▁phrase	-10.843157768249512
Ja	-10.843403816223145
▁tribe	-10.843832015991211
ming	-10.84404468536377
▁Spiritual	-10.844123840332031
▁Third	-10.844123840332031
▁Lieutenant	-10.84416389465332
▁uniform	-10.844206809997559
▁outcome	-10.844554901123047
lock	-10.844566345214844
American	-10.844940185546875
▁Rai	-10.845014572143555
▁Economics	-10.845196723937988
▁controversial	-10.84537124633789
▁Ibn	-10.845391273498535
ren	-10.845532417297363
dge	-10.845636367797852
room	-10.845865249633789
▁attracted	-10.845911979675293
▁hills	-10.845974922180176
hat	-10.846508979797363
▁armies	-10.84675407409668
▁breath	-10.846909523010254
ava	-10.846914291381836
▁Natural	-10.84698486328125
▁alleged	-10.847100257873535
6.	-10.84730052947998
▁saving	-10.847516059875488
-4	-10.847613334655762
▁count	-10.84774398803711
▁everyday	-10.848112106323242
ral	-10.848302841186523
▁flash	-10.84849739074707
That	-10.848575592041016
▁shepherd	-10.848881721496582
.1	-10.848954200744629
▁festivals	-10.84897518157959
▁fuck	-10.848989486694336
4)	-10.849713325500488
▁1951	-10.849752426147461
▁1939	-10.849813461303711
Bangladesh	-10.84988784790039
▁Padma	-10.850099563598633
▁influential	-10.85047435760498
▁spite	-10.85055923461914
▁Full	-10.850852012634277
▁involve	-10.850887298583984
▁Lal	-10.850940704345703
▁resolution	-10.851831436157227
▁cycle	-10.852299690246582
▁tower	-10.85248851776123
▁Big	-10.853095054626465
▁legs	-10.853266716003418
-8	-10.853538513183594
▁Message	-10.853796005249023
hra	-10.854048728942871
▁cotton	-10.854312896728516
▁IS	-10.854455947875977
▁Trade	-10.854612350463867
▁u	-10.855049133300781
▁terrorist	-10.855096817016602
▁Karim	-10.855768203735352
▁1937	-10.85583209991455
▁publicly	-10.855915069580078
▁$1	-10.85610580444336
put	-10.856767654418945
▁fiction	-10.85689926147461
form	-10.858075141906738
▁bengal	-10.858201026916504
▁Truth	-10.858368873596191
▁FOR	-10.8585205078125
▁teaches	-10.859002113342285
▁Wall	-10.859004020690918
low	-10.859308242797852
▁acquire	-10.859333992004395
▁Indonesian	-10.859516143798828
▁Again	-10.85977840423584
▁accomplished	-10.860493659973145
▁debt	-10.860575675964355
▁recommended	-10.860633850097656
▁reserved	-10.860640525817871
pu	-10.860749244689941
▁conquest	-10.860763549804688
▁ear	-10.86100959777832
▁draft	-10.861419677734375
ghat	-10.861444473266602
4.	-10.861468315124512
▁(5)	-10.861732482910156
▁remittance	-10.862038612365723
▁feels	-10.862160682678223
[	-10.862188339233398
char	-10.86219596862793
ose	-10.862454414367676
▁clothing	-10.862532615661621
oo	-10.862749099731445
▁breaking	-10.862872123718262
nan	-10.863053321838379
▁applying	-10.863224983215332
▁costs	-10.863263130187988
▁sp	-10.863343238830566
▁Taiwan	-10.863456726074219
▁neighbors	-10.863677024841309
▁detained	-10.863804817199707
▁caring	-10.86388111114502
▁1969	-10.863940238952637
fully	-10.864056587219238
▁Screen	-10.864608764648438
▁anxious	-10.864627838134766
▁Mujibur	-10.864830017089844
▁anywhere	-10.865029335021973
▁operated	-10.865987777709961
▁Globe	-10.86724853515625
▁preached	-10.867300033569336
▁Sher	-10.867456436157227
▁Tunisia	-10.867826461791992
ric	-10.868047714233398
▁ratio	-10.868085861206055
▁bride	-10.86865234375
▁somewhere	-10.868973731994629
▁Tal	-10.869309425354004
▁chair	-10.869336128234863
▁brand	-10.86941146850586
▁Command	-10.86951732635498
br	-10.869592666625977
▁winner	-10.869783401489258
▁Contact	-10.86982536315918
▁Mas	-10.869863510131836
▁specifically	-10.870024681091309
▁reforms	-10.870145797729492
▁valley	-10.870950698852539
▁refuge	-10.871009826660156
▁Judge	-10.871068000793457
▁Shiva	-10.871094703674316
yl	-10.871325492858887
ole	-10.871808052062988
▁Certificate	-10.872434616088867
▁worried	-10.872435569763184
▁Address	-10.872469902038574
▁beneficial	-10.872483253479004
▁Kuwait	-10.872575759887695
▁cl	-10.872802734375
▁(5	-10.872899055480957
▁Anna	-10.87304401397705
▁criticized	-10.873225212097168
▁literally	-10.873236656188965
▁73	-10.873878479003906
▁lasting	-10.873941421508789
▁usual	-10.874170303344727
▁fallen	-10.874510765075684
▁imposed	-10.874724388122559
▁motivated	-10.874807357788086
▁relationships	-10.874956130981445
ino	-10.875062942504883
-6	-10.875478744506836
▁traveled	-10.875654220581055
▁engine	-10.875877380371094
path	-10.875896453857422
▁Stay	-10.87590217590332
▁ongoing	-10.87605094909668
▁trans	-10.876096725463867
▁fame	-10.876260757446289
▁damaged	-10.876725196838379
▁Van	-10.876946449279785
▁repair	-10.877132415771484
▁lord	-10.877138137817383
▁ocean	-10.877751350402832
▁400	-10.877890586853027
ore	-10.878215789794922
din	-10.878328323364258
EC	-10.87887954711914
▁expensive	-10.878988265991211
▁storage	-10.878988265991211
▁amazing	-10.879000663757324
▁wages	-10.879005432128906
▁reveals	-10.879440307617188
▁Windows	-10.87954044342041
▁13,	-10.879598617553711
▁94	-10.87965202331543
▁cars	-10.879742622375488
▁argued	-10.87993049621582
▁refuse	-10.8801908493042
▁y	-10.880342483520508
▁obedient	-10.880776405334473
▁caste	-10.880927085876465
▁Jean	-10.881072044372559
▁Had	-10.88119888305664
▁punished	-10.881315231323242
▁magic	-10.881324768066406
▁Tara	-10.881342887878418
bin	-10.881645202636719
▁everybody	-10.881730079650879
▁fa	-10.881974220275879
▁slightly	-10.882015228271484
▁92	-10.882067680358887
▁revolutionary	-10.883148193359375
▁tube	-10.883182525634766
sta	-10.88318920135498
▁pop	-10.883774757385254
▁remind	-10.883952140808105
▁1:	-10.884149551391602
▁st	-10.884406089782715
▁zamindars	-10.884407043457031
▁Everything	-10.884526252746582
▁employer	-10.884902954101562
▁10)	-10.88520622253418
▁devices	-10.885374069213867
▁fishing	-10.885601043701172
▁commitment	-10.885724067687988
sis	-10.885950088500977
Me	-10.886061668395996
▁disasters	-10.886459350585938
▁bright	-10.886635780334473
read	-10.88667106628418
▁opinions	-10.886797904968262
▁hero	-10.886937141418457
▁HOW	-10.886947631835938
▁founding	-10.887348175048828
▁IT	-10.887407302856445
▁appoint	-10.88776969909668
1.	-10.887782096862793
▁Fu	-10.887810707092285
▁grass	-10.887848854064941
▁76	-10.888045310974121
▁edge	-10.888219833374023
▁mainstream	-10.888299942016602
▁embassy	-10.888315200805664
▁guest	-10.88838005065918
Ex	-10.88839340209961
▁physically	-10.888468742370605
▁terrorism	-10.890069961547852
▁tiny	-10.89016342163086
▁Bir	-10.890274047851562
▁rail	-10.890360832214355
▁arrange	-10.89067268371582
▁Bin	-10.890775680541992
▁monument	-10.890969276428223
▁conventions	-10.891746520996094
▁rapidly	-10.891901969909668
▁bo	-10.892045974731445
▁ruin	-10.89207649230957
tala	-10.892175674438477
ane	-10.89227294921875
▁visual	-10.892611503601074
nic	-10.892680168151855
000	-10.892786026000977
▁sounds	-10.893507957458496
style	-10.893616676330566
▁Beijing	-10.893695831298828
▁Story	-10.893843650817871
▁flying	-10.89395809173584
iti	-10.894954681396484
▁Archive	-10.895082473754883
▁madrasa	-10.895188331604004
▁altar	-10.895196914672852
aw	-10.89537525177002
▁Mail	-10.895377159118652
▁contents	-10.89547348022461
General	-10.895703315734863
▁tri	-10.896002769470215
▁acknowledge	-10.896157264709473
▁compare	-10.896166801452637
▁WHAT	-10.89622974395752
▁permanently	-10.896594047546387
▁taxes	-10.896729469299316
ese	-10.897054672241211
free	-10.897056579589844
▁thinks	-10.897066116333008
▁Mujib	-10.897322654724121
▁1975	-10.898000717163086
Fa	-10.898247718811035
▁footballer	-10.898260116577148
▁Class	-10.898386001586914
▁Mer	-10.898629188537598
▁Tokyo	-10.898908615112305
▁sudden	-10.899316787719727
▁Q	-10.899752616882324
▁Cu	-10.899768829345703
▁expand	-10.899977684020996
▁BE	-10.900275230407715
▁commit	-10.900321960449219
▁Display	-10.900419235229492
▁Aziz	-10.900485038757324
▁Imam	-10.900501251220703
▁expressions	-10.90093994140625
▁1921	-10.901124954223633
lum	-10.901153564453125
▁modest	-10.901290893554688
▁depend	-10.90145492553711
▁86	-10.901636123657227
▁settle	-10.901659965515137
▁conscious	-10.901734352111816
▁Commander	-10.901949882507324
▁constitutional	-10.901992797851562
▁obvious	-10.902008056640625
▁1941	-10.902433395385742
▁crazy	-10.902941703796387
org	-10.903116226196289
▁nearest	-10.903850555419922
bel	-10.90444278717041
▁apartment	-10.90450382232666
▁attract	-10.904533386230469
▁discussions	-10.905157089233398
mor	-10.905174255371094
▁thana	-10.905231475830078
▁supplies	-10.905638694763184
▁cousin	-10.9056396484375
▁Rabindranath	-10.905658721923828
▁1993	-10.905699729919434
▁Mandir	-10.905710220336914
▁Howrah	-10.90615177154541
▁symbolic	-10.906352043151855
ress	-10.906824111938477
▁pleased	-10.906905174255371
▁bigger	-10.907161712646484
▁companion	-10.907389640808105
▁statements	-10.907455444335938
▁periods	-10.907464027404785
▁survived	-10.908198356628418
▁bow	-10.908207893371582
▁Southern	-10.908347129821777
oy	-10.908888816833496
▁frame	-10.909004211425781
▁techniques	-10.909211158752441
▁wicket	-10.909465789794922
▁cm	-10.909854888916016
ks	-10.909915924072266
▁aged	-10.909951210021973
So	-10.909955024719238
▁critics	-10.910361289978027
▁repeatedly	-10.9105863571167
are	-10.910744667053223
▁mistakes	-10.910896301269531
▁promotion	-10.910971641540527
3%	-10.910974502563477
▁delete	-10.911009788513184
▁li	-10.91102409362793
▁invasion	-10.91106128692627
ona	-10.911273002624512
▁Industrial	-10.911611557006836
Bo	-10.911652565002441
▁moves	-10.911744117736816
▁stronger	-10.912005424499512
▁2008.	-10.91219425201416
▁;	-10.912317276000977
▁falls	-10.912318229675293
▁endurance	-10.912413597106934
bal	-10.912652969360352
▁Table	-10.912705421447754
▁addressed	-10.912744522094727
▁ought	-10.912867546081543
▁transportation	-10.913000106811523
▁approached	-10.913311004638672
ving	-10.913883209228516
▁raw	-10.914258003234863
▁Follow	-10.914393424987793
▁Finance	-10.915148735046387
▁6:9	-10.915244102478027
til	-10.915412902832031
▁Jami	-10.915475845336914
▁Credit	-10.915754318237305
ew	-10.916171073913574
▁coffee	-10.91650104522705
▁alliance	-10.91650676727295
▁column	-10.91667366027832
▁satisfied	-10.916690826416016
▁1935	-10.916790008544922
▁absolute	-10.916932106018066
▁intense	-10.916975975036621
▁Express	-10.917268753051758
▁voices	-10.918416976928711
▁ultimately	-10.918458938598633
3.	-10.918572425842285
!-	-10.918924331665039
▁Smith	-10.919236183166504
▁PAGE	-10.919261932373047
▁exile	-10.919285774230957
▁banana	-10.919377326965332
ec	-10.919421195983887
▁cr	-10.919800758361816
▁Bel	-10.919872283935547
▁Faith	-10.920465469360352
▁78	-10.920573234558105
▁talked	-10.920650482177734
▁introduce	-10.921326637268066
1-	-10.921441078186035
▁actively	-10.921642303466797
▁experts	-10.921680450439453
▁guarantee	-10.921937942504883
▁intention	-10.922245979309082
▁stake	-10.922320365905762
▁shooting	-10.922453880310059
▁harsh	-10.922683715820312
▁grain	-10.92286491394043
▁cruel	-10.923274993896484
▁prejudice	-10.92335033416748
▁Deb	-10.923587799072266
▁Mun	-10.923589706420898
▁privileges	-10.923744201660156
▁praying	-10.923778533935547
▁witnesses	-10.923833847045898
▁seventh	-10.923876762390137
▁Upon	-10.924027442932129
▁sections	-10.924051284790039
▁eager	-10.924980163574219
▁Kam	-10.925271034240723
▁Rashid	-10.925415992736816
▁demons	-10.925835609436035
anda	-10.925908088684082
▁Louis	-10.926519393920898
▁discharge	-10.927477836608887
▁pornography	-10.927593231201172
▁troubled	-10.927694320678711
▁wishes	-10.927821159362793
▁Rom	-10.9285306930542
RC	-10.928695678710938
▁exit	-10.92935848236084
anta	-10.929420471191406
▁spending	-10.929447174072266
▁hat	-10.929791450500488
▁Ur	-10.929896354675293
▁smell	-10.929916381835938
▁brown	-10.93161678314209
▁categories	-10.931632041931152
▁spreading	-10.93172836303711
▁queen	-10.931733131408691
▁mat	-10.93183422088623
▁ve	-10.932069778442383
var	-10.93210220336914
▁1,000	-10.932197570800781
▁References	-10.932351112365723
▁peak	-10.932852745056152
▁Computer	-10.933021545410156
IT	-10.933059692382812
▁19.	-10.933077812194824
▁tests	-10.93309497833252
▁hosted	-10.933282852172852
▁engineer	-10.9332857131958
▁AND	-10.933483123779297
Mu	-10.933747291564941
▁usage	-10.934171676635742
▁habits	-10.934314727783203
▁communicate	-10.934383392333984
▁prince	-10.934771537780762
▁keeps	-10.934852600097656
▁4)	-10.935030937194824
▁2019,	-10.935713768005371
▁entering	-10.93585205078125
▁equivalent	-10.935938835144043
▁Mag	-10.935949325561523
▁Taliban	-10.935965538024902
▁Picture	-10.93602466583252
▁enormous	-10.937191009521484
ice	-10.937225341796875
▁loose	-10.938006401062012
$	-10.938164710998535
▁giant	-10.938270568847656
▁configuration	-10.938586235046387
▁FROM	-10.93860912322998
▁operate	-10.938633918762207
▁1967	-10.938652038574219
ras	-10.93893051147461
▁chat	-10.938940048217773
▁blogging	-10.93902587890625
▁1931	-10.939443588256836
▁77	-10.939717292785645
▁Christendom	-10.939982414245605
▁sport	-10.939984321594238
▁completion	-10.93999195098877
▁Standard	-10.940008163452148
ea	-10.940115928649902
▁humanity	-10.94054126739502
▁seeds	-10.94061279296875
ians	-10.940834999084473
oli	-10.941247940063477
▁Assistant	-10.941381454467773
▁Between	-10.941381454467773
▁studio	-10.94139289855957
▁resort	-10.941431999206543
▁bat	-10.941594123840332
▁Boy	-10.941609382629395
▁somewhat	-10.941767692565918
▁bowler	-10.941798210144043
▁photograph	-10.94214153289795
▁pulled	-10.942276000976562
▁Heart	-10.942411422729492
▁funeral	-10.942782402038574
▁2005,	-10.943450927734375
▁thin	-10.943821907043457
▁element	-10.943870544433594
tta	-10.944183349609375
▁Cairo	-10.944204330444336
▁95	-10.945149421691895
uli	-10.94515609741211
▁shoulder	-10.945396423339844
▁facility	-10.945589065551758
▁partnership	-10.94566822052002
uff	-10.946019172668457
▁Sab	-10.946027755737305
▁fans	-10.946196556091309
9,	-10.946357727050781
+	-10.946431159973145
▁titles	-10.946930885314941
▁ignore	-10.946990966796875
▁consent	-10.947041511535645
speaking	-10.947089195251465
tia	-10.947911262512207
▁companions	-10.947931289672852
▁Oxford	-10.948403358459473
▁photographs	-10.94858455657959
▁nomination	-10.948616981506348
▁typical	-10.949163436889648
▁recall	-10.949243545532227
▁detail	-10.949332237243652
▁implement	-10.94955062866211
hearted	-10.949556350708008
▁hole	-10.949596405029297
▁conclude	-10.949698448181152
▁Front	-10.949760437011719
▁grasp	-10.94981575012207
▁heavily	-10.949816703796387
▁push	-10.95005989074707
▁topics	-10.950159072875977
▁Ac	-10.950220108032227
▁falling	-10.950309753417969
9.	-10.950393676757812
▁waters	-10.950441360473633
RE	-10.950488090515137
▁sh	-10.950507164001465
ify	-10.950582504272461
len	-10.950620651245117
▁Bari	-10.950773239135742
▁RE	-10.950836181640625
▁Fisheries	-10.951251983642578
▁subdivision	-10.951300621032715
▁tall	-10.951494216918945
▁Bai	-10.951591491699219
from	-10.951653480529785
▁options	-10.951661109924316
post	-10.952021598815918
▁1962	-10.952256202697754
▁depression	-10.952640533447266
▁batsman	-10.952651023864746
▁memorial	-10.952652931213379
▁painful	-10.953267097473145
▁Sharif	-10.953301429748535
▁h	-10.953404426574707
▁loud	-10.953512191772461
▁Fine	-10.953933715820312
▁Provincial	-10.954057693481445
▁subcontinent	-10.954105377197266
aba	-10.954408645629883
▁hang	-10.954610824584961
▁Parents	-10.955087661743164
▁Spirit	-10.955450057983398
▁arrive	-10.95546817779541
▁assume	-10.9555082321167
▁amongst	-10.955543518066406
▁labourer	-10.955601692199707
▁1938	-10.955761909484863
handed	-10.956016540527344
tur	-10.956023216247559
▁1989	-10.956136703491211
▁Nar	-10.956210136413574
▁Phil	-10.956635475158691
▁inscription	-10.956764221191406
▁picked	-10.957169532775879
▁performances	-10.95734691619873
▁nationalist	-10.957372665405273
▁latitudes	-10.957391738891602
who	-10.957430839538574
▁Ltd	-10.95765209197998
▁limits	-10.957815170288086
▁Shams	-10.957942008972168
▁collaboration	-10.958318710327148
▁concert	-10.958479881286621
▁Pur	-10.958724975585938
▁touched	-10.959460258483887
▁Top	-10.959623336791992
▁Joy	-10.959705352783203
▁irrigation	-10.95974349975586
acre	-10.959896087646484
▁Route	-10.960128784179688
▁1994	-10.960382461547852
▁reminded	-10.960627555847168
pra	-10.960869789123535
▁87	-10.961013793945312
▁deaths	-10.961368560791016
▁Huq	-10.96139144897461
▁repeated	-10.961511611938477
▁Colombia	-10.96180534362793
▁bio	-10.962054252624512
▁84	-10.962512969970703
▁Paddy	-10.962640762329102
▁discrimination	-10.962684631347656
▁fi	-10.962738990783691
Heb	-10.962794303894043
NA	-10.963171005249023
▁overseers	-10.963379859924316
▁immoral	-10.963850021362305
▁grief	-10.964029312133789
zh	-10.964259147644043
▁combat	-10.964313507080078
▁3:1	-10.964466094970703
▁worshippers	-10.964800834655762
▁shah	-10.964874267578125
state	-10.9649076461792
hr	-10.9650297164917
▁goodness	-10.965798377990723
▁render	-10.96596622467041
▁thereafter	-10.965974807739258
agricultural	-10.96646785736084
ug	-10.966571807861328
▁dock	-10.966676712036133
mail	-10.966947555541992
▁17,	-10.966986656188965
▁imperial	-10.967093467712402
▁Pal	-10.967254638671875
▁relates	-10.967666625976562
▁crash	-10.967911720275879
Co	-10.968033790588379
▁(14	-10.968318939208984
▁thereby	-10.968399047851562
▁1918	-10.968709945678711
▁Wood	-10.969027519226074
▁Place	-10.969655990600586
▁im	-10.969762802124023
▁bronze	-10.969772338867188
▁teeth	-10.969786643981934
▁Linux	-10.969926834106445
▁cloud	-10.970288276672363
▁Kabul	-10.970404624938965
▁CC	-10.970464706420898
▁auto	-10.970492362976074
▁Members	-10.970786094665527
▁Burma	-10.971129417419434
▁Prophet	-10.971214294433594
▁residential	-10.971270561218262
▁plague	-10.971456527709961
▁gang	-10.971535682678223
▁listened	-10.971685409545898
government	-10.971702575683594
▁volunteers	-10.97177791595459
present	-10.971988677978516
qa	-10.9721040725708
Ar	-10.972429275512695
ily	-10.972724914550781
▁Bu	-10.972773551940918
▁Saint	-10.972825050354004
▁Unlike	-10.972967147827148
▁commissioned	-10.973214149475098
▁imported	-10.973478317260742
▁instruments	-10.97404670715332
▁Commonwealth	-10.974102020263672
▁Key	-10.97421646118164
mad	-10.974349021911621
▁Fe	-10.97451114654541
▁expert	-10.974525451660156
▁borders	-10.974668502807617
▁Var	-10.975057601928711
▁aren	-10.975314140319824
hin	-10.975821495056152
qua	-10.976190567016602
▁Ye	-10.976217269897461
box	-10.976348876953125
minded	-10.97691822052002
▁Defence	-10.977028846740723
pir	-10.97729778289795
dra	-10.977386474609375
▁Ak	-10.977629661560059
▁po	-10.978462219238281
▁referring	-10.978652000427246
▁Dev	-10.97927188873291
▁lifetime	-10.979289054870605
▁dreams	-10.979292869567871
fu	-10.979297637939453
▁1932	-10.979494094848633
▁normally	-10.979622840881348
▁ride	-10.979659080505371
▁pleasant	-10.979903221130371
▁Southeast	-10.979941368103027
▁Brazilian	-10.980301856994629
▁1952	-10.980384826660156
▁pioneering	-10.980432510375977
▁sinful	-10.980497360229492
▁joining	-10.980730056762695
▁filed	-10.981679916381836
gent	-10.981710433959961
▁diet	-10.981913566589355
pping	-10.981950759887695
▁(8	-10.982017517089844
ene	-10.982060432434082
▁Heb	-10.982380867004395
▁strengthened	-10.982584953308105
▁Sources	-10.982871055603027
▁Ancient	-10.982894897460938
▁Against	-10.983037948608398
▁Dam	-10.983068466186523
▁churches	-10.983518600463867
▁markets	-10.983697891235352
▁golden	-10.983704566955566
▁Leader	-10.98375415802002
▁worthy	-10.983760833740234
which	-10.983872413635254
▁fever	-10.984381675720215
▁admit	-10.98463249206543
▁episode	-10.984881401062012
▁processes	-10.985001564025879
▁bull	-10.985074043273926
&	-10.985333442687988
▁1936	-10.985454559326172
▁regret	-10.985652923583984
▁virtue	-10.985737800598145
▁distant	-10.985739707946777
▁1000	-10.985859870910645
▁Canadian	-10.985867500305176
nar	-10.986051559448242
▁implemented	-10.9862642288208
▁thrown	-10.986416816711426
▁Sur	-10.98706340789795
▁effectively	-10.987126350402832
▁venture	-10.987266540527344
▁excuse	-10.988677024841309
▁restrictions	-10.988723754882812
tle	-10.989198684692383
list	-10.989493370056152
▁Point	-10.989533424377441
Keep	-10.989741325378418
▁taka	-10.989773750305176
▁youngest	-10.990102767944336
▁comparison	-10.99013614654541
▁24:14	-10.990574836730957
▁flu	-10.990723609924316
▁noise	-10.991098403930664
▁4:6	-10.991127967834473
▁marks	-10.991164207458496
▁ears	-10.991449356079102
▁2:	-10.991640090942383
▁scared	-10.991650581359863
▁Victoria	-10.991653442382812
▁retirement	-10.991656303405762
▁glorious	-10.991737365722656
▁Send	-10.991830825805664
▁tasks	-10.991943359375
▁Andrew	-10.992083549499512
▁complaint	-10.992270469665527
▁employee	-10.992369651794434
▁Online	-10.992972373962402
ii	-10.993082046508789
▁Ordinance	-10.993205070495605
▁Hamid	-10.993270874023438
▁wondered	-10.993339538574219
▁socio	-10.993560791015625
ened	-10.993876457214355
▁relate	-10.993974685668945
▁respective	-10.99425220489502
▁Policy	-10.99455451965332
▁promoting	-10.99455451965332
▁Jessore	-10.994654655456543
▁roll	-10.994808197021484
▁routine	-10.99509334564209
▁20.	-10.995136260986328
band	-10.9954252243042
ites	-10.995784759521484
▁trick	-10.995844841003418
▁meters	-10.995946884155273
▁offspring	-10.99606990814209
▁immorality	-10.996219635009766
New	-10.996252059936523
uring	-10.997344017028809
▁smart	-10.99750804901123
-22	-10.997598648071289
▁1946	-10.99761962890625
gy	-10.997685432434082
▁dish	-10.99778938293457
▁Nagar	-10.997842788696289
eng	-10.998130798339844
▁originated	-10.9981689453125
▁Taka	-10.998371124267578
hai	-10.998468399047852
▁Alex	-10.998699188232422
kot	-10.99881362915039
▁Channel	-10.999000549316406
▁25,	-10.999139785766602
-21	-10.999213218688965
ano	-10.999650955200195
▁zealous	-10.999754905700684
▁conquered	-11.000077247619629
▁Abd	-11.000107765197754
James	-11.000115394592285
▁prophecies	-11.000475883483887
▁Knowledge	-11.000478744506836
▁Hollywood	-11.000487327575684
▁formerly	-11.00051212310791
▁priority	-11.000860214233398
▁1914	-11.000927925109863
▁occasionally	-11.001144409179688
▁Mohan	-11.001498222351074
▁kindly	-11.001524925231934
▁Grant	-11.001687049865723
▁Scotland	-11.001961708068848
▁Welfare	-11.001961708068848
▁varieties	-11.001961708068848
▁adding	-11.002001762390137
▁factories	-11.002073287963867
▁massacre	-11.002119064331055
▁Palace	-11.00214958190918
human	-11.00228214263916
▁isolated	-11.002381324768066
ero	-11.003159523010254
▁Rose	-11.00334644317627
▁controversy	-11.003450393676758
▁vessels	-11.00358772277832
ition	-11.00434684753418
ants	-11.00437068939209
▁stones	-11.004398345947266
▁Hotel	-11.005118370056152
-30	-11.005242347717285
IN	-11.00597095489502
▁1977	-11.005997657775879
point	-11.00607967376709
▁mathematics	-11.00643253326416
▁Field	-11.006433486938477
▁nawab	-11.006440162658691
▁injury	-11.006443977355957
▁label	-11.00660228729248
▁cap	-11.00674819946289
▁murdered	-11.006909370422363
▁threats	-11.007046699523926
▁Armenia	-11.007438659667969
Isa	-11.00759506225586
great	-11.007680892944336
▁paintings	-11.007743835449219
▁physics	-11.00790786743164
▁compete	-11.00796890258789
▁Jones	-11.008244514465332
ford	-11.008427619934082
▁99	-11.008502006530762
▁Provided	-11.00858211517334
▁successor	-11.00859546661377
5%	-11.00907039642334
▁Dal	-11.00936508178711
▁continuing	-11.009425163269043
▁housing	-11.009431838989258
▁municipality	-11.009592056274414
▁Jonah	-11.009763717651367
▁mild	-11.009933471679688
▁Georgia	-11.010629653930664
▁wounded	-11.010689735412598
▁harmful	-11.011333465576172
▁83	-11.011774063110352
EN	-11.011788368225098
▁goddess	-11.011845588684082
▁forgotten	-11.011907577514648
▁sectors	-11.011956214904785
▁definition	-11.011992454528809
▁Six	-11.012080192565918
▁Ve	-11.012154579162598
▁5:3	-11.012422561645508
▁concentration	-11.012425422668457
star	-11.012612342834473
▁log	-11.012686729431152
▁User	-11.012687683105469
▁III	-11.012819290161133
▁recognised	-11.013015747070312
ima	-11.013188362121582
▁pot	-11.013299942016602
▁removal	-11.01392936706543
▁deleted	-11.013989448547363
▁va	-11.014006614685059
that	-11.014016151428223
RI	-11.014065742492676
▁1:1	-11.014251708984375
▁processing	-11.014307975769043
▁skill	-11.014375686645508
▁Scripture	-11.0150146484375
▁holiday	-11.015032768249512
▁Ruth	-11.015070915222168
▁Eden	-11.015073776245117
▁believes	-11.015332221984863
▁Sch	-11.015578269958496
▁dates	-11.016050338745117
▁hospitals	-11.016288757324219
▁proceedings	-11.016833305358887
▁Explain	-11.01694393157959
Sha	-11.0170316696167
▁Monday	-11.017072677612305
gun	-11.017243385314941
▁fan	-11.017339706420898
▁Sc	-11.017419815063477
▁deny	-11.018198013305664
▁invalid	-11.018476486206055
▁Venezuela	-11.019229888916016
▁shed	-11.01927375793457
AF	-11.019315719604492
▁Tea	-11.019404411315918
ida	-11.019609451293945
▁GO	-11.019630432128906
lip	-11.019760131835938
▁Nu	-11.019830703735352
▁resident	-11.019911766052246
▁Gazette	-11.019970893859863
▁collapse	-11.020069122314453
▁Bombay	-11.020110130310059
▁Nobody	-11.020203590393066
▁motor	-11.020246505737305
▁underground	-11.020384788513184
avi	-11.020405769348145
▁2:3	-11.02064323425293
▁longitudes	-11.021124839782715
ware	-11.021130561828613
MA	-11.021132469177246
dhi	-11.02121639251709
onic	-11.021228790283203
▁elsewhere	-11.021533012390137
▁flows	-11.021651268005371
▁civilian	-11.021681785583496
▁fifty	-11.021758079528809
▁1928	-11.021974563598633
▁strict	-11.022305488586426
▁Must	-11.022360801696777
▁disappeared	-11.02261734008789
ela	-11.022759437561035
ei	-11.022790908813477
▁tragedy	-11.02299976348877
▁Coast	-11.0230073928833
▁compensation	-11.023017883300781
▁Creative	-11.02302360534668
▁sickness	-11.023151397705078
▁authors	-11.023335456848145
sam	-11.023530006408691
▁Yo	-11.024338722229004
▁governing	-11.024410247802734
▁lion	-11.024706840515137
▁cited	-11.024829864501953
atory	-11.024868965148926
▁bless	-11.024898529052734
▁Sudan	-11.024974822998047
▁appreciated	-11.025162696838379
▁chapters	-11.025193214416504
page	-11.025349617004395
▁discussing	-11.025359153747559
▁pagan	-11.026097297668457
▁permitted	-11.026122093200684
▁descendants	-11.026288986206055
▁plate	-11.026299476623535
▁emotions	-11.026313781738281
▁Federal	-11.026360511779785
▁rendered	-11.026559829711914
▁1929	-11.026823997497559
▁Zo	-11.027206420898438
cut	-11.027326583862305
▁propaganda	-11.027565956115723
▁missed	-11.027804374694824
▁journalism	-11.027831077575684
▁winners	-11.027861595153809
▁faithfully	-11.027914047241211
▁Try	-11.027971267700195
▁firmly	-11.028879165649414
▁Basu	-11.028948783874512
▁composition	-11.029099464416504
▁Exchange	-11.029106140136719
▁researchers	-11.029271125793457
▁sanitary	-11.02930736541748
▁composer	-11.029634475708008
▁Uganda	-11.029755592346191
▁sixth	-11.029839515686035
control	-11.030221939086914
▁difficulty	-11.030436515808105
▁statue	-11.030503273010254
▁genetic	-11.030624389648438
▁Enter	-11.030818939208984
▁classified	-11.030973434448242
▁basin	-11.031272888183594
rus	-11.032050132751465
▁voting	-11.032197952270508
▁adopt	-11.032215118408203
▁Design	-11.03223991394043
▁26,	-11.03250503540039
▁boats	-11.0325345993042
▁owners	-11.032578468322754
▁kg	-11.0326566696167
tr	-11.033123970031738
▁blocks	-11.03315544128418
▁representation	-11.03316879272461
chu	-11.033379554748535
Footnotes	-11.033441543579102
▁DNA	-11.03386116027832
▁prophets	-11.034017562866211
▁Doctor	-11.034116744995117
▁gap	-11.034587860107422
▁symbols	-11.035111427307129
hy	-11.035645484924316
▁recording	-11.035655975341797
▁1922	-11.0357027053833
▁electric	-11.035848617553711
▁windows	-11.035895347595215
▁chest	-11.03612995147705
▁Mukherjee	-11.036761283874512
▁participating	-11.036761283874512
▁destination	-11.036775588989258
▁thereof	-11.03688907623291
▁Digital	-11.036917686462402
▁cave	-11.037088394165039
▁Jam	-11.037230491638184
sion	-11.037407875061035
▁Nur	-11.03741455078125
▁1986	-11.037657737731934
▁roughly	-11.037710189819336
▁Import	-11.038178443908691
▁Brown	-11.038317680358887
▁copper	-11.03837776184082
▁wa	-11.03918743133545
▁Nor	-11.039342880249023
Exodus	-11.039525032043457
▁guests	-11.039737701416016
▁Shar	-11.039877891540527
▁Tripura	-11.03987979888916
▁corporation	-11.039896011352539
▁chicken	-11.039963722229004
▁coat	-11.040060043334961
▁dependent	-11.04025650024414
Po	-11.040445327758789
▁landless	-11.04062271118164
▁instrument	-11.040678024291992
5,000	-11.040897369384766
▁Barcelona	-11.041391372680664
▁Kazakhstan	-11.04139518737793
":	-11.041987419128418
hor	-11.04228687286377
▁Sand	-11.042510986328125
▁Bogra	-11.043126106262207
▁Narayan	-11.043203353881836
mari	-11.043254852294922
▁82	-11.043560028076172
▁Ly	-11.044304847717285
▁24,	-11.044416427612305
▁CHAPTER	-11.044488906860352
▁consumption	-11.044488906860352
▁bangladesh	-11.0444917678833
▁Bangkok	-11.04459285736084
place	-11.044724464416504
▁elite	-11.044841766357422
▁briefly	-11.044846534729004
Mar	-11.045309066772461
ered	-11.045327186584473
▁Pope	-11.045648574829102
8;	-11.045796394348145
▁trap	-11.045888900756836
▁Commerce	-11.046042442321777
▁Small	-11.046051025390625
▁penalty	-11.04606819152832
▁Shri	-11.046273231506348
▁anyway	-11.046991348266602
ancy	-11.0470609664917
▁Julian	-11.047078132629395
▁condemned	-11.0471773147583
▁Abdur	-11.047416687011719
▁discover	-11.047493934631348
▁panel	-11.047517776489258
▁Ukraine	-11.04759693145752
▁Sweden	-11.047597885131836
▁meditate	-11.047597885131836
▁steel	-11.047606468200684
▁Copyright	-11.047618865966797
▁wage	-11.04764461517334
▁cattle	-11.047653198242188
▁Flood	-11.047730445861816
▁huh	-11.047731399536133
TV	-11.047840118408203
▁cow	-11.047931671142578
▁entrusted	-11.047958374023438
▁improvement	-11.048189163208008
▁unusual	-11.0482177734375
▁audit	-11.04822063446045
▁statistics	-11.048489570617676
▁Tunisian	-11.048527717590332
arm	-11.048643112182617
▁automatically	-11.048761367797852
▁Mexican	-11.049155235290527
uck	-11.049365043640137
▁Blue	-11.049600601196289
▁1947,	-11.049616813659668
AN	-11.049631118774414
▁inspiration	-11.0499267578125
ville	-11.050118446350098
▁neutral	-11.050626754760742
▁outer	-11.050664901733398
▁acres	-11.050765037536621
▁involvement	-11.050888061523438
▁nineteenth	-11.050979614257812
▁truck	-11.050980567932129
▁Server	-11.051068305969238
-7	-11.051098823547363
▁cooking	-11.051265716552734
east	-11.051342964172363
▁householder	-11.051379203796387
keeper	-11.051390647888184
▁Learn	-11.051643371582031
▁pyramid	-11.052277565002441
hara	-11.052428245544434
rk	-11.052520751953125
▁conviction	-11.052620887756348
▁equality	-11.05290699005127
▁cure	-11.053035736083984
▁Hope	-11.053314208984375
ette	-11.053611755371094
▁width	-11.053842544555664
▁Arthur	-11.053874015808105
▁crew	-11.05393123626709
▁rat	-11.05421257019043
rah	-11.054779052734375
▁rely	-11.05481243133545
▁intervention	-11.05540943145752
▁beneath	-11.055410385131836
▁trading	-11.055426597595215
▁settings	-11.055431365966797
▁safeguard	-11.055436134338379
▁Iraqi	-11.055451393127441
▁dramatic	-11.055562019348145
▁Uh	-11.055631637573242
▁Nath	-11.055742263793945
▁somebody	-11.055816650390625
▁Rani	-11.055882453918457
take	-11.056103706359863
cher	-11.056201934814453
▁ODI	-11.056624412536621
▁evidently	-11.05687427520752
▁sessions	-11.05690860748291
▁dominated	-11.056910514831543
▁gratitude	-11.05698013305664
▁transmission	-11.056989669799805
▁resolved	-11.05728530883789
▁Gospel	-11.057365417480469
will	-11.057623863220215
▁spin	-11.057762145996094
▁icon	-11.057842254638672
▁sleeping	-11.058422088623047
▁sorrow	-11.058552742004395
▁Pharisees	-11.058566093444824
▁annually	-11.058799743652344
▁collective	-11.059354782104492
Muslim	-11.059837341308594
ball	-11.059931755065918
▁81	-11.059965133666992
▁Tribunal	-11.060127258300781
▁inheritance	-11.060169219970703
▁neighborhood	-11.06061840057373
▁Azad	-11.060822486877441
Ro	-11.06135082244873
▁Winter	-11.061853408813477
▁inhabited	-11.062247276306152
▁illustrate	-11.062357902526855
▁sal	-11.062800407409668
▁possess	-11.063371658325195
▁renowned	-11.063437461853027
▁ro	-11.063443183898926
▁passes	-11.063858032226562
▁x	-11.064005851745605
▁Happy	-11.064218521118164
200	-11.064566612243652
▁output	-11.064701080322266
ella	-11.064737319946289
▁Tube	-11.064785957336426
▁Brooklyn	-11.064866065979004
▁Agency	-11.064891815185547
▁oppression	-11.064936637878418
▁tenure	-11.06527042388916
bat	-11.06531047821045
▁monitor	-11.065313339233398
▁roots	-11.066303253173828
cept	-11.06671142578125
▁worshipers	-11.067047119140625
▁2:1	-11.067554473876953
other	-11.067642211914062
▁carriage	-11.068037986755371
▁Gulf	-11.068236351013184
▁3:15	-11.06844711303711
vy	-11.068525314331055
▁Madras	-11.068618774414062
load	-11.068705558776855
▁Shortly	-11.06889533996582
▁Turn	-11.06916332244873
▁Simon	-11.069379806518555
▁watched	-11.069540023803711
ony	-11.069563865661621
▁horses	-11.069600105285645
▁adjacent	-11.06962776184082
▁revolt	-11.069629669189453
▁Chaplin	-11.069674491882324
▁trains	-11.069843292236328
▁minority	-11.069948196411133
▁Ber	-11.070268630981445
art	-11.070300102233887
▁Mel	-11.070385932922363
▁conflicts	-11.070685386657715
▁Know	-11.07072639465332
▁Albert	-11.071043968200684
his	-11.071077346801758
tom	-11.071154594421387
▁1:3	-11.071202278137207
▁Stephen	-11.071231842041016
▁dinner	-11.071249008178711
▁Damascus	-11.071320533752441
▁shock	-11.071715354919434
▁doctrine	-11.071876525878906
▁hiding	-11.07210636138916
▁28:19	-11.072254180908203
▁mosques	-11.072763442993164
▁Pir	-11.073297500610352
▁sha	-11.073318481445312
▁frequent	-11.07370376586914
AD	-11.074283599853516
▁aimed	-11.074320793151855
▁radical	-11.074419975280762
▁starring	-11.074507713317871
▁Location	-11.074509620666504
▁conservative	-11.074540138244629
▁3:16	-11.074579238891602
▁Trans	-11.074633598327637
you	-11.074687957763672
▁19,	-11.074989318847656
-3	-11.075048446655273
▁suspended	-11.075066566467285
▁Bharat	-11.075075149536133
▁versions	-11.075141906738281
▁objectives	-11.07522201538086
▁noble	-11.075244903564453
ain	-11.075284004211426
mark	-11.075627326965332
▁Ash	-11.075910568237305
pon	-11.07593059539795
▁Archaeological	-11.07601261138916
▁lunch	-11.076027870178223
▁grade	-11.076117515563965
▁hopes	-11.07637882232666
▁Rock	-11.076510429382324
▁mar	-11.076569557189941
▁23,	-11.07695198059082
▁reserve	-11.077016830444336
vers	-11.077089309692383
▁delivery	-11.077280044555664
▁praised	-11.077398300170898
▁geographical	-11.07752513885498
▁rid	-11.077648162841797
▁crown	-11.077827453613281
▁Bag	-11.077856063842773
▁Player	-11.078128814697266
Su	-11.078205108642578
▁interior	-11.078298568725586
▁accord	-11.078387260437012
sur	-11.07859992980957
▁Stone	-11.07871150970459
Le	-11.079087257385254
▁censorship	-11.079472541809082
▁Quran	-11.079705238342285
▁expressing	-11.079893112182617
link	-11.08040714263916
Deuteronomy	-11.080572128295898
▁79	-11.080678939819336
▁solar	-11.080831527709961
▁Mubarak	-11.081064224243164
▁abilities	-11.081196784973145
▁Qu	-11.081361770629883
▁arise	-11.081429481506348
▁tries	-11.081671714782715
▁shame	-11.081820487976074
▁generations	-11.081928253173828
shed	-11.082201957702637
▁insurer	-11.082480430603027
▁Rs	-11.082500457763672
▁Night	-11.082564353942871
▁Eid	-11.082832336425781
▁Sara	-11.083012580871582
▁silk	-11.083176612854004
▁ease	-11.083351135253906
▁sets	-11.083517074584961
▁practiced	-11.083758354187012
▁j	-11.083794593811035
▁DO	-11.083863258361816
una	-11.084100723266602
▁shopping	-11.084102630615234
▁flee	-11.084145545959473
ux	-11.084338188171387
tz	-11.084403038024902
▁Din	-11.0845308303833
▁directors	-11.084693908691406
▁Champions	-11.08470344543457
▁Services	-11.084839820861816
▁legend	-11.08491325378418
▁Nigeria	-11.0850248336792
pat	-11.08510684967041
▁absolutely	-11.085156440734863
▁package	-11.08539867401123
▁WEEK	-11.08566665649414
▁challenging	-11.08566665649414
▁detention	-11.085734367370605
▁dated	-11.085798263549805
Am	-11.085874557495117
▁wooden	-11.086236953735352
▁floods	-11.086638450622559
▁bell	-11.086793899536133
▁pp	-11.0868501663208
▁Lot	-11.086898803710938
▁SMS	-11.08712387084961
▁BIBLE	-11.087285041809082
▁tunnel	-11.087285041809082
▁tobacco	-11.087285995483398
▁Satyajit	-11.08729362487793
▁honey	-11.087308883666992
ND	-11.087309837341309
▁Ever	-11.087419509887695
▁riches	-11.087739944458008
▁jump	-11.087888717651367
tte	-11.088096618652344
▁experiment	-11.088448524475098
ST	-11.088489532470703
▁beating	-11.088534355163574
▁finger	-11.08857536315918
▁License	-11.088906288146973
▁biological	-11.088959693908691
▁Uddin	-11.08896255493164
ering	-11.088971138000488
▁locations	-11.089096069335938
▁scenes	-11.089123725891113
ld	-11.089363098144531
fo	-11.08968734741211
▁aims	-11.089863777160645
▁pocket	-11.090065002441406
▁globe	-11.090529441833496
▁Zone	-11.090904235839844
ets	-11.091564178466797
▁permit	-11.09160041809082
▁Ana	-11.091856956481934
▁novels	-11.091862678527832
▁balanced	-11.091910362243652
▁Chile	-11.092138290405273
▁1933	-11.092511177062988
▁Berlin	-11.092803955078125
▁Kala	-11.092939376831055
▁clubs	-11.092964172363281
▁20,	-11.09312629699707
."*	-11.093417167663574
▁ending	-11.093513488769531
India	-11.093599319458008
▁Medicine	-11.093796730041504
▁funny	-11.093852996826172
▁deposit	-11.094083786010742
fish	-11.094476699829102
▁differ	-11.094491004943848
0)	-11.094564437866211
hen	-11.094704627990723
▁Zimbabwe	-11.094985961914062
▁Bra	-11.095227241516113
▁pi	-11.095412254333496
▁concluding	-11.095415115356445
▁explosion	-11.095415115356445
▁poets	-11.095586776733398
▁Mis	-11.095620155334473
▁Leave	-11.095648765563965
pic	-11.095787048339844
At	-11.095880508422852
▁resource	-11.095911979675293
▁yield	-11.096016883850098
▁sum	-11.096064567565918
▁21,	-11.09622573852539
▁stable	-11.09658432006836
▁depending	-11.096660614013672
▁assault	-11.096776008605957
sanitary	-11.096819877624512
five	-11.096826553344727
pal	-11.097023963928223
▁Anderson	-11.097310066223145
▁Recently	-11.09743881225586
▁sensitive	-11.09749698638916
jit	-11.09760856628418
▁Amar	-11.097612380981445
sky	-11.097874641418457
▁Amin	-11.098175048828125
▁municipal	-11.098450660705566
▁1968	-11.098453521728516
▁consisted	-11.098584175109863
▁federal	-11.098686218261719
▁trademark	-11.098787307739258
▁abandon	-11.09930419921875
▁claiming	-11.099403381347656
▁reportedly	-11.099451065063477
▁mighty	-11.099455833435059
▁stages	-11.099472999572754
▁Someone	-11.099750518798828
▁bore	-11.099784851074219
▁transform	-11.099968910217285
aries	-11.100218772888184
▁Urban	-11.10037899017334
▁shift	-11.100625991821289
▁4:8	-11.100693702697754
▁evolved	-11.100791931152344
▁pace	-11.100876808166504
▁designs	-11.100926399230957
▁distinction	-11.101042747497559
▁guided	-11.101663589477539
Con	-11.101705551147461
▁requirement	-11.101825714111328
▁foods	-11.102151870727539
▁Mai	-11.102190017700195
▁managing	-11.102291107177734
▁Independent	-11.102354049682617
hel	-11.102389335632324
▁graduate	-11.102566719055176
OR	-11.102675437927246
▁assignments	-11.102856636047363
▁tab	-11.1030912399292
▁compound	-11.10324478149414
was	-11.103392601013184
▁spouse	-11.103612899780273
▁fe	-11.103774070739746
lai	-11.103803634643555
▁1978	-11.104207992553711
▁highlight	-11.104252815246582
ix	-11.10471248626709
5;	-11.10496711730957
under	-11.105034828186035
▁Seven	-11.105083465576172
gri	-11.105116844177246
▁Guinea	-11.105270385742188
▁Things	-11.1055326461792
▁communal	-11.1055326461792
▁decorated	-11.105551719665527
▁Titus	-11.105562210083008
▁demonstrations	-11.105656623840332
▁likewise	-11.105828285217285
▁laugh	-11.106215476989746
▁Shu	-11.106218338012695
▁resigned	-11.106539726257324
stra	-11.106756210327148
▁28,	-11.106816291809082
▁Text	-11.106823921203613
▁hungry	-11.10699462890625
▁scholarship	-11.107026100158691
▁Shut	-11.107641220092773
▁qualify	-11.107831954956055
▁Cambridge	-11.108566284179688
▁symptoms	-11.108691215515137
gha	-11.109332084655762
than	-11.109428405761719
▁finds	-11.109633445739746
):	-11.109662055969238
▁correctly	-11.109679222106934
▁gay	-11.109892845153809
▁coconut	-11.110218048095703
Md	-11.110459327697754
mir	-11.110776901245117
▁damn	-11.110869407653809
▁10,000	-11.111116409301758
▁uploaded	-11.11119556427002
▁contacts	-11.111308097839355
▁restricted	-11.111311912536621
▁rebel	-11.111536979675293
ther	-11.111552238464355
▁ritual	-11.111637115478516
▁handling	-11.1117582321167
▁Mad	-11.111786842346191
▁Khwaja	-11.111876487731934
▁diverse	-11.111909866333008
▁fortune	-11.11192512512207
▁invisible	-11.112096786499023
▁ranked	-11.112287521362305
aq	-11.1123628616333
▁increases	-11.112750053405762
▁arguments	-11.112813949584961
▁steal	-11.112944602966309
▁besides	-11.11302661895752
▁CE	-11.11326789855957
▁wings	-11.113276481628418
▁organic	-11.113471031188965
ele	-11.11352825164795
▁Senior	-11.11353874206543
rous	-11.113757133483887
ches	-11.114163398742676
▁Meghna	-11.114374160766602
▁pal	-11.11447525024414
▁Jahan	-11.114692687988281
▁exception	-11.115018844604492
▁inherited	-11.11506462097168
▁supervision	-11.115219116210938
▁yeah	-11.115225791931152
▁Degree	-11.115226745605469
▁tourists	-11.115618705749512
lay	-11.11607551574707
▁vary	-11.116477966308594
sia	-11.11656379699707
▁Armed	-11.116636276245117
▁attractive	-11.116986274719238
▁2.0	-11.117005348205566
▁Something	-11.11705207824707
▁reasoning	-11.117238998413086
ulation	-11.117426872253418
▁produces	-11.117488861083984
▁selfish	-11.117537498474121
▁adequate	-11.117600440979004
▁12:2	-11.118102073669434
▁tropical	-11.118544578552246
▁dancing	-11.118545532226562
▁oath	-11.118638038635254
mun	-11.118685722351074
sim	-11.1187105178833
▁shops	-11.118889808654785
▁awake	-11.118979454040527
▁marketing	-11.119296073913574
ox	-11.119416236877441
▁reminder	-11.119468688964844
Rev	-11.119531631469727
▁cur	-11.119906425476074
▁locked	-11.119913101196289
▁Portugal	-11.120209693908691
▁Likewise	-11.120274543762207
▁Inspector	-11.120317459106445
▁fruitage	-11.120500564575195
▁anybody	-11.120597839355469
cr	-11.12062931060791
▁rational	-11.121042251586914
▁lasted	-11.121325492858887
▁250	-11.121496200561523
▁limitations	-11.121871948242188
eem	-11.121872901916504
▁Thursday	-11.121885299682617
▁solidarity	-11.121885299682617
▁Protests	-11.121931076049805
▁scientist	-11.122008323669434
▁fired	-11.122023582458496
kal	-11.122040748596191
▁marine	-11.122068405151367
▁transformed	-11.122183799743652
▁interpretation	-11.122193336486816
how	-11.122640609741211
▁shell	-11.123187065124512
▁dogs	-11.123202323913574
▁violation	-11.123544692993164
▁Marriage	-11.123562812805176
▁viewpoint	-11.123762130737305
▁lab	-11.123944282531738
▁businesses	-11.124122619628906
▁7)	-11.124739646911621
▁Model	-11.124825477600098
▁Reading	-11.124996185302734
▁merchants	-11.12510871887207
▁ambassador	-11.125243186950684
▁heartfelt	-11.125243186950684
▁architectural	-11.125250816345215
▁auxiliary	-11.125533103942871
▁brave	-11.125534057617188
▁Wales	-11.125567436218262
gro	-11.12584400177002
ock	-11.126707077026367
▁disk	-11.127232551574707
▁deaf	-11.127388954162598
▁1934	-11.12746810913086
▁generous	-11.12768268585205
▁97	-11.127694129943848
mes	-11.127893447875977
▁prophetic	-11.127923965454102
▁96	-11.128053665161133
▁exert	-11.128072738647461
▁char	-11.128125190734863
▁Worship	-11.128613471984863
▁4:4	-11.128643035888672
ori	-11.128814697265625
▁sees	-11.128852844238281
▁Unknown	-11.128881454467773
▁crossing	-11.128900527954102
▁computers	-11.129318237304688
▁1996,	-11.129426002502441
els	-11.12943172454834
▁Final	-11.12968921661377
▁lift	-11.129990577697754
▁Answer	-11.130209922790527
▁seasons	-11.130258560180664
▁Maulana	-11.130302429199219
▁Tehran	-11.130302429199219
▁Husain	-11.1303129196167
▁theories	-11.130415916442871
▁mess	-11.130533218383789
▁Angeles	-11.130701065063477
▁Much	-11.131095886230469
▁Self	-11.13124942779541
Da	-11.131356239318848
dies	-11.13171100616455
2%	-11.131880760192871
▁dominant	-11.131994247436523
▁kitchen	-11.131997108459473
▁merchant	-11.13213062286377
▁Band	-11.13219928741455
ologist	-11.132347106933594
zan	-11.132471084594727
▁authorized	-11.132538795471191
Un	-11.13258171081543
▁6:10	-11.13278579711914
berg	-11.132837295532227
▁folders	-11.132878303527832
▁pool	-11.132903099060059
▁ho	-11.132975578308105
▁Rio	-11.133340835571289
▁Sanitation	-11.133689880371094
▁artificial	-11.133689880371094
▁JEHOVAH	-11.133763313293457
▁bitter	-11.133771896362305
zy	-11.134387969970703
▁smooth	-11.13444995880127
▁shallow	-11.134687423706055
OC	-11.134751319885254
▁1926	-11.13480281829834
rn	-11.134833335876465
▁models	-11.135137557983398
▁Ed	-11.135228157043457
ans	-11.135371208190918
ssa	-11.135697364807129
press	-11.135702133178711
▁forming	-11.135723114013672
▁beaten	-11.135797500610352
▁joyful	-11.135986328125
Your	-11.136022567749023
▁Amir	-11.136144638061523
▁boss	-11.136236190795898
▁Regional	-11.136241912841797
▁Tam	-11.136322021484375
▁Kim	-11.136384010314941
▁cultivated	-11.136408805847168
ique	-11.136754035949707
▁periodicals	-11.136855125427246
One	-11.137007713317871
▁Philip	-11.137016296386719
▁Vatican	-11.13708782196045
▁wealthy	-11.137288093566895
▁stem	-11.137420654296875
▁cares	-11.137482643127441
mate	-11.137792587280273
shu	-11.138132095336914
Pro	-11.138153076171875
▁Municipal	-11.138608932495117
▁weakness	-11.138744354248047
▁distinguish	-11.138776779174805
▁Murshidabad	-11.13880729675293
▁pet	-11.139008522033691
dri	-11.139137268066406
▁menu	-11.139195442199707
level	-11.139666557312012
▁Got	-11.139740943908691
▁assets	-11.139761924743652
▁Rama	-11.139762878417969
▁Brahma	-11.139841079711914
▁surrender	-11.140284538269043
▁93	-11.140851974487305
ration	-11.140878677368164
▁2000,	-11.14097785949707
100	-11.141268730163574
▁masses	-11.141336441040039
▁tin	-11.141356468200684
mann	-11.141447067260742
pri	-11.141798973083496
▁tweet	-11.141894340515137
▁refugee	-11.141916275024414
cs	-11.141944885253906
▁boycott	-11.14199161529541
osa	-11.142016410827637
▁Along	-11.142220497131348
▁Kerala	-11.142221450805664
▁plenty	-11.142342567443848
Li	-11.142362594604492
▁recover	-11.142415046691895
▁110	-11.142555236816406
▁tu	-11.142638206481934
▁Khalid	-11.143508911132812
▁Faculty	-11.143919944763184
▁pregnant	-11.143919944763184
▁sequence	-11.143919944763184
▁terror	-11.143956184387207
▁ownership	-11.144031524658203
▁Hassan	-11.144094467163086
▁Gra	-11.144335746765137
▁fees	-11.144372940063477
▁mutual	-11.144709587097168
plo	-11.144811630249023
▁eggs	-11.144916534423828
pet	-11.14507007598877
▁mentions	-11.145421028137207
▁mothers	-11.145459175109863
▁Hyderabad	-11.145634651184082
▁Bollywood	-11.14566421508789
▁radiation	-11.14568042755127
pin	-11.145695686340332
▁Private	-11.145793914794922
▁shifted	-11.145925521850586
▁Lady	-11.145962715148926
▁latrine	-11.146025657653809
▁ties	-11.146050453186035
Pa	-11.14610481262207
▁crossed	-11.146261215209961
▁criminals	-11.146346092224121
▁somehow	-11.146539688110352
▁dismissed	-11.14670467376709
▁fer	-11.146876335144043
May	-11.147217750549316
▁staying	-11.147225379943848
test	-11.147281646728516
▁Mosaic	-11.147353172302246
▁horror	-11.147353172302246
▁preceding	-11.147353172302246
▁Teabing	-11.147355079650879
▁Religion	-11.147473335266113
▁Gha	-11.147481918334961
ked	-11.147703170776367
▁civilians	-11.147791862487793
▁chamber	-11.147810935974121
▁regardless	-11.147817611694336
▁Jas	-11.147836685180664
▁Sat	-11.147836685180664
▁cargo	-11.147871971130371
▁Fair	-11.148143768310547
▁Journal	-11.148551940917969
▁warfare	-11.149076461791992
▁Survey	-11.149084091186523
ata	-11.149637222290039
hour	-11.149720191955566
▁searching	-11.149748802185059
▁ob	-11.14986801147461
9)	-11.149984359741211
▁twin	-11.14999771118164
two	-11.150303840637207
▁Er	-11.15046501159668
▁meaningful	-11.15052318572998
▁volumes	-11.150596618652344
BS	-11.150641441345215
▁nose	-11.150641441345215
output	-11.150777816772461
▁Eventually	-11.150798797607422
▁memories	-11.150848388671875
▁stating	-11.150956153869629
▁Sarkar	-11.151057243347168
▁declined	-11.151090621948242
▁Gate	-11.151524543762207
▁discern	-11.151532173156738
▁ju	-11.151570320129395
rang	-11.151678085327148
▁Elizabeth	-11.152525901794434
▁Lebanese	-11.152525901794434
▁crore	-11.152896881103516
-25	-11.152917861938477
▁alien	-11.153168678283691
▁peasants	-11.153181076049805
▁Years	-11.153959274291992
▁closing	-11.154255867004395
▁Mohamed	-11.154265403747559
▁Dubai	-11.154358863830566
▁inaugurated	-11.154474258422852
▁Jamaat	-11.15453052520752
▁Garden	-11.154935836791992
▁Short	-11.155305862426758
▁Compare	-11.155502319335938
▁crack	-11.155839920043945
▁Presidency	-11.155988693237305
▁premises	-11.156103134155273
▁consciousness	-11.156339645385742
▁Teacher	-11.156628608703613
RA	-11.156726837158203
▁Programme	-11.157122611999512
ched	-11.15719223022461
▁souls	-11.15750503540039
▁Egyptians	-11.157516479492188
▁Tra	-11.157523155212402
▁prevalent	-11.15774154663086
▁decree	-11.158063888549805
▁mom	-11.158079147338867
▁proportion	-11.158406257629395
▁Tract	-11.158496856689453
▁speakers	-11.15878677368164
sol	-11.159357070922852
▁Kun	-11.159392356872559
has	-11.159632682800293
related	-11.159653663635254
▁belonged	-11.160274505615234
▁disorder	-11.16027545928955
▁29,	-11.160802841186523
▁killer	-11.161191940307617
▁Regiment	-11.161210060119629
▁Actually	-11.161404609680176
sum	-11.1619234085083
▁Speaker	-11.161972045898438
cious	-11.162442207336426
▁Saha	-11.162446022033691
Com	-11.162620544433594
tali	-11.1629056930542
▁strategy	-11.162951469421387
▁confined	-11.163187026977539
mw	-11.163246154785156
3;	-11.163350105285645
▁Bring	-11.163564682006836
300	-11.163583755493164
▁hoping	-11.163637161254883
▁Anne	-11.164201736450195
▁villagers	-11.164251327514648
▁centers	-11.164299964904785
▁Return	-11.164433479309082
▁passion	-11.16464614868164
▁loves	-11.164655685424805
anga	-11.164749145507812
▁SONGS	-11.164779663085938
▁Tab	-11.164786338806152
▁abundance	-11.164809226989746
ption	-11.164815902709961
▁Poland	-11.164946556091309
▁2006.	-11.165581703186035
▁27,	-11.165596008300781
4;	-11.165681838989258
▁nationalism	-11.16598892211914
▁faculty	-11.166450500488281
▁Technical	-11.166451454162598
▁reliable	-11.166451454162598
▁Potter	-11.166580200195312
▁accepting	-11.166580200195312
▁Peru	-11.16664981842041
▁slip	-11.16671371459961
▁Often	-11.166861534118652
▁seal	-11.166882514953613
▁AIDS	-11.167128562927246
▁98	-11.167217254638672
▁apparent	-11.167271614074707
▁rough	-11.16729736328125
ees	-11.167762756347656
▁actors	-11.167978286743164
economic	-11.1680908203125
gam	-11.168200492858887
▁verdict	-11.168205261230469
▁equipped	-11.168242454528809
▁brotherhood	-11.16844367980957
▁partners	-11.168763160705566
▁6:4	-11.169170379638672
▁gr	-11.169408798217773
member	-11.16954517364502
parser	-11.169610977172852
▁Game	-11.169918060302734
▁extraordinary	-11.169966697692871
▁Tangail	-11.16996955871582
yu	-11.170074462890625
▁pulse	-11.170146942138672
▁oppose	-11.17020034790039
▁upset	-11.170236587524414
zar	-11.170242309570312
▁joke	-11.170442581176758
wing	-11.170642852783203
▁Prior	-11.17098331451416
▁addresses	-11.17151927947998
get	-11.171531677246094
▁Role	-11.17161750793457
Where	-11.171650886535645
▁dialogue	-11.171737670898438
").	-11.171855926513672
▁Brunei	-11.171895027160645
▁Cast	-11.171899795532227
▁pitch	-11.171918869018555
▁donated	-11.172121047973633
▁cook	-11.172175407409668
▁1927	-11.172386169433594
nna	-11.172411918640137
hati	-11.172555923461914
▁Dead	-11.172606468200684
▁103	-11.1729154586792
▁nut	-11.173171043395996
▁Workers	-11.17334270477295
▁4:7	-11.173347473144531
foot	-11.173456192016602
▁Atlantic	-11.173486709594727
▁rebels	-11.173686981201172
▁cutting	-11.1739501953125
▁th	-11.174060821533203
▁hoped	-11.174239158630371
Ho	-11.174641609191895
▁sole	-11.17483139038086
▁arch	-11.17493724822998
iq	-11.174959182739258
▁Moroccan	-11.175253868103027
▁glance	-11.175253868103027
▁Higher	-11.175506591796875
▁employ	-11.175605773925781
ao	-11.1759033203125
▁Hard	-11.176064491271973
▁lac	-11.176258087158203
▁Gan	-11.176420211791992
7;	-11.176529884338379
▁prisoner	-11.176868438720703
Ecclesiastes	-11.17693042755127
▁ranking	-11.176987648010254
▁Invalid	-11.177024841308594
▁Aaron	-11.177170753479004
pen	-11.177430152893066
▁Chu	-11.177450180053711
▁50%	-11.177698135375977
▁2:2	-11.177850723266602
▁sadar	-11.177872657775879
▁fighter	-11.177980422973633
▁filter	-11.178095817565918
▁Allah	-11.178577423095703
▁Want	-11.178634643554688
EL	-11.178753852844238
▁electrification	-11.178796768188477
▁Click	-11.178911209106445
▁nominations	-11.179010391235352
▁excited	-11.1790132522583
ami	-11.179021835327148
▁announcements	-11.17906379699707
▁depict	-11.17910385131836
▁3:	-11.17912769317627
▁1917	-11.17922306060791
Fi	-11.179229736328125
▁Irish	-11.179229736328125
▁1981	-11.17946720123291
▁desired	-11.1798677444458
▁Mak	-11.180033683776855
more	-11.180218696594238
▁peer	-11.180322647094727
▁24:3	-11.18045425415039
▁whenever	-11.180542945861816
▁Cottage	-11.180572509765625
▁Regarding	-11.180572509765625
▁narrative	-11.180572509765625
life	-11.180663108825684
rr	-11.180727005004883
▁bone	-11.180794715881348
▁distinguished	-11.180798530578613
▁divide	-11.180867195129395
nation	-11.180975914001465
▁obstacles	-11.181055068969727
▁definitely	-11.181167602539062
tch	-11.181278228759766
▁continuous	-11.181416511535645
▁abolished	-11.181465148925781
▁profound	-11.181507110595703
▁volunteer	-11.181512832641602
▁Question	-11.181649208068848
▁tied	-11.181710243225098
▁density	-11.182353973388672
▁Secret	-11.182422637939453
▁Path	-11.182516098022461
▁civilization	-11.182676315307617
▁cease	-11.182753562927246
about	-11.182771682739258
rie	-11.182875633239746
▁unexpected	-11.183198928833008
Se	-11.183223724365234
▁allegedly	-11.183659553527832
▁zamindari	-11.18370246887207
mas	-11.183770179748535
▁Works	-11.18405532836914
▁summary	-11.184183120727539
▁slavery	-11.184589385986328
▁119	-11.18463134765625
▁exceeding	-11.18493938446045
▁towers	-11.18518352508545
scale	-11.185223579406738
▁progressive	-11.185405731201172
nee	-11.185525894165039
[...]
